#version: 0.2
Ġ t
h e
Ġ a
i n
Ġ Ġ
Ġt he
r e
Ġ o
Ġ s
N N
e r
e n
Ġ w
o n
n d
i s
i t
a t
T T
A A
o u
e s
Ġ d
Ġ b
Ġ m
Ġ c
e d
Ġ h
a n
Ġo f
Ġ f
o r
Ġ p
a r
NN NN
l l
ĠĠ ĠĠ
Ġ l
a s
Ġt o
Ġa nd
in g
Ġ in
T G
A G
Ġ n
C C
Ġt h
o m
i c
Ġ e
l e
a l
Ġ he
u t
s t
en t
Ġ g
a d
o t
i on
â Ģ
Ġb e
s e
T C
NNNN NNNN
v e
Ġ I
i m
A C
e t
r o
i d
Ġ u
l y
a c
Ġ re
u r
i r
Ã ¤
Ġ v
l d
i g
o w
Ġd e
Ġ T
Ġw h
ĠĠĠĠ ĠĠĠĠ
Ġo n
Ġ y
G G
a m
Ġth at
Ġw as
c h
it h
q u
a y
c e
Ġ it
Ġ S
Ġf or
a nd
i l
- -
Ġ is
Ġa s
Ġ A
v er
A T
h t
Ġ k
A TT
Ġw ith
c t
Ġw e
Ã ©
r i
Ġ M
Ġs t
he r
Ġh is
t er
Ġa n
i ll
i e
Ġy ou
u s
u n
a in
Ġs e
Ġ C
a ll
t e
o l
t h
NNNNNNNN NNNNNNNN
Ġ H
ic h
Ġ r
o s
Ġ B
a g
Ġn ot
Ġa t
i f
es t
u l
A TG
es s
at ion
e l
Ġ P
Ġh a
o d
a k
e m
Ġc on
ĠĠ Ġ
Ġh ad
ĠT he
re s
Ġ j
an t
ou ld
a b
Ġ qu
Ġs u
Ġo r
G C
p p
re d
Ġb y
is t
r om
t he
o re
Ġ G
Ġ 1
ig ht
T AA
âĢ Ļ
ou r
Ġhe r
Ġm e
Ġs h
Ġ L
ou s
u m
er s
Ġ W
Ġl e
Ġs o
Ġc om
en d
Ġn e
t o
a p
Ġwh ich
ar d
i v
Ġ D
Ġa ll
e ct
Ġ F
Ġu n
Ġ E
Ġs a
Ġ _
T CC
Ġf rom
A CC
u st
Ġh im
Ġha ve
Ġe x
o k
AA AA
o p
ou g
he n
ar t
Ġth is
Ġa l
Ġl a
r a
e ll
Ġ en
Ġb ut
AG G
as t
at e
âĢ ľ
Ġc h
Ġ "
Ġ R
âĢ Ŀ
Ġa re
g e
AG C
ou t
A TC
ĠĠĠĠĠĠĠĠ ĠĠĠĠĠĠĠĠ
i k
or t
TT C
Ġd o
Ġwe re
' s
n t
in d
om e
Ġ N
i ve
Ġu p
Ġthe y
Ġw or
Ġs he
on g
n e
b er
Ġp ro
Ġm an
Ġn o
Ġwh o
Ġm y
i es
Ġ O
ou nd
AA G
a v
Ġs p
o st
u re
am e
TT TT
Ġ J
a u
an s
Ġon e
c i
Ġp l
in e
TG C
Ġg o
it y
TG G
Ġthe ir
Ġa b
f f
it t
m ent
d e
Ġl o
NNNNNNNNNNNNNNNN NNNNNNNNNNNNNNNN
AA C
T he
a re
as s
Ġt r
. "
se l
Ġthe m
Ġ (
on e
. .
p l
oug h
TT G
re at
Ġ Ã
c k
Ġa r
ac e
i re
t her
p t
Ġbe en
id e
Ġe t
an ce
Ã¤ n
T AG
r y
e ar
c c
Ġsa id
o se
ab le
Ġw ould
Ġo ut
Ġ 2
Ġthe re
i a
Ġd es
Ġv er
is h
Ġw ill
T AC
ĠH e
u d
Ġp r
k s
p er
Ġu nd
on d
he d
Ġa g
o f
Ġan y
or d
en ce
n ow
b e
ak e
u e
v en
ic e
a it
l i
ag e
w e
Ġp er
im e
m e
Ġ im
ac k
, "
w n
o ll
Ġw hen
is s
it e
en s
Ã ¡
an g
ion s
re n
CC C
ad e
b l
Ġo ther
Ġf e
Ġc an
Ġ ro
Ġ K
Ġa d
Ġu s
Ġa m
e p
Ġ V
all y
i b
ar y
Ġm ore
Ã ¶
sel f
Ġ âĢľ
Ġd is
Ġg r
Ġh as
l o
re e
Ġqu e
ac h
ac t
ik e
at ed
Ġ if
Ġ z
res s
t ain
Ġb r
T ATT
ou nt
ĠĠĠĠ Ġ
Ġin to
Ġs ome
ĠI t
u ll
i le
Ġt w
u ch
he re
ay s
a is
r u
c l
j ect
f ore
in t
n g
âĢ Ķ
ur n
f ter
on s
TG GG
ĠT h
ot her
Ġc l
i p
Ġa pp
Ġth an
o y
Ġit s
Ġp o
f or
Ġk now
c he
Ġp art
t a
i ed
ï ¼
ing s
T AT
o g
Ġc ould
t y
Ġo ur
Ġyou r
s o
ow n
Ġp e
Ġt ime
Ġp re
in k
0 0
-- --
Ġwh at
p e
Ġver y
Ġe ver
_ ,
i ous
on t
oug ht
o od
m an
Ġo ver
Ġ Î
Ġg reat
ig n
ic k
Ġab out
AG AA
h ing
u g
Ġ 3
Ã ¨
itt le
ĠC h
Ġof f
Ġm ay
NNNNNNNNNNNNNNNNNNNNNNNNNNNNNNNN NNNNNNNNNNNNNNNN
v ed
NNNNNNNNNNNNNNNNNNNNNNNNNNNNNNNNNNNNNNNNNNNNNNNN NN
ar k
i an
a ve
Ġup on
Ġcom p
i ld
Ġon ly
os s
u nd
i z
ĠI n
i j
Ġ Y
is e
ĠÃ ł
k e
Ġ |
if e
w h
. âĢĿ
f t
Ġp ar
ĠS t
Ġl ike
Ġd id
Ġn ow
ĠĠĠĠ ĠĠ
Ġthe n
i er
m er
ir st
at h
ation s
at her
f e
ï¼ Į
' t
Ġwor k
ĠM r
Ġsh ould
Ã ¼
Ġag ain
Ġj a
Ġtw o
Ġc o
AG GG
c es
Ġse e
AG GC
Ġa fter
Ġre m
or n
Ġh and
Ġl ittle
ã Ģ
Ġ U
Ġm ade
Ġ i
f ul
w ard
Ġcon t
Ġm en
it ion
ĠA nd
TT TC
Ġre s
Ġl es
Ġb l
AG CC
at er
p r
or s
Ġund er
n ess
Ġm ust
. _
ul t
Ġ ent
Ġl ong
Ġthe se
AT AA
t en
ĠB ut
ut en
Ġa cc
Ġf l
Ġsu ch
r an
or y
Ġt e
? "
n ot
E R
Ġ Ã©
a an
Ġh ow
ri b
TG TG
s h
i en
Ġd er
ro w
as e
Ġlo ok
Ġs c
Ġbe fore
Ġb o
d u
Ġ es
ber g
Ġd ie
o ve
TT GG
Ġ il
w ay
l es
Ġo b
ĠP ro
Ġgo od
Ġm uch
et t
l and
a ir
Ġd own
Ġf irst
en er
Ġ1 8
AA GG
TC TC
Ġcon s
r it
c om
TCC C
Ġw here
ATT C
ic al
r ough
ic t
Ġ er
Ġs m
a i
t t
Ġim p
Î ±
, âĢĿ
Ġs er
un g
Ġm ost
Ġbe t
Ġcom m
AC AC
Ġ *
Ġc he
Ġo wn
qu e
Ġd i
d en
Ġp u
Ġo ld
uten berg
h at
th at
T ATG
Ġ 4
s s
c ed
ear s
o ld
Ġs i
a il
Ï Ħ
Ġe l
Ġd ist
TT TG
Ġs ur
Ġv o
e x
Ġo p
Ġever y
Ġp ass
ad y
em ent
TT CC
Î ½
Ġe ven
ot h
Ġ est
i ly
Ġe m
v es
a h
Ġk e
m s
l ed
a ut
e ver
Ġwe ll
Ġd ay
Ġsp e
ou se
Ã ³
Ġp res
Î ¿
Ġex p
a le
Ġa u
at t
Ġqu i
AG AG
at es
Ġbe c
Ġw ay
in s
Ġcom e
Ġd on
au se
Ġs ay
u p
ct ion
ri ed
Ġ '
Ġm in
c on
Ġt er
Ġd u
i al
Ġat t
i o
Ġc ar
Ġth rough
ib le
Ġth ose
Ġne ver
re t
Ġd en
Ġre p
a pp
Ġc ame
Ġbe ing
ATG G
ar m
AG TG
AA AC
Ġb ack
s u
v ing
h is
Ġg l
Ġman y
w ith
am p
Ġf ound
Ġl ife
ent s
d er
Ġbe l
op le
! "
at ter
u al
it s
Ġc all
u i
Ġm ar
n er
b le
Ġe ar
Ġs l
Ġse em
l ess
Ġm ight
Ġm ake
ĠĠĠĠ ĠĠĠ
a red
ĠPro ject
ig h
ACC C
e w
Ġl et
Ġe y
Ġj ust
TG CC
e g
AG AC
oll ow
Ġc our
Ġbe g
Ġhe re
c ess
m en
Ġwith out
Ġs ame
Ġ 5
Ġre t
o h
Î ¹
.. .
er n
Ġth ink
m ed
s i
AT CC
h y
ATT G
Ġa c
al k
. ,
ot t
Ġre g
ow er
Ġsh all
Ġhim self
Ġm o
is hed
Ġto o
Ġsu b
er tain
om et
n o
ll e
Ġ Â
ĠG utenberg
H E
Ġth ought
ĠS he
Ġh Ã¤n
c o
ĠA r
it ed
Ã© s
Ġse c
Ġp ers
ce pt
ATG C
Ġs on
Ã Ń
Ġ end
v ent
ä ¸
le ct
a z
I t
i ent
Ġm on
Ġc ount
Ġl ast
TG AA
AT AC
Ġde l
TT AA
Ġs in
H e
Ġin d
ver s
Ġsu pp
en ed
Ã¤ Ã¤
Ġn at
Ġal so
ak ing
g et
Ġne w
Ġa v
ĠW e
ri end
w as
re st
ar ge
TG GC
Ġwor d
Ġc e
p h
ĠĠĠĠĠĠĠĠĠĠĠĠĠĠĠĠ ĠĠĠĠĠĠĠĠĠĠĠĠĠĠĠĠ
TC AC
ul ar
Ġm a
Ġpl ace
an n
Ġre l
Ġ ri
t ed
Ġr ight
p le
Ã ª
en e
Ġf r
Ġa way
Ġd if
u x
o b
) ,
Ġhe ad
Ġpe ople
Ã Ł
Ġin st
Ġw ar
ut e
Ġst r
ĠThe y
ve l
m in
Ġst ill
O N
un e
t s
om an
Ġw ent
Ġf ollow
ill e
Ġ 6
Î µ
ic ht
TT GC
Ġ [
Ġwh ile
re nt
Ġm et
Ġt urn
u res
ut h
âĢ °
al s
Ġy ears
â Ķ
TAA G
Ġt ake
Ġas k
r on
s er
im es
p ect
Ġw r
E N
b r
TC TG
Ġs ch
ĠTh is
I I
GG G
m ost
g r
I N
Ġp oss
Ġf ar
T ATC
Ġg et
ĠS e
f l
te m
A R
ĠE ng
e red
i et
t r
I n
GG C
p ro
ter s
Ġg u
Ġde m
iv ed
k a
Ġa ct
ĠY ou
AA AG
it her
ant s
ent ly
TAA C
we en
Ġp ut
Ġg iv
w ays
ie f
od y
A N
Ġfor m
Ġey es
i in
_ .
l a
Ġre c
Ġyou ng
ell e
r ist
b y
Ġre st
Ġth ree
Ġf riend
ur ch
Ġs y
Ġv an
Ġd a
Ġin te
Ġj e
t m
Ã¤ Ã¤n
ãĢ Ĥ
Ġs ent
an y
Ġg ener
m y
Ġc ap
ĠI f
ot e
Ġm ind
Ġ âĢ
ĠU n
Ġp our
ak en
ĠThe re
Ġo cc
ut ion
re m
o ok
Ġe ff
ĠG od
al f
Ġch ild
en se
n y
p os
Ġ ed
Ġe in
el t
ĠĠĠĠĠĠĠĠĠĠĠĠĠĠĠĠ ĠĠĠĠĠĠĠĠ
Ġh ouse
G CC
o ot
th ing
Ġle ft
Ġv ol
Ġf ind
ar s
E S
Ġad d
Ã ł
Ġ --
TT AC
Ġ1 9
Ġfe w
Â »
c y
an k
for m
Ġd ans
Ġy et
Ġth ough
p s
Ġg e
Ġv ie
Ġt ell
ment s
Ġan other
AA GC
Ġs ou
x t
Ġp le
Ġp as
v o
Ġagain st
et s
ro ss
he s
z e
Ġn ight
g y
p ar
Ġe ach
Ġin t
Ġs omet
T AGC
ur s
v a
Ġre f
Ġun e
Ġg ive
Ġwor ld
n ing
u b
Ġon ce
Ġhe art
Ġl ight
bl ic
at ing
n a
Ġf ace
Ġcon f
au g
Ġpo int
Ġk u
ĠM ar
ĠD e
it u
v id
o ol
AT AT
A nd
Ġre ad
---- ----
ro wn
Ġf ull
Ã© e
ver n
T ACC
Ġne ar
ap s
re w
ne w
Ġex t
om ent
B ut
Ġa ff
Ġin ter
Ġc ol
Ġch ar
che s
our s
Ġ 8
Ġbet ween
Ġ -
ä º
AA CC
Ï Ĥ
er t
ur ing
Ġw ant
O R
Ï ģ
? âĢĿ
ĠA l
g g
ag es
Ġu se
in es
i red
Ġk ind
Ġsa w
Ġb u
ĠL e
op e
Ġc ertain
t Ã¤
it ies
a j
ir d
un t
Ġsm all
Ġas s
in ess
Ġw ater
Ġto ok
id er
Ġlo ve
Ġret urn
c hed
ir l
as on
Ġs il
if ic
ĠA s
Ġc op
Ġ ve
Ġn or
u se
) .
Ġ 7
ĠA n
Ġn ame
Ġo li
Ġnot hing
Ġin s
Ġs w
Ġd et
p o
AA TG
T AGG
Ġth ings
re ad
Ġs ide
Ġc or
Ġf am
k en
le t
Ġs et
a a
a us
Ġn um
ou n
Ã© t
wh ich
Ġd ou
al t
Ġan s
Ġ 0
Ġcount ry
. --
Ġcall ed
Ġla w
Ġv is
sel ves
Y ou
Ġal ways
a w
Ġ1 7
Ġd ire
Ġh um
Ġre ce
an o
in ed
ect ion
ĠT HE
Ġpers on
p art
i x
a im
Ġb oth
as ter
Ġc r
Ġp ur
Ġm oment
Ġha pp
us s
AG TC
ust r
ain ed
ain s
Ġpres ent
Ġd ays
y ou
Ġm it
it er
Ġt em
aug ht
Ġ Q
c hen
. ]
at s
ĠF or
Ġl and
Ġin c
Ġi h
Ġar t
Ġwho le
ĠR e
Ġs k
Ġc le
ie ld
am ent
Ġf a
Ġt u
l ish
Ġf ather
Ġam ong
Ï ĥ
Ġst e
Ġf act
Ġs at
T A
b ut
Ġv ar
en g
Ġb est
.. ..
ĠH is
et te
Ġqu est
ĠO F
ĠO n
om en
is on
Ġf in
w or
Ġfe el
h o
Ġh ome
Ġ Z
Ġso on
Ġse en
ab ly
Ġv i
is m
y ing
oh n
Ġdo or
AA TT
TG AC
ri e
Ġhand s
AT ATT
Ġt ra
Ġm il
l ing
r ap
in a
Ġsh ow
d o
Ï Ģ
1 8
Ġg ot
Ġpr in
g ed
ward s
a id
pp ed
Ġbec ause
Ġh alf
< /
v ol
Ġf ell
ain t
iv es
Ġ 9
Ġwor ks
ĠT o
ou d
ate ly
Ġs im
f ic
Ġb oy
Ġl arge
ar n
t on
Ġth ing
Ġc ur
Ġc are
Ġhe l
at ive
Ġd one
Ġto ld
Ġcour se
Ġha ving
st and
is ed
get her
Ġwh om
Ġc ent
Ġst and
Ġl ess
Ġlook ed
AAAA C
end ed
Ġgo ing
Ġm u
Ã¤ t
Ġask ed
Ã¨ re
Ġ1 5
TT TTC
Ï ħ
v al
Ġp ol
Ġh ard
Ġun t
Ġpl us
Ġz u
Ġro om
Ġ1 6
ull y
Ġp ower
ĠB e
Ġser v
id ent
Ġhe t
ent ion
er ing
ĠN o
os ed
ll a
Ġl i
ĠP r
Ġseem ed
ak es
ĠS o
g en
e k
Ġg irl
AA TC
I S
iss ion
Ġb ro
ĠI nd
Ġd r
at ch
TG TC
b en
y r
y s
an ge
Ġhe ard
Ġw ind
c ri
Ġh igh
h ad
Ġdo es
Ġf our
âĶ Ģ
Ġdis c
j a
ĠMr s
ur y
ci al
ver y
Ġ ÏĦ
ter n
Ġm od
Ġd Ã©
Ġm atter
el s
i ans
Ġcont in
an e
b t
f ect
Ġbet ter
Ġhow ever
Ġr u
Ġs ie
Ġk new
o le
m a
Ġbel ie
TG AG
Ġke ep
ĠCh rist
AAAA G
p re
Ġw oman
Ġe lect
re am
Ġad v
ce ed
d ay
AT AG
Ġgiv en
h r
Ġp ri
Ġ =
Ġh or
er y
k i
Ġv al
Ġf ore
one y
ut ta
Ġal most
t re
ĠW hen
Ġp rom
Ġm other
ar r
Ġde c
h aps
, --
Ġunt il
. )
ac es
Ġsu ff
Ġt aken
u ally
b re
as ed
Ġs ol
Ġp or
om m
TT TAA
an ces
Ġb re
Ã §
id es
it Ã¤
Ġo pp
' ll
Ġ1 0
h il
Ġn on
k in
Ġop en
Ġen ough
Ġinte rest
s p
ĠH er
ĠA t
Ġd as
orn ing
en n
r ic
Ġ X
c ul
g o
f ort
âĶĢ âĶĢ
Ġh on
! âĢĿ
Ġqu ite
Ġus ed
Ġne ed
Ġg ave
ĠThe n
u red
in en
mer ic
itt en
o i
ĠĠĠĠĠĠĠĠ Ġ
on y
und red
is ter
Ġa ve
f ully
ac hed
Ġo l
il s
Å ĳ
et h
Ġdif fe
Ġb us
Ġin de
Ġword s
Ġy ear
o is
ron ic
a x
g er
Ġcan not
Ġde v
Ġcon st
Ġde ath
z a
il ity
ou th
Ġpro du
Ġf all
l ic
Ġj o
h im
Î »
Ġbe aut
N o
Ġbe h
ĠS p
TT ATT
y t
ĠÃ© t
Ġm er
g es
ress ed
Ã© r
W e
Ġother s
Ġsomet hing
Ġb es
ok e
Ã¤ m
Ġ1 2
o ck
ĠJ ohn
Ġbr ought
Ġh old
ard s
ac ed
Ġre al
v in
ĠN ew
Ġl ui
Ġsec ond
ow s
ect ed
= =
Ġ ide
n i
ro p
TTTT G
Ġgr and
Ġ .
ĠL ord
u c
ra w
Ã ¦
Ġt en
Ġwh ite
Ġsin ce
at o
Ġ ill
ir it
te red
as h
or m
Ġpu blic
Ġbo ok
Â «
Ġfe et
f rom
AA ATT
Ġwho se
Î ·
Ġor der
iz ed
1 9
Ġoff ic
Ġle g
p ort
ren ce
Ġtr ans
st e
ac ter
ĠTh at
am es
Ġs ign
ir c
w er
Ġre qu
à °
ĠS ch
1 0
or g
Ġhel p
Ġhe av
A L
at ure
im ent
C H
Ġt ill
Ġm ed
I T
ur al
1 5
Ġp ort
Ġt ou
ĠI s
Ġr ound
T his
ĠâĢ ĺ
Ġm em
ĠF r
i us
R E
Ġt ri
ĠP ar
ond er
h a
it ions
å ħ
e c
ren ch
AC AG
u k
f er
W hat
Ġre pl
Ġne xt
Ġturn ed
a ik
Ġc ase
all e
et y
Ġtr ou
u es
AA TAA
iv id
r s
A P
ist a
TC AG
Ġme an
re ady
Ġm orning
Ġw he
Ġs un
Ġh o
Ġad m
Ġde p
w here
Ġr un
ip s
ad o
ang er
Ġcon d
Ġof ten
Ġpro f
Ġne cess
1 2
Ġv on
n en
Ġv ous
Ġa ir
ĠG e
i am
TT TCC
The re
ä ¹
1 6
st r
Ġme ans
Ġr ather
ĠM iss
Ġd ark
Ġf ire
ĠB r
Ġbeg an
1 7
Ġf ree
st er
Ġh undred
Ġh y
ĠEng lish
Ġab ove
Ġc oll
Ġhe ar
C h
Ġthem selves
Ġ ir
Ã ¢
Ġwith in
cc ess
00 0
Ġp ap
Ġk ing
Ġl os
Ġf elt
itt ed
Ġex pl
T ER
ll ustr
f in
ent y
Ġm ag
l s
ĠÃ ¡
Ġfor t
Ġe en
ist s
m p
s c
ĠA meric
Ġb lo
Ġst ate
Ġ &
o c
cl ud
ĠG er
an te
Ġp os
Ġs ing
res ent
Ġsu re
Ġt re
Ġ <
ol og
at a
S he
ĠW hat
Ġse l
ar ch
ill ed
AC TC
re g
ver al
h ave
u a
Ġknow n
Ġm ain
ĠA ll
se m
Ġpl ay
Ġal ong
iv at
Ġstr ong
Ġtr ue
Ġm oney
Ġh u
Ġ1 4
Ġg ent
Ġsi x
Ġe qu
v i
Ã¨ s
Ġa z
Ġp at
Ġto gether
N D
rib ut
Ġh at
Ġp al
Ġth us
' d
Ġf ur
Ġsub ject
the y
th ough
Ġpo or
Ġcons ider
Ġt alk
ac ht
ig in
Ġsh ort
iv ing
ã ģ
w ell
Ġre ason
Ġb ody
O U
ie l
ap e
Ġt y
Ġvo ice
Ġnum ber
Ġimp ort
Ġs ays
Ġcon c
1 4
Ġ ut
TT AG
AA ATG
Ġst ood
Ġl u
Î ¯
Ġto wn
AC G
wh at
Ã ¹
v is
Ġl ay
Ġm is
it a
AC TG
as ure
Ġb ed
TGGG C
Ġ1 3
Ġab s
Ġre d
ĠK ing
ow ed
Ġgr ound
Ġn icht
Ġnat ure
ĠC on
* *
i or
ĠG r
th is
a ar
Ġd uring
ic ular
Ġag re
Ġapp ear
. '
om p
uth or
Ġc as
Ġz ij
1 3
id en
Ġen c
i um
Ġcl ose
vern ment
Ġw rit
we re
Ġg re
I llustr
Ġs ich
ag ed
Ġgener al
L E
ig e
Ġe as
k o
i ence
Ġchild ren
s he
ut t
Ġe le
Ġe i
Ġd est
Ġw ife
Ġpass ed
Ġt out
ous and
Ġob ser
Ġb ar
ai ent
ener al
ot s
r ing
m on
Ġle ad
Ġme et
Ġf re
d is
Ġp ay
Ġst art
Ġhe ld
Ġt imes
u ed
d es
Ġany thing
an c
Ġla ug
Ġquest ion
Ã¤ r
Ġn ous
Ġar ri
AA AT
ber t
Ġse veral
s ide
in ter
Illustr ation
Ġr Ã©
Ġsu m
O h
ound ation
as ion
AGG CC
ic es
g l
Ġm us
ĠSt ates
_ _
ĠB y
Ġspe ak
Ġs le
s on
Ġmy self
m o
Ã© n
is i
Ġprin ci
and o
Ġter ms
Ġf ig
if ul
Ġdes c
av es
Ġhis t
Ġvie w
Ġa w
z en
Ġc al
Ġet tÃ¤
le y
Ġave c
c ons
Ġdire ct
i ers
å ı
Ġw alk
b o
ic s
Ġw ait
Ġf ut
Ã¼ r
p ose
b ers
Ġse a
Ġdou bt
Ġor d
ä »
rap h
Ġpro per
Ġau f
ĠS ir
the re
j o
ran ge
Ġar m
Ġle ast
ĠN or
Ġs ort
Ã¶ r
Ã ¥
av ing
Ġl ie
the ir
ĠC l
ra ve
Ġal ready
T h
a ff
Ġo m
Ġelect ronic
Ġa ut
o ff
Ġcle ar
Ġeff ect
Ġal one
Ġh ope
y n
Ġchar acter
Î ¼
Ġbelie ve
i ar
l ike
Ġsu d
Ġm id
al d
Ġst ud
i i
ĠF rench
Ġen g
Ġreg ard
n ight
Ġis t
Ġs we
ĠL a
I C
Ġit self
Ġe ither
I L
um e
Ġs us
ress ion
o ver
å ¤
Ġm ais
Ġob ject
AC TT
ATT TC
Ġ2 0
al ity
ĠEng land
Ġdiffe rent
Ġhum an
Ã ´
T hat
Î ¬
Ġb ur
AC AA
TGG CC
Ġde ep
Ġt ro
ad a
G AG
Ġs al
Ġde ar
ATC TC
Ġd ri
w o
Ġst ru
Ġc irc
ĠH ow
ĠW ill
Ġin v
iz e
il ed
Ġm or
Ġsu ccess
b ed
R O
Ġbl ack
Ġposs ess
Ġo u
Ġc ity
the m
Ġcomm on
ĠS h
s ch
G TG
are nt
on es
Ã¤ h
e ared
Ġ âĢĶ
il t
Ġs en
Ġde ad
Ġear th
Ġcomm and
Ġrece ived
tem pt
Ġher self
e e
Ġg one
Ġw omen
Ġa us
Ġw ood
ious ly
g u
Ġk un
ĠW h
Y es
Ġsud den
le m
Ġfollow ing
v an
al th
Ġa uthor
med i
Ï Į
Ġso ld
l t
ation al
Ġs es
ĠUn ited
tain ed
ĠF oundation
Ġsp irit
Ã¡ s
Ġd iv
Ġs ound
Ġl as
Ġen em
ord ing
c ont
c le
in ation
Ġacc ount
Ġlet ter
cl aim
Ġper haps
Ġe v
ĠF ran
c her
j e
ĠA d
Ġha b
Ġf av
Ġfor th
Ġbec ame
Ġbr ing
Ġres pect
if ied
Ġpr ot
æ ľ
ne y
Ġl ine
Ġf lo
Ġal s
he t
l er
b s
cri pt
itu de
Ġdif fic
Ġposs ible
e re
Ġex c
f act
ar ing
TG TAA
pl oy
Ġa f
end ing
h am
he ad
ATG CC
Ġpro b
ĠD r
Î º
ig en
Ġor igin
on n
Ġth ousand
Ã ±
Ġgent le
Ġm ount
att le
ĠO r
Ġc ried
Ġinde ed
a f
Ġan im
Ã¶ n
und er
Ġm ot
Ġbec ome
ri es
Ġl im
Ġy e
Ġes c
Ġg row
Ġh our
Ġle ave
Ġthere fore
c ent
k now
Ġar ound
Ġc ause
fl u
ci ent
o e
pp er
T o
Ġf ive
ĠJ e
we red
' m
TC TT
ĠE d
Ġex per
p or
i od
int ed
ist en
u ck
TATT C
Ġd ro
Ġp ost
ĠB l
Ġcomp le
ĠW ith
Ġb ien
Ġd om
w ill
an a
Ġ( _
Ġbr other
5 0
Ġrem em
ĠI l
Ġr ais
b and
p it
Ġde f
et er
l ich
Ġrepl ied
Ġl ive
ll Ã¤
in n
Ġf ear
Ġf air
u ro
Ġw all
ĠS c
Ġl ater
A s
O n
S t
Ġth ou
in ce
ou p
I f
th s
2 0
Ġman ner
Ġch ief
Ġbeh ind
E L
Ġm ark
Î¿ Ïħ
Ï ī
Ġe lle
Ġw ish
Ġp ain
Ġun a
E D
M r
Ġf ine
re et
Ġro ad
b ody
Ġpre t
ang ed
Ġd it
us ed
Ġex cept
Ġp ast
air s
Ġme re
all a
er v
Ġgo ld
Ġfriend s
as k
Ġfam ily
P ro
Ġcont r
or k
ir t
IN G
Ġl ost
id ed
AAAA AAAA
is ing
ĠC ol
ĠD o
Ã ®
ond on
ä¸ į
é ģ
ell a
D e
ĠC ar
Ġn i
ill a
d le
, '
Ġunder stand
The y
Ġan n
ATT TT
Ġm al
Ġth y
Ġm aking
AT ATG
qu es
Ġbus iness
in o
Ġpart icular
ir m
Ġfr ont
Ġ ich
Ġwhe ther
âĶ Ĥ
ct or
Ġtr uth
g an
Ġab le
ÃŃ a
ow ers
Ġv ast
Ġs ett
ort s
se qu
Ġrel ig
w ould
av a
Ġcom me
Ġke pt
Ġd at
Ġper m
sh ip
Ġpr act
ĠCh ar
Ġn u
ut es
Ġde cl
ci ous
Ġj ud
ug ht
TG TT
Ġbeg in
Ġv ers
form ation
W ell
AP TER
. [
ĠQ u
TAA AA
i os
Ġres ult
Ġe vid
Ġl ang
Ã ²
Ġt reat
Ġj ok
ĠP l
A n
it Ã©
ro om
Ġsch ool
ĠG o
Ġan g
Ġl ow
Ġwh y
W hen
Ġm i
ĠA b
Ġsu per
Ġapp ro
y l
AG TT
Ġn iin
led ge
Ġp ie
Ġp op
in ct
ATT CC
at ic
a ul
se t
re l
c ol
Ġan t
Ġans wered
Ġs ir
Ġle arn
or row
Ġcom ing
Ġh ur
Ġw on
Ġfor ce
Ġear ly
Ġl ab
ur g
Ġspe c
Ġg en
ound ed
Ġc ut
us h
is en
Ġseem s
Ġs ac
Ġj our
if t
op s
ck s
Ã £
ĠGer man
Ġdem and
or a
so ci
Ġc ost
nd er
ĠP er
ĠO ne
Ġm ove
ci ally
p ond
Ġp i
ĠB rit
Ġs z
Ã¤ y
Ġvis it
ĠA m
ĠC ap
Ġst ory
ĠÎ º
' ve
in ary
Ġre ally
Ġst ri
um p
Ġin f
TTTT TTTT
TCC CC
ur a
Ġw ild
T hen
v Ã¤
ant ly
Ġtr ad
te en
Ġf oot
Ġc reat
Ġel se
at or
TTC TC
Ġt able
Ġc amp
st em
ĠM y
Ġex ist
ĠT r
GG CC
Ãª me
Ġb it
A S
A M
ĠFr ance
ĠÂ «
c ome
Ġl ady
z t
Ġagre ement
Ġc ette
Ġst o
ks i
ACC CC
us ion
Ġhor se
B ook
or ge
Ġqu ick
ro s
Ġto wards
ĠÎ µ
d om
ĠhÃ¤n en
re r
Ġcl ass
Ã¡ n
AGG AG
ro y
the n
Ġwe l
Ġb ad
I ON
i que
Ġb ene
Ġtw enty
Ġem ploy
ĠĠĠĠĠĠĠĠ ĠĠĠ
ac c
AAG CC
Ġs ight
Ġpart y
Ġri ver
Ġlook ing
3 0
as i
Ã© g
Ġt end
Ġcom pl
Ġmil es
Ġv ill
Ġsou l
) ;
Ġw onder
Ġm ur
Ġst at
itt ing
Ġd ut
Ġa ge
g ot
k k
ATT AC
ĠE r
Ġpos ition
ACC TC
b ar
aught er
com m
iter ary
å ®
Ġpro p
å ¾
Ġfollow ed
an i
2 5
Ġide a
l ight
ĠAr ch
am b
h and
Ã£ o
u ff
Ġco ld
au x
Ġar ms
us band
te l
um ent
Ġper fect
Ġav ait
ren g
if f
Ġku in
Ġt al
ass a
y ond
Ġnecess ary
Ġnear ly
Ġc ross
ove red
ãĢ Ģ
Ġcar ried
pl es
Ġac ross
ĠE n
ce ll
Ġl ad
Ġh ar
og n
Ġfur ther
A r
Ġbeaut iful
Ġreturn ed
wh o
not e
TC AA
ĠSe e
Ġin clud
m ore
de red
ou l
ATG GC
Ġper iod
Ã© es
Ġre ady
AGGG C
2 4
w hen
Ã³ n
Ġac cept
am ed
Ġw at
ed er
Ġblo od
Ġb ig
p u
Ġp en
s a
Ġse m
TGGG G
ĠO f
ĠL ondon
ĠN ow
Ġocc asion
wor k
Ġrem ark
Ġd raw
å °
m ar
Ġlo c
com p
A t
er c
bl ed
h ow
Ġcar ry
Ġim medi
Ã »
Ġ2 5
end e
ĠR o
eng th
g ar
un k
Ġeven ing
Ġent ire
Ġs ense
ä ½
e en
Ġ2 4
ic ally
e b
ATT GC
Ġ âĶĤ
id ge
u le
i ver
yr ight
c an
Ġfa ith
Ġ ...
il es
Ġc aus
is es
ĠE x
pe cially
Ġm ir
Ġ3 0
ic ient
uro pe
Ġwor th
Ġp it
hy s
Ġlaw s
Ġm ist
Ġt a
Ġch urch
Ġst ep
ous ly
ivid ual
Ġac qu
est ed
T HE
Ġf if
GG GC
Ġp ict
ion e
Ġpur pose
it ation
Ġp et
Ġqu ar
ä¸ Ģ
h ab
Ġbu ild
ag er
m es
-------- --------
o red
lo ok
2 3
Î± Î¹
Ġs ens
ust om
Ġre ached
Ġsomet imes
æ ĺ
Ġc ast
ro du
res h
Ġr an
Ġpri v
2 7
2 6
im p
Ġd ies
L e
ĠD u
ac y
Ġans wer
Ġh om
TGG AG
it o
ATC AC
Ġl ed
Ġop in
ci a
Ġsat is
Ġthe e
i pp
o on
se c
Ã º
ast a
s ome
Ġsec ret
i res
lo ck
ĠN ot
ĠThe se
Ġnat ural
Ġf ail
ve re
Ġh ours
Ġu m
2 8
vel op
ri age
be en
oss ible
ACC AC
ĠG eneral
Ġe ight
Ġrem ain
im m
c ar
Ġp aid
ĠÃ©t ait
Ġf ight
Ġh ill
G TC
Ġpol it
Ġocc up
Ġqui et
Ġm ad
Ġrep resent
Ġim ag
2 9
AAGG C
ri ll
k y
te ll
ru pt
Ġpe ace
TT CCC
Ġdet er
ing ly
TT TAG
F or
ĠM an
AG AAG
he l
Ġd anger
are n
er o
Ġqu el
st Ã¤
f ace
k u
or ies
AT AAAA
ic o
Ġf ield
ru ct
Ġf em
Ġey e
Ġch ange
g ing
Ġc ou
O L
Ġst range
ch t
A l
ï¼ ļ
i vers
Ġ ik
GG GG
iv il
ĠF l
Ġl atter
og y
Ġ ÏĢ
ĠÂ »
Ġc re
Ġlong er
ĠM ay
Ġserv ice
Ġ âĢĻ
ä¹ ĭ
Ã¤ l
Ġsle ep
o o
Ġin flu
ay ed
Ġat tempt
z z
Ġto t
Î Ń
Ġs qu
TTG CC
Ġsh ip
TTGG C
Ġsl ow
Ġwr itten
d ist
in ing
Ġg ro
Ġl ate
Ġm ill
Ġhist ory
Ġsupp ort
Ġinte ll
T H
Ġsur pr
Ġ2 3
Ġapp eared
ĠA ND
Ġch arge
r or
a fter
in c
Ġr ap
Ġv en
Ġf at
Ġm at
ĠV er
ĠAmeric an
ett ing
b el
G utenberg
ord s
ab les
AG ATG
Ġz e
r al
Ġro se
Ġh usband
Ġfor mer
ĠM e
Ġconc ern
Ġh ot
ound s
Ġcontin ued
âĢ ĺ
Ġadd ed
ĠM ad
Ġw atch
Ġc es
i as
Ġcop y
fe rence
Ġpap er
Ġcon n
è Ģ
ĠPar is
Ġbel ow
Ġfor ward
Ã¡ r
ad es
bl es
Ġc orn
Ã¡ t
S E
Ġf ast
ĠI I
is ion
Ġ2 6
ach ing
r act
âĢ ĵ
Ġha ir
ir ty
ĠH en
ĠB ar
j oy
as p
Ġde g
Ġpl aced
Ġt aking
Ġg ard
h ouse
Ġd ied
Ġar r
S o
Ġf ait
TT TGC
ĠH ar
Ġm aster
H ow
ans a
Ġau x
Ġo ught
w w
M y
Ġjok a
Ġinc re
ic a
äº º
it te
I V
Ġl ength
Ġsel f
it al
ä ¾
ĠN e
Ġbre ak
Ġas soci
Ġpr ison
it ary
j ust
CH APTER
AA AGC
Ġgl ad
Ġsu gg
s y
ĠÎ ±
o ir
her n
ag raph
Ġsy stem
un ity
Ġbe yond
Ġv ain
Ġar my
AT CCC
Ġsc ar
== ==
v at
Ġh ig
it es
Ġpl ain
Ġb ird
Ġimport ant
ĠA ug
Ġcon du
Ġfell ow
âĶĢâĶĢ âĶĢâĶĢ
Ġ2 7
ĠÃ ¼
Ġcour t
AT AAC
-- "
re ct
Ġh ij
igh b
er a
Ġdid n
ĠE m
ci ence
1 1
. âĢĻ
ĠM in
Ġpl an
Ġ2 8
ĠP hil
o ly
EN T
ist ed
AA ATC
Ġn a
C T
Ġest ab
4 0
Ġacc ording
h ood
ix ed
end s
g in
Ġprob ably
Ġto ward
um st
and er
Ġso ft
AG AAC
Ġpart s
Ï į
Ġswe et
p al
ĠĠĠĠĠĠĠĠ ĠĠ
AC TCC
st it
Ġe Book
II I
' re
it en
Ġse in
est s
f ord
. =
ĠD on
us hed
Ġde al
Ġsp oke
e y
Ġl iving
k ing
oot note
ci ety
n es
AA TTC
for med
in to
å į
Ġdo g
Ġda ÃŁ
nd e
Ġpar a
Ġ x
Ġpro ceed
b an
U T
Ġvar ious
Ġenem y
TATT G
Ġst reng
w ise
Ġzij n
c our
Ġa st
AC TGC
ĠWill iam
Ġple as
å Ĳ
Ġd ream
p ers
ac ks
F ootnote
ĠG u
ess a
æ Ń
un n
ive ly
Ġpre p
AA AGG
Ġla id
se e
Ġn iet
Ġle ur
Ġm ention
Ġsudden ly
au d
ĠE urope
Ġs n
iss a
Ġto p
as te
ĠC o
claim ed
ĠY ork
TG AGG
Ġw it
ing u
Ġc ry
am m
id o
u ly
Ġknow ledge
Ġv a
Ġf le
Ġcomple te
Ġboy s
Ġvi ol
Ġfeel ing
ĠÂ ©
Ġpre v
AT ATC
Ġs ano
ic ense
Ġp un
rib ed
ĠQ ue
Ġfut ure
ent e
Ġo bl
en ces
k Ã¤
A ll
Ġcom es
ver t
an ced
Ã© l
ĠA fter
R I
il ing
v ie
Ġw er
ol i
Ġcop yright
Ġbr ight
Ġb reat
ĠC omm
et e
Ġj oy
ve ll
Ġdist ance
U S
Ġj u
o in
Ġd am
Î¿ Î½
Ġor gan
AT AAG
Ġn one
h od
un s
Ġind ividual
Ġs ans
ous es
ou red
Ġh op
al es
ĠĠĠĠĠĠĠĠ ĠĠĠĠĠ
Ġbel ong
Ġm akes
ĠS te
Ġf u
Ġag o
Ġsp r
Ġpr ay
Ã °
Ġe ine
Ġa p
ess ion
ĠD ie
AC ATT
Ġsupp ose
CC CC
Ġcon tain
Ġex am
Ġal though
se en
Ġevery thing
t ime
h as
ar p
Ġoff ice
ell ow
Ġb ound
Ġhapp y
Ġ id
Ġw ie
Ġc ru
= ,
ro ad
ĠI N
Ġ2 9
AG AGC
8 0
Ġremem ber
ĠF rom
in ner
3 7
Ġpar agraph
os op
Ġpro vid
Ġv es
Ġes pecially
est a
c il
Ġcom b
Ġf ac
ĠIt al
Ġw ide
ar i
rie f
TTGG G
6 0
il ar
Ġdes p
äº Ĩ
p ass
l Ã¤
å Ń
TC G
Ġk aik
an cy
W hy
r ict
TT TAC
ill Ã¤
el a
Ġatt ention
æ Ī
Ġgreat er
Î ³
N ow
Ġa ction
Ġsl ight
Ġpret ty
Ġi i
Ġn ur
Ġdo ing
row d
ar a
Ġk Ã¤
ATG GG
at i
Ġn Ã¤
Ġdiffic ult
r ight
Ġd ue
Ġd aughter
Ġr id
ament e
Ġg od
m it
l ong
Ġn em
ent h
Ġlang u
b et
rib le
ate ver
ab out
Ġs ad
iet y
O M
3 5
Ġtre es
TC TCC
ĠO h
Ġent ered
Ġgo vernment
Ġag ree
ag en
Ġo per
Ġ ess
Ġpo et
c a
Ġsay ing
Ġo le
AGGG G
ad ed
c ould
pos ed
ru ction
ĠBrit ish
ul ation
ater ial
ed s
Ġin qu
at en
ĠS ome
3 9
ic i
Ġm outh
Ġop ened
ĠCh urch
ors es
ac her
Ġ +
Ġch ap
land s
. </
i ant
ain e
ĠChrist ian
i ance
AG AAAA
up on
d on
Ġc u
p ir
N ot
4 7
p ic
Ġdel ight
Ġm ass
Ġmin utes
l en
TC TTC
U R
h or
é Ģ
AG TAA
un ic
Ġr ich
Ġf ood
Ġm ie
id a
e ch
Ġpr im
Ġc ab
Ġ $
ç ļ
Ġre nd
á ½
AG AGG
TAT CC
4 9
c er
i h
Ġacc ess
Ġbe ar
Ġs itu
ĠC H
Ġf it
av en
Ġst ra
Ġv u
ĠT H
r is
Ã© d
Ġp ot
ag ain
ĠW est
. _,
ce ly
4 5
Ġpro v
Ġatt ack
ra v
Ġt ried
Ġcomp any
g reat
3 6
on el
ree k
L I
ATT TG
c ertain
ly ing
er ve
ĠC an
y al
Ġd ra
Ġv ict
iv Ã¤t
ĠL et
Ġdist ribut
Ġj ot
ant o
A D
Ġre pe
ot ion
ide red
AT AGC
ĠCap tain
Ġnor th
3 8
h old
Ġwant ed
Ġopp os
Ġw arm
ãĢ Į
Ġqu al
ish ing
en a
l in
g ress
Ġme g
Ġl ar
Ġb attle
Ġheav y
Ġh ast
TCC TG
ãĢ į
Ï ĩ
Ġgre en
Ġl ived
m ber
Ġcomp an
Ġne ither
Ġocc ur
4 8
Ġcl aim
ant ed
Ġer a
Ġm es
ĠHe re
Ġbl ue
e le
Ġh Ã¤
Ġl Ã¤
Ġopin ion
it able
ict ion
Ġpers ons
ĠC or
e ks
Ġch ance
Ġs or
Ġm ine
Ġf er
o it
s pe
ch ing
Ġc oun
Ġdis app
Ġdut y
Ġp Ã¤Ã¤
in i
Ġm utta
l ie
Ġt ax
un te
Ġo Ã¹
ag n
ĠM ary
Ġnot e
Ġne ighb
Ġch o
ĠArch ive
b b
Ġfa ire
Ġbo at
ĠĠĠĠĠĠĠĠ ĠĠĠĠ
s m
u is
Ġdeter min
Ġsim ple
n ed
ĠGe orge
ĠB er
co ver
Ġcertain ly
Ġmon ths
Ġp hys
4 6
Ġv or
ag g
on ne
he m
Ġde velop
Ġfre qu
Ġde lla
y d
O O
Ġen joy
Ġgu ard
ot ed
Ġan x
sh ould
Ġrec ogn
Ġih m
ol ute
o cc
u ous
m i
Ġdon ations
Ġn om
Ġfam il
end ant
c ceed
è ¦
Ġsa ve
ou v
Ġm ort
ra id
ĠT om
est y
al ed
Ġth r
ĠW as
B e
de f
bl ing
Ġet c
E n
D o
Ġu r
u f
B ER
Ġse par
M ar
Â ł
ve red
Ġp ress
TATG C
im ate
ĠÎ ¼
ck ed
Ġwe ek
TT T
am a
i qu
Ġpl aces
as se
u v
ĠM on
Ġo d
all ed
Ġgener ally
Ġf un
TT TGG
Ġa an
Ġth ick
ed e
ow ing
Ġdis pl
Ġs an
e ven
Ġma j
AG CCC
im in
Ġfig ure
Ġwind ow
h ib
Ġcond ition
wh ile
Ġcon ce
TG AAG
ast i
Ġde part
ick ed
Ġsing le
ch ar
Ġm Ãªme
Ġd ress
Î ®
u de
Ġrep ort
Ġb urn
Ġrem ained
å Ī
Ã©t ait
is k
AA ACC
Ġbegin ning
ar row
Ġsuff icient
Ġex act
Ġth ird
, âĢĻ
TG TAG
Ġdist rib
Ġrap id
Ġh ogy
Ġp ure
ĠL iterary
å ľ
Ġtr y
Ġs ont
Ġob tain
s Ã¤
Ġeas y
Î ¸
Ġk o
Ġg es
oll y
Ġc rowd
Ġt ree
Ġ Ċ
id ence
Ġwr ong
pos ition
ib r
Ġcirc umst
Ġde ux
be fore
Ġstreng th
Ġpro cess
Ġtrou ble
Ġne g
Ġ1 1
ay ing
Ġout side
Ġcent ury
an ut
Ġh all
AG ATT
Ġst one
os a
éģ ĵ
TC ATT
ĠC om
E M
Q u
Ġcom fort
th an
ens a
e ad
h ip
L a
Ġinflu ence
is c
ĠM aj
re nd
know n
Ġexp ect
ĠĠĠĠĠĠĠĠ ĠĠĠĠĠĠ
y our
2 2
ĠH Ã¤n
Ġdes ire
Ġc ivil
AG TTC
Ġb ott
W h
Ġsou th
ĠÃ© s
ĠNor th
ap ed
Ġmet hod
__ __
Ġtr ain
Ġa uch
ĠĠĠĠĠĠĠĠ ĠĠĠĠĠĠĠ
AA TAG
s ur
TT TATT
Ġvo or
d el
ific ation
l ine
b a
le g
5 7
ri f
it i
cript ion
d y
Ġsil ence
Ġfe e
AC ATG
an ch
Ġs end
Ġple asure
Ġm iss
ra it
en ing
Ġtr ust
AA A
Ġo s
ri a
ĠL ady
Ġeas ily
AA TAC
in te
av al
Ġcon sequ
Ġs om
ic ate
Ġf ran
ĠP res
m al
as es
b es
ĠE l
TG CCC
_ ;
. Â»
Ġcas es
ar ies
ist Ã¤
r Ã©
Ġli ber
Ġcon vers
Ġrem o
Ġm ess
n s
ĠL ou
est i
li ed
end o
Ġl ines
Ġf resh
pl ace
ic ed
r id
k aan
p et
st ood
Ġhard ly
Ġex claimed
to gether
ny t
ell ed
th rough
Î ´
Ġe gy
ul ty
Ġan cient
u ks
ĠS outh
TG TGG
Ġbeaut y
ĠS ie
b urg
Ġpre vent
b ro
ing en
c or
Ġal t
Ġf ru
Ġo ll
d a
Ġlet ters
Ġwe ak
Ġ ign
ĠM a
or ough
ĠSt ate
y m
5 9
Ġbook s
Ġn ach
Ġsp l
in ks
ĠHen ry
k er
be c
AAGG G
Ġbro ken
Ġmus ic
Ġfor med
Ġa j
Ġh orses
it ive
n al
ĠW hy
v ille
Ġstand ing
e ff
ant age
ĠInd ian
Ġnot ice
Ã¼ ck
Pro ject
Ġsa fe
Ġh ung
l ittle
p end
um b
Ġed uc
I G
ĠA nt
Ġall e
c ond
Ġhapp ened
ĠChar les
Ġimp ossible
ut ed
Ġvill age
ist r
TC TTG
em ark
Ġimmedi ately
. âĢĶ
Ġl ips
00 00
Ġg rave
Ġt rem
Ġf illed
Ġent er
Ġcondu ct
Ġun s
æĺ ¯
ag ue
re en
Ġ18 6
le x
AC AGC
TC AGG
st en
TG TGC
ï¼ļ ãĢĮ
ab a
p on
if y
Ġves sel
ĠS T
Ġwr ote
Ġdire ction
Ġh arm
Ġappear ance
un a
Ġin cl
AA TGC
TT AAAA
amp le
re me
TC TGC
ĠT e
AA CCC
el ij
ex t
Ġme ant
u it
AC TTC
Ġs ister
on ly
Ġobl ig
TCCC AGC
pp ing
no on
re p
Ġk n
ul es
Ġf ing
ash ion
Ġb orn
Ġgentle man
Ġhe n
an z
ist ic
w ood
Ġsu cceed
Ġm ut
ap t
Ġstart ed
Ġmod ern
Ġst ates
or i
Ġbe com
Ġd ar
Ġw is
Ġsp ring
o res
Ġf urn
is chen
Ġint rodu
Ġro ck
æ ĸ
Ã´ t
Ġa ber
iz ation
Ġwrit ing
Ġs it
Ġc it
ab ility
Ġm aterial
are r
Ġinst ead
oll e
qu est
Ġcl ot
TG ATT
I s
I R
ak s
7 0
Ġno ble
Ġyou th
ol es
Ġp hil
Ġmin Ã¤
os p
ung en
Ġheav en
Ġco vered
Ï Ĩ
Ġadd ition
el ve
ail s
ĠP e
Ġmid dle
Ġrais ed
TT AAG
Ġt it
TC AGC
ess ed
Ġmere ly
çļ Ħ
Ġst ream
ĠH ouse
u blic
Ġf ool
AT ACC
Ġorigin al
cul iar
Ġarri ved
Ġd rew
h Ã¤n
Ġb an
o int
Ġl ist
Ġgl ass
Ġb all
W ith
ever y
AG TGG
c ing
s z
w ar
h an
ĠÃ¼ ber
Ġc ro
æľ ī
ish op
Ġentire ly
TG TTC
Î± Î½
Ġl ik
Ġv ent
vol ution
Ġpres ence
he st
Ġslow ly
Ġmo ved
su b
Ã¤m Ã¤
r as
v ation
Ġexp ress
tt Ã¤
Ġgirl s
nt Ã¤
ĠR oman
Ġc aught
d ing
Ġf al
Ġafter wards
Ġcont ro
os es
TT TAT
g ent
TG ATG
Ġdes ign
er ous
Ġn yt
Ġsm ile
: --
Ġr ace
he red
om as
Ġus ual
ement s
Ã ¬
ĠE t
Ġg lo
ĠAmeric a
ist ance
Ġst ay
a res
U n
Ġk ir
Ġc rit
Ġval ue
Ġgiv ing
Ġst reet
ç Ķ
" ,
O T
ĠW ell
Ġv irt
ĠE s
Ġh ost
ar ily
Ġknow s
_ )
e ur
Ġl ower
fin ite
Ġpie ce
t wo
on o
Ġro ll
Ġsim ilar
å Ģ
Ġcap t
TT AAC
Ġbo ard
TG AGC
Ġsh arp
c s
Ġassoci ated
ĠJ es
5 6
Ġdest roy
m et
Ġg az
Ġwh is
Ġyour self
Ġbro ad
Ġopp ort
ib ly
ĠÎ ´
ĠC ount
à ±
Ġy es
ĠĠĠĠĠĠĠĠĠĠĠĠĠĠĠĠ ĠĠ
Ġm ach
Ġsome what
Ġim m
f ield
Ġpu bl
o x
Ġprodu ced
ĠS u
Ġc red
Ġmag n
Ġir on
ĠL u
Ġt est
t es
c is
Ġwalk ed
ac he
ĠI II
m Ã¤
ĠG l
AA TCC
Ġstra ight
alle y
AT AGG
Ġt ous
Ġam ount
ĠJ ames
a ft
ĠP aul
âĢ ķ
ul s
a ire
Ġb ill
Ġsa v
Ġrequ ire
Ġadm ir
Ġstru ck
im ents
Ġpe u
es e
Ġno ch
TT ATG
ab b
Ġbe ll
d ie
è ĩ
Ġm el
m b
ĠâĢ ĵ
æ ī
Ġo ch
Ġg all
Ġg etting
AA TTTT
5 8
Ġb ank
o inted
Ġp ull
Ġlangu age
Ġfav our
Ġthink ing
Ġaf raid
è ª
I l
Ġ18 9
Ġlearn ed
Ġcons idered
s aid
Ġnew s
TAG GC
Ġf ond
Ġspe cial
TAG CC
Ġp ens
c ount
n at
Ġcom o
Ġh al
Ġbu ilt
li j
ol a
r ance
Ġ2 00
Ġd ont
Ġres ol
Ġth irty
Ġdr ink
Ġse ven
ĠC al
Ġprov ide
Ġquick ly
en ess
Ġhe m
Å ĵ
AN T
Ġapp ears
Ġp h
f r
n est
TC AAG
Ġc ustom
ĠĠĠĠĠĠĠĠĠĠĠĠĠĠĠĠ Ġ
Ġoffic ers
AG ACC
Ġart ic
TG TTG
ä¾ Ĩ
Ġk i
and e
Ġc at
Ġg ew
be red
ĠAug ust
od e
Ġ5 0
Ã¶ s
ĠT O
ie ur
f all
ol ic
TC TAA
Ġproper ty
ĠA ng
or o
H is
c r
Ġs ick
Ã¡ l
Ġfor ms
Ġf ol
cept ion
Ġv oy
AT A
Ġacc omp
Ġs now
ĠTh us
oss a
end er
Ġlaug hed
Ã ī
I D
on a
Ġch air
AA TTG
um ber
Ġin formation
ĠW ar
AA TGG
Ġf irm
ig ne
T ACCC
in Ã¤
res pond
um ed
ess or
s uch
Ġobser ved
end en
il i
AG TGC
du ced
TATG G
3 3
Ġf ro
ĠS am
olog y
ĠC our
Ġg i
Ġimp ro
ĠR ome
Ġsto pped
vie w
Ġex cell
Ġsum mer
Ġam b
Ġk illed
v ar
TG AAC
Ġd ry
æ Ľ
h app
id s
Ġwh atever
id Ã¤n
Ġoll ut
Ġgreat est
Ġg ar
AG ATC
Ġmar ried
Ġexp ression
Ġdisc overed
f ast
Ġall owed
qu is
Ġcon v
Ġlo ved
Ġh un
Ġsh own
Ġs and
Ġt Ã¤
ĠS m
Ġf Ã¼r
TTTT CC
am s
S T
Ġshow ed
ĠÃ ¨
u er
Ġn ation
ĠR uss
Ġg rew
k ind
ve y
Ġinclud ing
m ade
Ġp ath
ĠS E
is te
ĠG reat
Ġev il
as c
Ġwr ite
ĠX X
Ï İ
Ġem b
ĠL es
TT ATC
Ġgiv es
o es
ce ived
e v
o pp
I M
im a
Ġconsider able
Ġle aving
Ġp ra
Ġstud y
ĠJ ack
O ne
Ġs ong
Ġapp arent
b ack
Ġexper ience
A fter
å ¥
Ġsh ad
is se
v ous
ĠA g
le ment
AAG AC
ĠR oy
it or
Ġun less
Ġt or
8 7
ag y
ish ment
Ġwall s
ta a
d em
Ġl ord
Ġw id
Ġthought s
ak in
e f
Ġcl oud
Ġb and
AGTG GC
Ġfore st
Ġle aves
TC ATC
Ġdo ll
Ġflo or
Ġd inner
Ġgo vern
.... ....
ons ieur
Ġw inter
h al
d ed
Ġpass ion
p ly
Ġhe alth
Ġus ually
Ġrece ive
O f
Ġsc ene
Ġb as
tt i
ĠD av
Ġm ission
Ġsee ing
ill y
Ġfav or
Ġmem bers
Ġphil osop
Ġsur face
Ġenc ore
ul i
k Ã¶
Ġk er
Ġl ot
Ġsp ot
ig er
Ġpi Ã¹
og raph
la w
Ġsh ot
Ġ Ïĥ
Ġh ouses
p ost
h u
h um
p Ã¤
Ġso ciety
Ġpict ure
the se
Ġc ult
Ġn arrow
c lock
ib ility
Ġl oss
Ġpass age
wor th
hab it
Ġd urch
ĠJ an
Ġrelig ion
Ġtro ops
Ġon t
m ay
Ġgo es
Ġt ur
] .
Ġl ives
4 4
Ġexp ected
m as
Ġtem per
ar l
Ġgr ace
Ġre ach
Ġun to
Ġdist ingu
ATT TTC
ir th
ĠR ep
Ġfor got
Ã© p
ĠÃ ¶
Ġhon our
Ġpe culiar
ss Ã¤
A h
id ing
Ġhe ro
Ġ {
g ood
s l
ull a
ol o
ĠQue en
2 1
Ġm as
Ġper form
um ents
in st
y le
Ġm ent
ag on
Ġst re
AA ATAA
8 9
Ġut ter
en i
ain en
Ġstru gg
Ġfore ign
ĠR ich
lect ed
å ¿
ap er
Ġch anged
U L
it z
H er
Ġt one
er ved
ied er
ATT GG
ĠV ol
he art
Ã» t
y e
ex p
Ġrequ ired
Ġsupp osed
Ġent re
ore n
ord er
Ġdra wn
m ust
Ġcap tain
ĠZ e
ant ic
Ġar g
ĠY et
oc r
er gy
G AC
Ġb le
B y
Ġsh out
AG TAG
Ãª tre
Ġk at
f irst
ĠÃ ª
Ġgr oup
Ġspec ies
Ġsur r
7 6
b u
ĠS w
d if
ens Ã¤
Ġmin ute
Ġt ears
ill es
Ġth row
Ġscar cely
Ġco ast
Ġn ames
ĠGo vernment
Ġr ail
re c
in er
J e
fort un
Ġcop ies
æ Ĺ
TG AGGC
ang ing
Ġdec ided
d own
al a
Ġall ow
Ġ4 0
gy pt
m uch
2 00
Ġis land
Ġanim al
ent ed
ak si
4 1
Ġdisc uss
ATT TAA
TC AGCC
ĠC omp
Ġbreat h
Ġwait ing
Ġso cial
vent ion
Ġ19 0
Ã© c
AC T
Ġpro s
re y
Ġcon cl
Ã¡ g
Ġk a
es c
Ġm ij
Ġjour ney
TC ATG
Ġex ec
Ġr ain
tern al
Ġmark ed
ĠO R
TC ACC
in y
Ġdo ct
D on
iv al
ĠJ a
Ġe at
Ġple ase
ĠPr ince
Ġprovid ed
ag o
or ia
pr Ã¨s
Ġd ate
Ġh ath
Ġpriv ate
Ġt rib
AA AGAA
Ġw est
Ġequ al
ull e
Ġk ne
ĠT ur
Ġafter noon
p es
Ġbes ide
ĠLou is
Ġco ver
Ġsold iers
en cy
ang es
- +
Ġw ir
Ġeff orts
G CCC
E ng
Ġcircumst ances
Ġqu ant
ĠInd ians
S e
Ġar ch
Ġsatis f
. ;
ok en
Ġhab it
Ġdist inct
Ġsp read
Ġexist ence
Ġbro ke
Ġt akes
Ãª te
Ġoffic ial
Ġn os
Ġsp ace
Ġmor al
ra z
ik Ã¤
ell es
w ing
Ġdesc ribed
Ġfif ty
g ment
AC TAC
TG TCC
âĢĶ âĢĶ
ĠP RO
with out
em s
AC TAA
Ġfl owers
Ġe ll
es tern
Ġdis p
os pit
ã Ĥ
him self
om b
er k
Ġdecl ared
um ph
per or
Ġtou ch
Ġconst it
f ather
ut s
9 6
Ġperson al
Ġe ager
å ·
Ġim per
ãĢ ģ
ĠÎº Î±Î¹
ch o
TT AGC
Ġv ir
Ġbo x
ĠĠĠĠĠĠĠĠĠĠĠĠĠĠĠĠ ĠĠĠ
Ġm Ã¡s
Ġd iss
ck et
ĠR eg
ai ly
ht i
pect ed
ĠâĢ ŀ
th ought
AG A
ĠB o
Ġpl ant
Ġt ap
ou ve
Ġsk y
Ġext reme
Ġex erc
vo ir
iden ote
ust a
Ġhe at
ĠThe ir
Ġr are
AA TAT
t ing
Ġf ra
Ġs our
at te
Ġh an
ĠW here
Ġpossess ion
ct ions
Ġlike ly
Ġ Ã¤
Ġf ixed
Ġadd ress
7 7
Ġsy mp
Ġs itting
Ġro yal
ĠÃ©t Ã©
/ /
Ġgard en
Ġs itÃ¤
Ġgr ad
Ġex ample
Ġevid ence
Ġauthor ity
Ġpolit ical
el ess
Ġbuild ing
S idenote
Ġremo ved
Ġperm ission
Ġpur su
Ġeff ort
ĠL icense
L et
Ġdo ctor
ĠJ ew
é Ĥ
Ġsh ore
Ġad op
Ġon es
s omet
Ġter rible
ou te
am en
s k
Ġd read
at tered
m ir
4 3
5 5
Ġesc ape
Ġext ra
o or
oun ced
AG TTG
ĠM or
Ġmon th
åŃ Ĳ
Ġse arch
Ġmount ain
im o
Ġru le
: //
an ish
Ġu it
ep ing
at ur
Ġmeet ing
l ished
su pp
Ġch arm
AN D
Ġfor get
ra ft
Ġsano i
ĠÎ ¿
Ġhig her
Ġsim ply
Ġabs olute
b ly
! ...
Ġk iss
Ġg li
Ġprep ared
Ġmar riage
M rs
P r
9 0
ĠR ed
AC AAC
in ent
ĠP al
Ġsa il
ik si
el f
Ġs ides
Ġsitu ation
t u
ch ief
as ing
h Ã¤
C E
Ġn amed
d id
Ġst ar
Ġtend er
is ters
ĠÏĦ Î·
Ġre n
Ġpass ing
Ġinterest ing
ur i
Ġrelig ious
Ġoffic er
Ġr ise
li er
m ight
Ġk ill
Ġdeg ree
TAA GC
f it
p i
ĠFran k
Ġb od
el en
os ing
Ġsil ent
Ġo g
Ġp ale
8 6
Ġind ic
Ġg ame
Ġspe ech
ĠR E
Ġmention ed
at is
Ġdetermin ed
TC TGG
Ġs li
ers on
Ġread ing
Ġinst ant
Ġmo i
Ġpro ved
h d
Ġcond itions
Ġpro gress
TTGG CC
Ġne ck
ĠD es
Ġhe ight
Ġany one
Ġord ers
Ġmo on
TAA GG
Ġo t
w ater
ĠI r
ĠV ir
Ġprinci pal
Ġb read
Ġoff ered
Ġd an
ac le
Ġst op
Ġopport unity
ĠA f
Îµ Î¹
Ġv ot
AC ATC
Ġnat ive
Ġ2 1
Ġtr ying
Ġst ock
Ġrun ning
Ġc up
ĠP eter
ad ing
Ġb en
ĠM utta
ĠE very
r am
è Ī
p ret
em ed
Ġh ier
Ġrepe ated
Ġapp re
p res
iv a
ĠJ er
Ġspe aking
om s
Ġtrad emark
Ġsil ver
Ġcorn er
Ġmil itary
ĠD E
ĠP ort
at in
Ġcl osed
Ġl isten
Ġc s
os en
Ġp arent
Ġa part
qu er
m orrow
p ri
æ ķ
Ġr ate
Ġs ize
ret ched
Ġreg ular
ĠTh omas
Ġ2 2
Ġil s
ic ks
Ġs che
Ġus ing
E CT
Ġall a
Ġw ise
ç Ħ
um m
ul a
Ġsp ir
Ġob tained
Ġch am
Ġb ow
Ġ3 6
pl ic
p en
TG TTTT
in al
Ġre ve
b id
f our
con om
Ġcap ital
Ġbelie ved
Ġpleas ant
be ing
p ons
Ġcomp ar
AC AGG
Ã¨ res
es te
Ġpoint s
Ġtr ade
e z
AG TCC
ĠY OU
Ġpro vin
ie u
Ġsub st
ac i
TG ATC
Ġol isi
Ġp el
h in
Ġanim als
ä¹ Ł
Ġrep ly
Ġr ic
Ġjust ice
ust ri
u el
Ġf ier
Ġp age
Ġwe ight
ie ve
Ġcour age
TAG GG
Ġw ished
Ġb rown
AR T
Ġst ation
Ġbene ath
Ġin j
if ted
Ġy ellow
Ġbird s
S h
Ġcaus ed
Ġs ang
ne ver
c ur
AC ACC
ĠC ong
P l
Ġext ent
Ġde li
Ã¼ n
ĠM art
C on
9 7
Î¿ ÏĤ
Ġbit ter
Ã¨ rent
Ġhat te
Ġhon or
Ġtw elve
ĠF ather
Ġintell ig
Ġa ik
Ġign or
Ġser ious
Ġapp lic
F rom
Ġsugg est
Ġatt ract
Ġs ig
anc ing
Ġfin ally
? '
å Ľ
Ġle urs
Ġpre par
Ġgr ass
un ut
g utenberg
TC AAC
Ġmot ion
is p
AT ATAA
ĠR om
8 8
us es
k t
Ġconvers ation
Ġdiffic ulty
om pl
Ġf ish
Ġstep s
ist ory
b on
Ġsp ent
Ġt all
Ã¼ h
st i
âĢ ŀ
Ġcol or
Ġord inary
Ġc and
ran k
Ġr ing
be y
ail ed
f le
Ġpop ular
ĠJ ud
Ġc rown
ĠN ap
pe red
Ġo h
ĠA N
ĠE ven
Ġf ashion
å İ
Ġlaug h
R e
Ġp hr
P er
ad os
AC AAG
Ġsurpr ise
TG AAAA
Ġnum erous
u ct
Ġa im
Ġport ion
Ġwit ness
pr il
Ġinst ance
Ġem p
Ġthan k
am me
Ġse ll
TG ACC
Ġcal m
Ġmatter s
and on
ĠF OR
d i
r ine
Ġl iter
Ġb al
ver se
ĠM ont
Ġa qu
IS T
f ive
Ġg un
Ġwork ing
ĠI m
Ġimport ance
Ġsatis fact
å ¹
ç Ľ
Ġf il
ens ive
TG TAC
ak er
ĠO ur
ĠJes us
port ion
ak ed
ĠS en
Ġor dered
Ã³ l
7 5
ol t
ĠS i
est Ã¤
Ġaus si
Ġoff er
ä» ¥
Ġp Ã¤
ĠJ une
au f
g a
Ġmed ium
are t
j en
w r
ĠW ho
Ġste am
Ġv ig
th ose
ĠS an
ĠM ais
Ġturn ing
Ġw ays
ell Ã¤
E x
Â ·
Ã¼ l
Ġpro ve
AT ION
ĠDu ke
Ġintell ect
Ġref und
Ġp a
Ġmove ment
Ġspe ed
TAA CC
or ne
Ġmar ch
g est
ĠJ ust
Ġperfect ly
Ġein en
Ġspl end
TT ACC
ĠeBook s
or ious
i ally
3 4
Ġfort une
Ġcle an
Ġav o
pe ople
ir ing
ĠM c
z o
Ġg le
ĠMar ch
i Ã¨re
ĠW or
Ġt ar
ign ed
AC TTG
Ġen v
Ġacc ompl
O r
Ġsh ips
Ġl ying
Ġs ous
TAA TTTT
ES S
b ell
in ci
AC AAAA
Ġfru it
TC TTTT
ĠB el
Îµ Î½
E T
Ġvol unte
Ġwe alth
ĠG es
Ġs ag
A Y
ĠM en
Ġsp ite
AA TATT
Ġj on
Ġatt end
Ġrec ord
TT AGG
Ġz ich
ĠM al
Ġk au
ATT ATT
ess Ã¤
Ġoppos ite
Ġes p
stand ing
ä» ĸ
Ġmem ory
hing ton
ĠO ct
Ġw o
u en
Ġpro of
Ġcom mer
act ion
Ġfor ty
Ġcor rect
Ġdom ain
ĠE gypt
Ġpie ces
æĪ ĳ
ser v
Ġol ivat
Ġadv antage
es se
Ġe ast
at ures
Ġb rave
Ġf arm
ĠS al
ne k
ĠI V
er able
Ġse at
it ter
TC TAC
r at
Ġmean ing
ĠO ld
ul f
Ġcur ious
out hern
Ġt ut
Ġill ustr
Ġsu a
f ound
ĠJ uly
Ġ ident
he id
ãĢĤ ãĢį
Ġsh are
h w
Î± ÏĦ
Ġlad ies
He re
ĠĠĠĠĠĠĠĠĠĠĠĠĠĠĠĠĠĠĠĠĠĠĠĠ Ġ
Ġu pper
Ġb on
Ġk Ã¶
Ġwe eks
Ġour selves
um es
, âĢĶ
Ġhead s
9 9
Ġt ant
n ers
Ġk ans
! --
Ġconcern ing
Ġprin ce
Ġfull y
ĠP h
G TGG
Ġgreat ly
Ġeng aged
Ġto d
u ary
Ġst ro
Ġcomm unic
ĠCour t
ĠĠĠĠĠĠĠĠĠĠĠĠĠĠĠĠĠĠĠĠĠĠĠĠ ĠĠĠĠĠ
Ġd ign
, [
ut ions
j ud
Ġref er
ta ient
Ġcol our
Ġf ill
Ġaccept ed
ĠIt s
Ġfall en
Ġunder stood
Ġst age
ĠĠĠĠĠĠĠĠĠĠĠĠĠĠĠĠ ĠĠĠĠĠ
Ïī Î½
Ġfact s
Ġcons cious
Ġd im
r ant
is che
Ġquest ions
Ġlook s
ç Ł
it ing
Ġparticular ly
Ġun ivers
ĠT er
Ġme asure
Ġtem ps
at re
Ġe gg
Ġj am
Ġt ong
Ġa id
Ġb ab
T r
ĠĠĠĠĠĠĠĠĠĠĠĠĠĠĠĠ ĠĠĠĠ
ag ement
] ,
ch ild
Ġmount ains
Ġpe ut
Ġst yle
Ġc her
å¤ §
ic y
Ġdistribut ing
Ġphys ical
ĠĠĠĠĠĠĠĠĠĠĠĠĠĠĠĠ ĠĠĠĠĠĠĠ
Ġemploy ed
A B
li ament
ir a
Ġdis e
ren ces
ĠPres ident
ut o
Ġint ended
Ã «
ve t
ke it
Ġst ir
s en
Ġvie lÃ¤
Ġp p
ain ing
Ġagre ed
Ġhist or
ac hes
d ire
Ġfrequ ently
U N
e per
ç ľ
um n
ce ive
ost a
ATT TTG
st one
t w
Ġs am
Ġprodu ce
Ġfr ight
Ġse ason
TG TATT
at ors
ĠC he
Ġbe i
ch i
as ons
ip e
is l
ĠÎ ½
Ġwonder ful
ast ic
Ġend e
Ġown er
f essor
Ġapp e
A m
ct s
Ġear s
Ġn el
Ġrem ains
hen s
Ġwould n
Ġth reat
ĠF ig
ĠP at
Ġth rew
ĠRo bert
Ġpro vis
Ġk y
å ¦
ed om
ç Ĥ
3 1
Ġde b
Ġpubl ished
Ġkeep ing
u ÃŁ
Ġpr oud
f ollow
elij k
Ġbl ind
ort hern
Ġtra vell
again st
3 2
f riend
Ġbott om
Ã© m
Ġser ve
Ġdiffe rence
6 6
Ġple ased
ĠV an
Ġw ine
é Ľ
ar se
Ġa in
omm es
Ġs ake
c al
Ġcl im
Ġide as
Ġex cl
Ġfal se
an ne
Ġtalk ing
Ġsymp ath
Ġth in
m ind
Ġb ij
Ġcare fully
** *
ll y
Ġdraw ing
ol s
look ing
th ree
ro se
Ġm ult
ent ial
ĠF ort
Ġk ok
ell o
Ġth orough
ĠB ur
lic hen
4 2
ĠM il
Ġth rown
ĠRoy al
at hered
ACC ATG
ĠSc ot
ĠD er
Ġt aste
c op
r ay
ok ed
Ġr ad
b ook
Ġp are
Ġp y
m ark
O W
our n
fe rent
Ġexcell ent
ĠD ick
ac ing
ĠA h
ab s
Ä ģ
se ll
Ġcor respond
Ġb rill
Ġexact ly
Ġas sem
Ġa ud
Ġbo ld
man y
j ours
Ġwor se
Ġsm iled
Ġexpl an
i ÃŁ
Ã ¯
å¾ Ĺ
Ġz ur
Ġfor ced
Ġprom ise
su ff
Ġha ar
ĠÏĦ Î¿Ïħ
k es
Ġfamil iar
Ġsec ure
ĠD an
at ta
ĠL aw
con f
Ġt rop
bec ause
re f
n on
ul ous
lem n
AG TAC
BER G
ĠG reek
ast s
ĠCol onel
m other
ment e
ĠX V
y er
AA T
Î¿ Ïį
Ġpro ble
Ġwe ather
Ġaff airs
ose ph
le v
g ive
ut ter
Ġt im
Ġfin ished
l or
é ĸ
Ġmur m
gr ound
Ġs orrow
Ġfr ag
Ġc ott
Ġoccup ied
Ġdistrib ution
Ġdirect ly
Ch rist
TAA TAA
ig t
e lect
Ġb irth
Ġche er
AGAA GG
Ġsp oken
Ġsh ook
d r
Ġ iv
p g
Ġh id
k et
ĠL ie
Ġhill s
Ġr ough
ne cess
ĠS uch
Ġcon tem
et r
om in
ch ant
le br
o ber
Ġis n
g li
ER S
Ġco ol
Ġpre c
ad s
ĠMad ame
Ġbl ess
Ġsqu are
Ġquar ter
ĠB en
Ġty pe
ust ed
ä¸ Ĭ
Ġcont ent
Ġp an
Ġadv ance
Ġ vel
av ed
cri be
Ġs cience
! '
Ġdark ness
Ġs ul
Ġb rief
Ġv ic
Ġlo g
uten ant
l ife
Ġb are
Ġcould n
Ġp ack
ĠH im
Ġp owers
Ġin no
Ġl ies
Ġman if
is ch
la f
a el
> ,
O S
Ġcur rent
e ed
Ġed ge
J ECT
Ġmar ry
ur ally
ĠA lex
ĠÃª tre
Ġb ull
im me
Ġl Ãł
w ind
OO K
Ġvol t
ke y
Ġ ----
o a
cour se
om me
Ġc el
èª ª
S ee
e ren
Ġc ell
Ġd ig
Ġf aint
Ġdis cover
Ġpresent ed
Ġo der
ĠM ed
Ġmaj or
8 5
row s
ĠB es
Ġhapp iness
cl es
Ġpict ures
Ġein er
Ġpract ice
ant es
G o
Ġpr on
Ġl oud
ut a
habit ants
G od
Ġle an
ord inary
AC TGG
ie m
Ġfam ous
Ġhold ing
at ives
Ġdou ble
c alled
t urn
Ġih n
b us
Ġev ents
-- _
av ait
Ġn ational
Ġsor ry
Ġlab or
Ġrel ations
ĠĠĠĠĠĠĠĠĠĠĠĠĠĠĠĠ ĠĠĠĠĠĠ
at us
f a
çĤ º
Ġt ied
I ES
ĠS er
Ġsett led
ah r
è ģ
l ast
Ġpre m
Ġpossess ed
at ory
t ake
as ures
Ġlead ing
c ap
h i
L A
Ġprot ect
Ġclear ly
n Ã¤
EN BERG
ĠA pril
ld er
ibr ary
Ġhig hest
Ġende av
ĠĠĠĠĠĠĠĠĠĠĠĠĠĠĠĠĠĠĠĠĠĠĠĠ ĠĠĠĠ
Ġexp ed
ĠSt reet
ad d
un ch
AG TTTT
th ink
Ġopen ing
Ġpop ulation
Ġe vent
Ġear nest
Ġwat ched
ang ers
Ġwe ar
ens es
ĠGerman y
Ġcit iz
Ġre con
Ġcomp os
b ur
em p
s w
Ġein em
al ous
Ġwer den
c ies
Ġf el
ard on
ĠE ast
==== ====
Ġmy st
ac ity
sh all
M ay
Ġsu o
Ġro w
Ġestab lished
ĠhÃ¤ ntÃ¤
Ġclot hes
on ies
Ġc atch
Ġsw ord
Ġregard ed
ĠĠĠĠĠĠĠĠĠĠĠĠĠĠĠĠĠĠĠĠĠĠĠĠ ĠĠ
ĠM ac
a ur
count ry
Ġcent re
Ġg ate
Ġfor ces
Ġaff ection
ot te
AGAA GC
ĠL and
TC TAG
Ġlar ger
ĠAf ric
W here
Ġw ounded
ĠC ont
Ġsuper ior
Ġter m
Ġremark able
u ge
Ġin n
m at
Ġde fect
p rom
Ġc a
o ch
Ġgrand e
ur ies
le ep
Ġanx ious
Ġbur st
l ar
Ġhe s
Ġinst r
è ¨
Ġcomp ly
Ġ3 5
Ġcal cul
inte rest
ad or
ol f
int s
l as
Ġgr at
Ã¶ l
Ġhon est
og en
Ġsucceed ed
ĠĠĠĠĠĠĠĠĠĠĠĠĠĠĠĠĠĠĠĠĠĠĠĠ ĠĠĠ
Ġf ate
re es
g el
Ġpr inted
I nd
is her
The se
am il
stit ution
Ġkaik ki
he it
Ġbes ides
ĠE li
Ġcont act
ĠG UT
ot a
Ġre v
Ġit se
ĠAr t
if orm
7 9
å ¯
Ġdist ant
es h
cons cious
Ġro b
om men
Ġad vent
Ġro of
Ġd ivid
Ġinde pend
en ced
Ġs ought
Ġdist rict
ol it
aster n
Ġgl ance
h us
it Ãł
TTC AC
ĠSp anish
Ġte le
co very
s es
m ist
qu i
Ġshe ll
og rap
op er
Ġjud ge
Ġmit Ã¤
ĠGUT ENBERG
Ġr ising
olog ical
ut ation
Ġri en
Ġn Ã©
pt ion
Ġen s
iv ity
Ġbecom es
y i
TT A
Ġwood s
ĠV en
Ġem pt
Ġgl ory
Ġwork ed
est ig
AAAA GC
Ġih r
ĠH all
Ġbl ow
Ġoblig ed
Ġ6 0
Ġpoint ed
r ig
Ġse vent
Ġtou te
Ġth ro
Ġsh ut
Ġcru el
ll en
èĢ Į
w a
o v
ac ious
Ġd ir
Ġs ind
IT Y
ĠM any
ĠS aint
it ement
p a
as ant
u fact
Ġb ase
Ġvol ume
iz ing
M e
Ġdro pped
ch ange
Ġin ches
Ġre sem
Ġd well
ĠPRO JECT
Ġc am
åľ ¨
Ġser ies
Ġking dom
i ber
t i
Ġm ich
n et
Ġtra vel
Ġy ield
Ġast on
ĠY es
ul ated
b ted
W ill
Ġst orm
Ġworth y
Ġch ose
h ost
TG A
ri er
Ġfl at
ep tem
l os
è ¡
ous in
Ġe p
Ġdo ch
k un
Ġlo se
AR D
Ġes te
Ġr om
Ġd aily
Ġd Ã©s
AAAA CC
ĠSm ith
Ġimmedi ate
Ġother wise
Ġn ine
Ã¤n sÃ¤
P ar
Ġc ir
Ġshe l
ag ne
us hing
ww w
Ġk ul
TG TCTC
au v
are st
Ġle v
Ġv alley
ĠC ath
Ġsp ect
p oss
Ġi ii
b st
Ġsuff er
ag s
the less
ce an
h on
Ġtit le
Ġdoll ars
Ġas c
Ġer r
m is
u in
d s
ĠC ity
Ġestab lish
Ġre ven
Ġacc ord
und ay
ĠM er
Ġw in
TG T
AGGC TGG
Ġserv ant
ĠW al
oll a
ct ure
Ġpr ice
he nd
s ent
Â °
Ġliber ty
TCAC TGC
b our
Ġser ved
Ġdist ur
ain ted
AAC AC
âĢ° âĢ°
art her
itt i
Ġwat ers
Î± ÏĤ
Ġgu ess
eptem ber
Ġw enn
Ġl at
Ġn ice
Ġapp ointed
Ġp red
Ġcoll ection
Ġtri umph
Ġs ite
ĠĠĠĠĠĠĠĠĠĠĠĠĠĠĠĠĠĠĠĠĠĠĠĠ ĠĠĠĠĠĠĠ
Ġr ub
fer red
å ¸
æ Ļ
el ing
Ġte a
ï¼ Ł
Ġj os
Ġ ice
Ġf ancy
est ic
S ch
Ġthrough out
ĠC r
an ied
ĠM ag
Ġbr an
m ond
ĠDav id
ĠSp ain
Ġstre ets
Ġtrans l
am aan
u u
AGG AGG
ĠVir gin
Ġphr ase
Ġref used
Ġz oo
vo c
Ġg uns
ch an
Ġs alt
Ġfollow s
Ġmight y
Ġpr ide
Ġw a
ĠWas hington
Ġfeel ings
ĠM ich
A d
U M
X X
p ur
m ans
Ġcount ries
Ġgrow ing
Ġshow s
Ġtout es
n Ã©
Ġprinci ple
ĠC e
not hing
Ġw aren
et ty
Ġun cle
re qu
Ġr ank
Ġprom ised
Ġact ive
men se
Ġresult s
ill er
Ġso lemn
Ġexpl ained
W ho
ĠM ore
å ĩ
TC T
Ġeduc ation
Ġheart s
å ī
Ġfa ult
Ġt ask
AT ATTC
ĠInd ia
Ġsold ier
wor ks
Ġc ard
7 8
åİ »
Ġal together
p ie
eg en
Ġloc al
Ġsh ape
Ġpre ced
Ġt un
Ġplay ed
Ġv iv
pr it
ais e
l im
st ill
ĠR iver
Ġbre ast
qu el
TG TAT
Ġg er
it ated
Ġdiv ine
Ġsent ence
Ġsugg ested
Ïĥ ÏĦ
u h
Ġd ust
Ġpower ful
a way
us qu
ACAC ACAC
Ġd os
Ġsee k
Ġso le
Ġp il
ĠH igh
min istr
AG AGAA
Ġcon ven
al ing
an other
Ġf aces
Ġse vere
Ġcab in
Ġprev ious
ĠC ast
Ġg ra
Ġm ont
Ġmach ine
Ġal arm
is esti
er d
Ġprop ri
ĠV al
ins i
Ġa ver
Ġas ide
Ġfail ed
ce mber
ĠRich ard
ä¸ ĭ
ĠEd ward
Ġpr Ã©
Ġsus pic
Ġc ow
Ġcreat ed
au c
Ġde ll
u able
ort ed
th ings
an im
Ġg el
or ous
ap an
Ġexplan ation
qu ar
Ġinclud ed
Ġshad ow
Ġn ations
Ġd are
Ġfing ers
fl ict
Ġevid ently
Ġact ually
Ġw and
h alf
Ġex hib
ro g
Ġequ ally
Ġincre ased
Ã® tre
Ġp air
ĠWh ile
Ġleg s
Ġ ×
ect ions
ĠC am
ind er
Ġlo ose
Ġres pons
unt ing
le e
Ġjud gment
ab or
Ġ* **
Ġforgot ten
M iss
Ġl ib
Ġins ide
Ġfig ures
ri j
Ġin vol
Ġh tt
ou w
Ġpap ers
av an
for ce
cons ider
Ġapparent ly
ap h
app ro
Ġse x
Ã¡ k
TTCC CC
Ġk le
Ġro cks
Ġcontr ary
ĠT wo
Ġv Ã¤
Ġce lebr
itte e
Ġsk in
m ine
ATT TCC
G TGC
Ġm ale
ĠF red
b ra
9 8
v il
Ġremark ed
è¦ ĭ
Ġn od
Ġinst ruct
G AGG
á ¼
Ġbod ies
Ġtr Ã¨s
Ġ18 0
ens ch
Ġjo ined
Ġnot iced
ic he
Ġex ceed
Ġt ent
im s
Ġshould er
Ġaff ord
Ġa ch
Ġh ospit
b ury
ac on
Ġgentle men
Ġqu and
w ed
Ġho ly
Ġmo ins
ud den
Ġbel ief
AC GG
Ġre jo
ad v
ist ing
TGGG ATTAC
Ġf aut
Ġrapid ly
Ġadv anced
Ãª t
ATT TTTT
_ :
Ġpat ient
u ud
il ities
Ã¶ t
Ġc os
c ame
Ġquiet ly
Ġnum bers
A V
ĠF re
ab eth
Ġconf idence
ett re
clud ed
AAAA GG
n or
iv an
Ġre ck
ian o
N e
he ther
Ġp ounds
j Ã¤
AR R
d ess
Ġd ed
ell en
Ġgold en
bet ween
Ġl ack
ant a
Ġk no
m ission
ĠF e
AAG AA
Ġt aught
os o
Ġent ertain
Ġle vel
Ġcompan ion
ove mber
Ġremem bered
Ġp urch
ĠJ oseph
j on
Ġt ired
C ome
Ġconst ant
E t
Ġpers u
Ġw ird
lic he
Ġs itten
is hes
ĠAn n
Ġcl oth
Ġso il
Ġknow ing
ed ing
TC A
Ġoccur red
Ġg rown
âĢķ âĢķ
Ġsupp ly
Ġdes ired
TC GC
Ġv aan
Ġn aar
Ġstr anger
Ġjot ka
Ġte xt
Ġre vol
Ġsac red
åħ ¶
Ġab andon
Ġma ar
Ã© rie
Ġpu is
ĠWh ite
Ġuse ful
Ġc lo
Ġcarry ing
pos es
Ã¤n yt
Ġinter rupt
Ġrel ief
end ent
Ġinst it
7 4
org an
Ġs ed
us k
Ġpo cket
ive red
al o
é ł
z i
Ġneed ed
ut ch
ĠJ ac
ĠB ill
Ġ1 00
Ġs ons
Ġdes cription
ĠP ers
Ġpri est
Ġcred it
Ġb ent
Ġb er
ĠĠĠĠĠĠĠĠĠĠĠĠĠĠĠĠĠĠĠĠĠĠĠĠ ĠĠĠĠĠĠ
Ġshould ers
Ġexp ressed
Ġdon c
Ġstand s
åĢ ĭ
ĠJ ul
Ġas ser
ell ing
Ġthe ory
Ġsi itÃ¤
TTC AAG
j our
ĠItal y
p ed
TC TGCC
Ġte eth
rif ice
âĶĢâĶĢâĶĢâĶĢ âĶĢâĶĢâĶĢâĶĢ
ar ia
con st
ka a
Ġnecess ity
Ġt ail
Ã® t
AAAG TGC
ĠComp any
Ġvolunte ers
._ --
C l
bo ard
on i
to o
ĠG ood
Ġche ck
ro ll
et en
Ġatt ached
Ġwill ing
Ġspir its
a e
Ġdevelop ment
Ġy ht
ing ing
ed y
Ġhom me
Ġtong ue
ri fic
Ġw ur
j et
ĠC ON
T R
Ġsubject s
Ġle ar
ai res
s ame
ĠD el
Ġf ix
z u
Ġp ill
w in
9 5
Ġvo i
Ġprinci ples
f ant
7 3
utt ing
Ġfre edom
Ġco ok
AG T
s al
ri ff
Ġvar iety
Ġmil k
ar ly
Ġfl esh
Ġcon vin
ang en
ĠIr ish
Ġl od
TTG CCC
Ġquel que
Ġbe at
g iv
Ġapp lied
Ġa i
b oy
ĠS y
Ġc ela
Ġdes er
é Ŀ
Ġarr ang
Ġn un
ç ķ
Ġdemand ed
ĠM o
ĠS im
il a
Ġ3 1
al most
Ġtou jours
ens ion
Ġwait ed
f ind
Ġcomplete ly
Ġj ou
Ġp ages
an ci
G r
Ġun known
Ġnat urally
Ġdri ve
v Ã©
vern or
é Ļ
ĠD en
or ing
Ġg est
Ġw aar
ĠÃ ī
AC GC
ing ton
p ower
en es
Ġcross ed
Ġg athered
ĠS pe
Ġsent iment
ĠFran cis
Ġw ieder
p age
Ġa prÃ¨s
Ġt ul
Ġk os
somet hing
Ġright s
to ok
s il
Ġadm itted
Ġe conom
Ġdri ven
Ġob st
Ġwind ows
m Ãªme
AC A
Ġver d
Ġlu ck
Ġt um
Ġin tr
Ġp ick
Ġwrit er
I E
ĠBl ack
g t
m iss
. Â«
ib us
ry ing
Ġpart ies
ĠF irst
Ġn et
S p
Ġse ized
Ġb att
Ġf ly
ste ad
Ġenem ies
it ud
Ġsa ved
ad er
Ġsurpr ised
G ood
Ġ4 5
AAAA ATT
ĠpÃ¤ iv
Ġgod s
Ġtreat ment
ç İ
6 5
is et
ie ved
Ġk or
ĠS on
Ġg Ã©n
h ard
Ġde i
ĠD or
Ġr ide
p resent
Ġsuff ered
ear ing
Ġs illÃ¤
Ġleg al
d ig
Ã ¸
use ment
Ġno vel
Ġo vat
Ġk ann
m ount
Ġco at
Ġal ive
om ents
7 2
ĠSE E
Ġy ards
Ġconsequ ence
ist o
AGG AAG
Ġbe w
Ġconn ected
Ġt our
ĠÃ º
Ġn y
Ġt ak
os i
al i
TGTG TGTG
p at
Ġro de
Ġhur t
ĠÃ© l
ir s
Ġenc our
æ °
it ure
al og
Ġb ore
Ġf ois
Ġmem ber
Ġdistribut ed
Ġst ones
tr ans
Ġor n
G AAC
Ġb is
Ġ Å
com ple
? --
ÃŃ t
Ġdi am
Ġn av
Ġh ide
ĠJ im
Ġp ed
Î¿ Î¹
IL L
s im
Ġserv ants
S ome
Ġparent s
ribut ed
Ġhands ome
éĢ Ļ
Ġh ang
ce l
ĠM ount
Ġin habitants
Ġtot al
b or
f ar
Ġsm oke
Ġtw ice
Ġl ake
ĠF eb
ĠM ex
Ġm ile
S ection
Ġcreat ure
Ġjam ais
Ġmo ving
Ġdistingu ished
Ġimp ression
r Ã¤
Ġfree ly
Ġpro c
J ohn
Ġr Ã©s
ĠP art
ig r
ian a
Ġf Ã¶r
um in
ag ged
Ġsh oot
ik a
ar ks
G e
Ġj et
Ġav ail
ab e
ĠP et
Ġbreak fast
Ġpro portion
Ġfight ing
elect ronic
utt i
cont in
Ġbr ain
il st
Ġp ity
Ġto m
ĠP o
ĠH ad
Ġas su
AGC G
Ġfem me
ond s
ĠM ark
c oll
TC TTTC
Ġfind ing
Ġsol ic
Ġco ff
Ġper f
ur d
Ġcontro l
Ġdis ci
man n
Ġ ll
ĠK e
Îµ Ïģ
Ġm Ã©
ĠH and
Ġsu it
Ġex em
Ġsu is
re land
Ġim pl
Ġtalk ed
TCC TGCC
v it
Ġdanger ous
ĠE lle
Ġfin al
ĠCong ress
Ġeng ine
el i
Ġr ig
Ġsure ly
Ġneighb our
pg laf
Ġland s
m ake
Ġhapp en
Ġwas n
Ġun ter
æ Ģ
ĠJ o
ing er
Ġhur ried
ĠOct ober
im port
Ġtou ched
ĠB E
Ġf arther
Ġmind s
Ġv aik
ĠM at
AA ATTC
Ġt an
po int
Ġwhis pered
v as
Ġbus y
Ġdut ies
æ Ŀ
em ber
Î ²
ĠA pp
ik k
8 3
Ġf ais
Ġis su
Ġang ry
Ġread er
Ġl iv
o oth
Â ´
ĠG ree
Ġinst inct
go ing
ill oin
ĠHow ever
Ġo il
Ġst ars
ĠO ff
oh l
AT ATAC
Ġp aint
f ig
ic ian
Ġtell ing
th ur
Ġtreat ed
Ġg ather
Ġter rit
Ġmain tain
7 1
AAAA TAA
J a
ter day
TTTG CC
c ast
Ġsatisf ied
ic ip
wor ld
Ġre ign
Ġpro pos
Ġlim ited
ĠS unday
on str
Ġarri val
Ġcontin u
ĠEm peror
k ins
Ġabs ence
ative ly
å ¼
g n
8 4
ol en
Ġaw are
Ġan c
Ġt Ã¤y
ot ta
l ow
Ġper man
Ġaddition al
Ġproceed ed
Ġperm itted
Q U
TTC TTC
ass en
le ction
Ġstrugg le
Ġ à°
Ġclose ly
ound ing
TTTT GC
id ad
ar th
z abeth
AA TTTC
Ġr is
Ġincre ase
Ġmin ister
Ġun f
Ġgr an
å ĳ
b orn
å ±
Ġse ine
â Ħ
Ġd ur
æŃ ¤
he ld
Ġbe aring
Ġfl ight
ett u
Ġfif teen
Ġt av
TT TGGG
ĠC oun
Ġk it
w ick
ĠY our
Ġsw ift
G eneral
Ġr ak
AGC AC
Ġfl ower
Ġwatch ing
Ġe rect
A b
Ġim mense
TG AGAC
l u
Ġ ing
é ĩ
Ġst ated
S ir
ĠS eptember
s ay
Ġc i
Ġk night
Ġconn ection
n ak
ch Ã¨
Ġst ore
Ġloc ated
Ã© k
ion i
Ġhe b
9 4
ĠÎ½ Î±
Ġz um
re al
Ġobject s
ä¸ Ń
Ġcr ime
Ġfort un
G E
Ġact ual
Ġhigh ly
Ġpro ject
Ġvoy age
Ġc aval
ir k
ĠÂ £
on de
ink a
Ġsplend id
Ġquel ques
us ing
Ġvot re
ĠR ob
Ġspirit ual
sel ess
un i
Ġpal ace
Ġdivid ed
Ġfem ale
le ase
Ġcap able
al ia
____ ____
Ġrel ation
L es
Ġcare ful
ac les
g s
AGG TC
aut re
x im
ĠE st
u an
all s
AGG AGAA
ĠJ os
Ġent rance
I A
ĠD iv
ĠDe cember
Ġcar riage
ost on
ais en
rib ution
is in
Ġintellect ual
E r
um s
f ol
ĠB ook
Ġcou ple
Ġtr uly
as y
ä½ ł
8 2
ĠB ob
TCC TC
Ġsl ave
ĠTH IS
Ġpray er
Ġte acher
G er
Ġno g
Ġl it
ur t
ÃŁ en
Ġjo in
them selves
l ies
re ck
ar io
Ġw ants
Ġgrad ually
Ġbran ches
Ġha ben
pr ison
ĠM aster
h n
Ġsa f
ĠCH APTER
m us
Ġempt y
Ġcor ps
TAA AAC
b it
z te
AT AGAA
---------------- ----------------
Ġequ ip
Ġg em
Ġnot es
Ġ9 0
p ot
Ġpl ate
Ġdom in
Ġacc ident
TT TCCC
w ord
ç Ļ
m od
Ġgu er
Ġpr Ã©s
Ġmid st
Ġaccomp anied
other s
ol id
k Ã¤Ã¤n
Ġbu y
Ġe u
AG TTTC
p ut
è µ
Ġav oir
ines e
âĦ ¢
Wh ile
Ġrequire ments
re b
Ġl amp
Ġnot re
y ears
p our
Ġmin un
Ġent hus
Ġmy ster
Ġexpl ain
in ity
AGC TC
Ġw ond
m Ã¤n
Ġcontin ue
Ġo ike
Ġpl ants
Ġhu ge
om y
Ġcontain ing
Ġf und
ain ts
Ġrepresent ed
Ġw ore
m itted
Ġsol id
Ġf og
do or
Ġburn ing
si x
asp ed
ie ux
Ġno ise
am ing
Ġput ting
Ġda ar
ac ement
ĠB rown
Ġde ck
tt Ã¶
Ġj Ã¤
ĠC ent
u z
Ġintrodu ced
Ġa head
om er
" '
Ġcaus es
ĠH ill
Ġlove ly
aus ed
Ġcom ment
Ġdo zen
k an
ĠItal ian
d ou
w oman
Ã¡ ny
v or
Ġh in
Ġprof ession
> (
Ġgr ay
H T
az ione
TGTG GC
AA ATAC
Ġexc ited
as hed
Ġce rem
g i
Ġyour s
Ġdif f
Ġd ressed
or al
and y
Ġliter ature
st ra
ĠIs land
Ġt on
Ġposs ibly
Ġfield s
Ã§ a
Ġreg ion
aci Ã³n
Ġwith d
TAA AC
ck now
TAA ATG
Ġpro posed
Îµ Î¯
ĠÏĦ Î¿
ij n
happ y
EL L
Ġpol icy
ĠD em
te enth
Ġlie u
m aster
se tt
ACTT TGGG
Ġh it
Ġwalk ing
ci p
Ġde fe
A meric
Ġt i
6 9
se y
es p
h ar
Ġgen ius
v Ã¤n
Ġkind s
ĠP ol
Ġj ump
Ġret reat
ĠPer haps
C ol
ĠH on
Ġacqu aint
Ġdise ase
Ġcoll e
TTTT GG
Ġgr anted
._ ]
un o
and s
Ġgrow th
Ġinterest ed
Ġde lle
Åĳ l
st on
Ġcomp osed
Ġbeg un
uch t
IT H
Ġun iform
Ġfall ing
Ġend s
j an
Ġpract ical
ci o
Ġshow ing
ie re
TAT ATT
Ġsur v
w ent
Ġm oments
Ġsy n
ret urn
AGCC CC
Ġar rest
pr ing
Ġg ained
Ġcult iv
Ġst ick
ĠH ug
Ġinterest s
Ġadv ice
ĠMaj esty
Ġman ufact
al so
Ġst ories
Ġcont re
Ġamong st
Ġfe atures
ĠL ake
Ġprison ers
5 4
Ġbr idge
Ġo ok
Ġexper ien
Ġpart ly
ĠC ons
Ġb ra
ld om
Ġa cknow
r ich
ĠS il
Ġt ale
ant i
ĠB ay
Ġhear ing
Ġk as
Ġmill ion
Ġke en
Ġexc itement
ĠN ovember
O P
Ġno se
ĠH oly
ĠHar ry
ĠL ife
Ġr ange
TAT AC
Ġquant ity
ut er
ĠC ome
ĠV I
it ect
AT ATTG
ad em
Ġc art
on ce
ĠCon st
Ġre comm
or ation
oint ment
Ġdiv ision
TT TATG
TGTG CC
cient ific
Ġsh ame
Ġne arer
Ġear lier
TAC TC
Ġqu ality
ĠUn ivers
Ġp ad
Ġd ull
N or
Ġl ap
Ġjon ka
Ġdistrib ute
Ġpol ice
Å ±
Ġk es
ustom ed
Ġl ifted
Ġx x
Ġvessel s
Ġvirt ue
G AA
B r
m m
Ã¼ t
Ġcomm itted
Ġb ased
ĠN E
E l
Ġw et
ĠSo ciety
Ġadm it
et ta
Ġcirc le
ir on
Ġab und
AAG AAG
æĹ ¥
p ent
Î¹ ÏĤ
5 3
t aken
ar te
6 4
Ġassu red
s in
B OOK
Ġh ither
Ġsympath y
Ġtem pt
è ©
Ġun able
ĠA c
ĠJ apan
ous ed
ĠJan uary
ĠPr in
qu et
ag ing
Ġbur ied
ap a
ĠP or
Ġevid ent
Ġprom pt
Ġcho ose
Ġce ased
Ġwor st
Ġc ord
pr act
Ġstat ement
Ġk ys
Ã¤m Ã¤n
Ġun fortun
Ġsk ill
ĠA cc
Ġwor ship
al ways
8 1
Ġsatisfact ion
Ġdro ve
Ġcur ios
ĠM ass
ĠE mp
ĠM el
w art
Ġrep ro
Ġmur der
Ġr ules
Ġconcern ed
Ġconsider ation
Ġ[ _
TAT AA
Ġque en
g ener
Ġproble m
D ie
Ġlik ed
Ġal ter
Ġfair ly
Ġroom s
6 7
ang u
ru ary
ĠPhil ip
iss Ã¤
Ġha ven
a ign
ett Ã¤
Ġreport ed
Ġlaug hing
Ġw ed
Ġa insi
eder al
æ ĥ
ĠMaj or
Ġf are
Ġimag ine
Ġf est
Ġdes per
un ning
Ġex tr
Ġsuff ering
Ġt orn
Ġwho lly
oll en
Ġbut ter
you ng
TTC TG
Ġsu gar
Ġcall ing
Ġfle et
ks en
ĠRe v
Ch ar
TTC TCC
ri v
Ġre nt
åĩ º
ul ate
ac ters
ĠU nd
d est
Ġli qu
Ġg ain
Ġadop ted
Ã¢ t
ĠAr ab
G TCTC
Ġin vent
Ġdev il
Ġtell s
Ġfaith ful
ur ity
Ġint ention
Ġc et
Ġslight ly
S C
å® ¶
ex pected
ĠG en
n ame
Ġcontr act
ri ved
_ ).
Ġthorough ly
Ġp ier
ATT TGC
ĠI ch
Ġst ern
Ġen ergy
av i
and a
e ft
Ġaff air
ot es
Ġval uable
Ġsuccess ful
Ġpres ently
Ġr ul
Ġabsolute ly
in ction
c ase
Ġfl our
9 3
Ã§ Ã£o
Ġsm ooth
oun ce
Ġm ond
Ġserv ices
I X
ĠHer r
Ġdeep ly
Ġter ror
c rit
TGGAG TGC
Ġprot ection
g ain
op en
ex pl
Ġsour ce
ac hen
Ġegg s
Ġsh ock
ĠI reland
pr ot
Ġhen ce
Ġsepar ate
Ġdo ors
ld e
Ġin formed
A ug
b ing
Ġartic le
udden ly
Ġf ought
u y
Ġclass es
Ġappre ci
Ġlist ened
Ġw ings
Î± Ïģ
ĠL ong
pr ise
d Ã©
f ree
AGC AGC
ug g
Ġpat ri
u un
Ġdirect ed
Ġye ux
Ġconstit ution
k l
Ġarr anged
Ġam id
Ġ ~
Ġany where
C an
en c
Ġind ust
Ġsaf ety
Ġol en
Ġl ibrary
Ã¡ m
Ġfell ows
Ġwh ilst
ÏĦ Î¹
Î» Î»
Y our
Ġreg ret
Ġgood s
Ġass ist
Ġp ou
TG ATCC
ĠGr and
6 8
c are
Ġw ij
ĠN ature
Ġwel come
Ġvo ir
TGGG GC
Ġp ays
at on
et ch
Ġv oul
r ain
ĠPro fessor
B l
N E
ar on
---- --
AT ACAC
Ġlab our
Ġn erv
Ġcitiz ens
Ġn Ã£o
Ġprep are
Ġme at
Ġet t
Ġter min
Ġme hr
ĠOn ly
AG TCTC
TGTAA TCCCAGC
y y
Ġsing ular
w est
Ġpull ed
Ġch osen
c irc
ed en
ĠUn ion
pu blic
ard en
ĠT u
Ġre asons
Ġind ign
Ġappro ach
ĠD id
ah d
Ġcons ent
Ġhop ed
N ew
G AAG
f oot
ul se
ri an
Ġsp o
åı Ī
ĠSc ott
Ġwe ap
Ġb ay
a at
d ro
Ġse ated
com mon
Ġwis dom
Ġk Ã¤y
Ġtri al
v ious
f en
ĠN OT
Ġsupp er
het ic
ure nt
ES T
Ġimag ination
Ġchap ter
en ance
ĠÃ ³
Ġc ities
z er
Ġold er
J ust
Ã¤h Ã¤n
eng er
Ġd rop
Ġaut re
Ġcompl iance
es en
Ġdestroy ed
nat ural
ĠW ood
Ġhop es
ĠMar g
Ġexerc ise
ĠMich ael
pers on
su ccess
AGGG GC
re i
ĠĠĠĠĠĠĠĠĠĠĠĠĠĠĠĠĠĠĠĠĠĠĠĠĠĠĠĠĠĠĠĠ Ġ
O D
f are
ATT TAC
Ġch anges
Ġdev oted
Ġche z
Ġc rew
ad t
Ġment al
Ġexcept ion
ast ed
Ġp ag
Ġj usqu
Ġd ying
Ġprison er
Ġma id
z za
ink ing
i pt
Ġdes ert
TGGG GG
TATT CC
Ġsurr ounded
Ġkind ly
il ty
Â» ,
Ġextra ordinary
r im
Ġem br
Ġre ar
Ġcast le
fe rences
Ġgu ide
Ġshe ep
Ġsl aves
ĠPr ot
Ġele ment
Ġpriv ile
è ĳ
ress es
5 2
TTTG GC
Ġ ÏĮ
m osp
6 3
* ,
Ġvict ory
AG ATGG
Ġg rief
ç ´
is tered
AGG AC
ĠT em
it ate
Ġmess age
Ġmark et
äº Į
necess ary
AGG AA
Ġmist ake
Ġm ud
Ġobser v
Ġb os
Ġed ition
Ġpar l
AAC TC
Ġste ad
es ter
ĠW il
ĠHe aven
ĠN ever
Ġgr ate
Ġrequ est
Ġo bey
Ġcompan ions
è ³
ole on
Ġwor n
Ġku ul
Ġf old
Ġcrit ic
Ġview s
d et
Ġart ist
com ing
Ġmit Ã¤Ã¤n
br idge
Ġvis ited
Ġper formed
Ġremain ing
wh ite
Ġstr ict
Ġl y
Ġdoct rine
Ġneed s
ic ated
Ġgre y
TG TTTC
ĠH or
Ġmagn ific
off ic
p he
TT TAAG
ad el
rop ri
Ġhold er
z el
Ġb ou
ig o
ĠSe c
Ġdo c
ATG AC
Ġh ate
Ġeffect s
Ġvis ion
ac ion
Ġplay ing
look ed
Ġdog s
! _
Ġc attle
ure ly
Ġmon de
Ġfe ver
ĠJe an
Ġt il
Ġsmall er
çŁ ¥
å §
Ġcon tained
b oth
quest ion
se z
ku in
Ġchief ly
Ġdoes n
Ġp ist
Ġe re
TCC TCC
Ġesc aped
Ġrend ered
Ġartic les
ĠL atin
ç Ī
iv o
Ġbo ats
less ly
lo ve
lo c
ĠrÃ© pond
Ġequip ment
Ġw icked
Ġal tern
ĠO l
Ġro i
TTC TGC
ĠA ct
Ġdis claim
Ġtem ple
Ġpl enty
TT ATAA
in v
Ġs ot
TT TGTG
Ġdel icate
U D
é ĥ
Ġavo id
ĠM ur
Ġpay ing
be aut
Ġa rose
Ġp ressed
Ġbring ing
Ġda wn
Ġk Ã¶n
Ġconcl usion
i ens
Ġact s
ĠP ark
de c
Ġaut res
èĢ ħ
Ġmanif est
Ġh am
ĠC orn
AGGC TGAGGC
Ġend ed
äº ĭ
Ġvis ible
Ġz ou
Ġp ardon
åĪ °
cl am
ĠL in
Ġcomm ission
a Ã±
Ġ á¼
it ch
ran e
ĠL y
Ġtown s
Ġg ay
9 2
ĠF ra
Ġconst antly
Ġmer cy
ab an
how ever
res se
du ce
Ġconf ess
ĠÎ Ń
re ason
Ġbr anch
E d
Ġdispl aying
Ġet te
Ġsub s
EN D
Ġj ob
å¦ Ĥ
ĠD ep
qu al
Ġsm iling
Ġcond em
Ġte ach
Ġviol ent
Ġbrill iant
Ġsc attered
ĠIn formation
al y
Ġas pect
Ġprodu ction
Ġcham ber
Ġnat ives
ful ness
un ge
Ġsch on
Ġsh op
Ġru in
G ATC
m id
ad as
ep s
Ġbl ank
Ġexp ense
ale m
Ġdesp air
Ġresol ved
as ions
v on
us i
im mer
æĽ °
Ġc aut
Ġbab y
ra el
å¤ ©
ch a
AL L
Ġob sc
Ġs is
TAA AAG
ĠPar liament
Ġtro is
iss ance
Ġr oute
Ġex ha
Ġo x
Ġsin Ã¤
Ġpros pect
ĠAN Y
çĦ ¡
ure n
Ġspr ang
Ġl oro
k ed
H Ã¤n
t is
Ġprof it
Ġc ousin
Ġ #
Ġdet ails
Ġpl ans
Ġbecom ing
Ġl ux
Ġimp at
od s
Ġcons cience
Ġr app
g eneral
Ġa y
---- "
Ġal g
ard e
Ġkne es
z y
sub ject
ĠMart in
Ġprob able
Î ¾
._ )
Ġcloud s
ow der
z ie
ĠC amp
ARR ANT
ĠÂ ¡
è «
Ġcap it
a ver
h aving
Ġrem ind
ĠCh inese
t out
in tell
w rit
ic ious
Ġprovis ions
ĠRep ublic
ĠD ar
Ġn in
Ġb ought
im en
ĠG reen
Ġh ole
ur ches
Ġimpro ve
AGGG CC
ud d
ĠB ishop
D id
ad en
TT TATC
Ġre ward
Ġv ier
Ġfl ag
ĠE in
AA ATGC
ent r
ĠF ar
5 1
ey es
Ġro y
Ġkok o
ot ing
å º
AC TAG
res pect
i est
Ġpre nd
Ġinv estig
ĠTh ose
ĠL eg
c ause
.-- _
éĤ £
Ġv Ã¤l
Ġd il
Ġve get
ĠF er
acht e
Ġhe ll
Ġre ference
ĠS ar
Ã© ri
ĠM id
av at
ex per
Ġcho ice
an za
ra i
us ual
Ġnew sp
Ġd ann
ĠEli zabeth
r age
for th
Ġ Ð
le ts
C ap
ĠRuss ia
ch arge
ĠAr thur
L ord
w en
Ġa ur
er al
is a
TGGG CC
TAT ATG
Ġse ule
ÏĮ Î½
ä¸ ī
Ġform at
Ġpur poses
Ġf ile
pl ess
ĠL ittle
ĠÏĦÎ· Î½
li est
v Ã¤t
Ġpr int
e ight
ĠCh ap
G AGC
ĠÂ ¿
end re
st airs
ĠP ope
Ġg as
rib ute
en ne
ĠEurope an
Ġstri ke
ĠÃ© taient
ir med
IN E
ac er
th a
o j
ĠE arl
ĠA unt
op ed
Ġd al
se arch
Ġatt itude
TT ATTC
D r
Ġso it
u ine
Ġa x
ĠE BOOK
Ġsign s
Ġg ently
e in
AA ACAC
AG ATAA
ĠUn cle
Ġfriend ly
Ġt ort
ten se
dis c
ĠC at
TG AGAA
TC AAAA
Ġind if
Ġhid den
AAC AAC
Ġso vere
Ġsac rifice
Ġhot el
ĠS omet
Ġpoet ry
Ġje une
AA TGAA
Ġr um
am an
Ġv il
n u
Ġass istance
b res
ĠRuss ian
ãĢ ĭ
occ up
ord in
clud ing
Eng lish
ãĢ Ĭ
char acter
ĠBrit ain
Ġarg ument
Ġinqu ir
Ġt iet
ĠCoun cil
Ġd ance
com fort
reg ard
ĠAfric a
Ġstri king
ĠSt ill
Ġinstr ument
w ij
Ġp ied
Ġfour th
Ġf o
G ATG
Ġen nen
' ,
Ġext ended
Ġam az
Ġme chan
O H
OR D
Ġimp ress
d Ã¤
ĠM it
Ġb id
Ġadd ressed
Ġc oup
AGG TGG
Ġon line
al an
Ġsoon er
Ġpar te
ig s
! Â»
Ġy o
sm all
ĠA ny
J an
Ġv ac
ĠSt r
olle ge
ass er
Ġwor den
ĠM us
Ġthr one
AT ATGC
9 1
Ġw ound
Ġrais e
Ġshout ed
Ġcons ult
? âĢĻ
tt Ã¤Ã¤
f und
Ġind ul
ĠCath olic
AGTG CC
W as
Ġsign ific
Ġcoll ect
Ġcomp elled
Ġcomp re
Ġp ien
Ġe mer
i ation
r ous
ĠN ational
Ġke y
ro l
Ġpost ed
ATT TATT
Ã¤n i
part icular
Ġkit chen
ur ance
st re
ott ed
Ġe cc
Ġinf ant
O C
Ġh ommes
Ġst up
Ġdi vers
Ġpra ise
Ġse ldom
Ġse ction
ĠA ss
Ġdisapp eared
ap ers
Ġden n
ill s
Ġt ight
ĠR ose
or ial
ĠL ove
Ġg ross
AA AGAC
Ġk on
ĠĠĠĠĠĠĠĠĠĠĠĠĠĠĠĠĠĠĠĠĠĠĠĠĠĠĠĠĠĠĠĠ ĠĠ
ĠT re
m outh
str ong
hen omen
Ġsou ls
G TTC
ĠSe a
Ġu lt
Ġtrans port
Ġcall s
ik in
l ia
Ġaff ect
AT ATCC
und e
è £
Ġthousand s
por ary
Â ¡
is ation
TGC TGC
Ġth inks
ĠH istory
Ġo lla
li o
TCC AC
" --
t ra
ĠGo vernor
åį ģ
b ably
AG TATT
Ġrec ent
O ur
on ia
; --
Ġban ks
Ġst uff
ĠB ro
TTTT TAA
Ġhor iz
he ard
IT ED
Ġpo ison
Ġdign ity
èĩ ª
Ġhu om
h ind
Ġan ger
Ġevery where
lij k
Ġp ouv
ĠJ oe
I RE
C om
Ä «
Ġgre et
el o
ut her
Ġal k
Ġgr ant
Ġder ived
Ġdies e
m oment
Ġin se
ATGG CC
Ġk an
Ġso ll
he ure
ĠG old
l arge
n ut
Ġn arr
ass es
ab el
id ents
AAG AAAA
ĠVirgin ia
f ull
Ġag ent
un ities
ict ed
Ġw al
ĠN at
Ġextreme ly
Ġin fer
Ġen orm
is er
Ġn Ã¤y
ri ft
art s
Ġ" _
Ġb ag
Ġexped ition
Ġcontain s
Ġl inks
Ġdis covery
or able
am ong
å ĭ
ATC ACC
Ġas leep
ĠDie u
Ġin ner
S c
ĠR es
h all
6 2
ens chen
per haps
am ma
Ã¡ z
Ġn ouve
d ans
id ity
s ince
Ġrem ove
Ġr ust
Ġsing ing
ĠL o
Ġide al
ok ing
Ġrest rict
ick en
Ġy l
Ġyes terday
ĠM ess
Ġf i
ministr ation
f ire
Ġpre cious
ĠB oston
Ġfing er
Ġk am
pl us
Ġr av
Ġm int
Ġcel ui
Ġsu iv
M on
m atter
lo ved
f am
Ġfrequ ent
Ġ Åĳ
TTG TTG
çĶ Ł
ĠZe it
TG ATTC
ĠJew s
y es
ĠP R
z es
er ves
Ġpu p
pr inci
é ¦
b est
com pl
Ġcommand ed
app ear
I B
ĠS to
ĠS erv
t ow
m ain
u ce
ä ¿
? ...
Ġaw ful
Ġb at
reg ular
Ġrecogn ized
Ġcon tempt
Ġfr ame
ĠScot land
Ġpain ted
Ġbrother s
ATTG CC
Ġfat al
AG AGGC
Ġintellig ence
ĠFeb ruary
Ġthro at
IV E
ra h
ĠV II
Q ue
Ġmod er
TGC AC
i Ã³
ĠE X
ing e
Ġno body
ĠWe b
Ġatt ended
Ġpor te
Ïī ÏĤ
ism o
Ġtr an
Ġaz t
od er
ung s
Ġar med
ail ing
mosp here
Ġschool s
Ġreck on
Ġfool ish
I F
app ed
ĠBe fore
Ġde pos
Ã¤n Ã¤
G TAA
Ġlo ver
Ġag es
ill ery
ĠB ible
CCC AGC
Ġdevelop ed
Ġvo ices
Ġunivers al
ÃŃ an
Ġneg ro
Ġn orthern
ĠDo ctor
Ġl icense
Ġmed ic
Ġr isk
ACTCC AGCC
ĠH ol
ure r
ĠSp irit
AA TTAA
OU R
Ġt Ãªte
do es
Ġmajor ity
Ġst ret
Ġhab its
M utta
Ġed itions
Ġha be
( _
st o
giv en
Ġcontem pl
Ġex cess
Ġp icked
Ġm iel
ĠH oll
Ġall es
Ġevery body
Ġne lla
ĠV ict
arr ison
Ġsufficient ly
Ġfl ed
ĠA us
op h
Ġges ch
Ġc ig
ht e
Ġin ch
ac qu
Ġm ol
Ġmod e
an ks
j es
Ġch a
Ġpros per
ier re
y et
A re
Ġfamil ies
Ġinno cent
ou ch
Ġd ish
Ġreal ity
ĠS ur
ATG TC
Ġste pped
Ġent r
in qu
am in
ĠkÃ¤ s
Ġso ci
le ur
Ã© rit
Ġde finite
Ġem otion
pro per
æ Ĭ
Ġam i
ĠG re
Ġg ift
Ġre aching
ag ree
Ġst aff
ear ly
ul k
c re
Ġaw ait
Ġl ou
hum an
Ġs Ã©
Ġfriend ship
Ġcon vey
Ġask ing
Ġyoung er
Ġunderstand ing
Ġsav age
Ġdest ruction
en en
V I
ĠD uring
ic le
ĠA re
Ġwe ary
de v
Ġr ushed
æ ĭ
Ġche st
Ġh orn
if ying
ĠTh ough
Ġwas te
O ct
Ġmon arch
tr ad
Ã© ny
ĠA p
Ġdev ant
ç «
E very
AA AGAG
ĠC oll
M ad
AG TAT
ist ent
Ġlear ning
e ach
Ġce ux
Ġl iterary
Ġproper ly
at to
ĠH el
E s
y ne
Ġb ree
v u
m ing
Ġf lying
TGC TC
ĠG al
Ġse g
Ġreg iment
Ġme al
os se
Ġlead er
Ġih re
Ġ Ä
Ġwis hes
Ġe ase
æĻ Ĥ
Ġconf usion
ien ne
i hen
ĠM ann
Ġchar acters
Ġz we
let te
ĠO x
Ġsound s
m il
ire ct
art en
Ġter re
ograp hy
Ġs ending
Ġ8 0
Ġg anz
Ġwhe el
AAG TC
Ġk ings
æ ²
Ġstat us
Ã¼ ber
u ut
Ġexp enses
ĠD as
Ġthr ust
Ġabs or
Ġcl ub
with standing
te xt
Ġhelp ed
Ġp aused
st ru
Ġhy vÃ¤
M ais
ĠL E
Ġcs ak
ver ted
Ġre duced
is ions
al ta
ke en
Ġje alous
ĠR og
ast aan
Ġappro ached
ĠTh ou
Ġcent uries
Ġdom estic
Ġsem bl
ĠP en
r ad
ĠCh ief
Ġar d
Ġpress ure
Ġis lands
ĠV III
Ġin tense
ĠS ol
ACC TCC
Ġa h
ĠH y
Ġsix ty
Ġr a
AG AGGG
Ġ AG
s ue
v als
ri ent
t ion
S u
Ġper pet
ĠE nt
s ign
Ġperman ent
TAA ATT
lle en
Ġn Ã¤h
ais et
AG ACAC
su per
Ġleg isl
K E
Ġformer ly
a ult
Ġbet r
Ġwur de
A ng
Ġe h
AT ATGG
vis ion
Ġapp ly
AGAA CC
Ġsch ol
w s
6 1
Ġtrib es
R AN
le ft
Ġsp end
j Ãł
Ġmist ress
child ren
ou ps
ke e
TTGC AGTG
Ġv ap
Ġg y
ic les
Ġrec oll
Ġsag te
Ġmu ÃŁ
un ter
ll ed
TTGG GG
P hil
Ġph ot
Ġy a
Ġo cean
Ġsub sequ
ag ger
Ġf ame
pir ation
Ġw aves
ĠO ther
Ġapplic able
Ġe ikÃ¤
R A
AA ATGG
M an
iss ait
av y
Ã¨ me
Ġinqu ired
auc oup
us ive
O V
if ts
ATG TG
ord en
Ġref lect
G TCC
Ġpres erved
N ote
vid ence
Ġnod ded
Ġavail able
Ġm our
m aking
i pped
ĠK un
Ġdesc end
Ġsel bst
Ġreturn ing
p as
Ġsett ing
Ġess ential
Ġn est
Ġko ht
ĠD a
se emed
TGAA GC
her s
Ġac id
åı ¯
r ice
Ġ3 2
gr and
Ġhundred s
h ist
å° ı
Ġl ift
Ġstrong ly
ĠL ike
ul gar
tain s
w ers
Ġbuild ings
uks en
Ã©s z
Ġmin ua
Ġcent ral
AAGG CC
Ġinc ident
Ġin finite
ĠSec ret
Ġoper ation
i ot
Ġrece iving
it ar
Ġsein er
Ġdies er
Ġgovern or
Ġt uli
so ever
Ġr at
St ates
h omme
á ¿
ien e
el ig
en za
ri ve
Ġver b
Îµ ÏĦ
comple te
ĠCh ina
c as
Ġdef ence
Ġwrit ers
C AC
ex c
ĠS l
ĠH a
bet ter
ĠU nder
AAG AAC
ĠM onsieur
ĠAm ong
Ġcount y
Ġp ushed
Ġst amp
Ġ7 0
Ġsett le
ie urs
Ġcommer cial
ĠF in
gu ard
Ġdel ivered
itt y
Ġf id
Ġw ing
osp el
ett iin
Ġs Ã¤
y ear
Ïģ Î¹
Ġinst antly
Ġmethod s
ia h
ĠB on
ĠÎ ³
Ġfe es
ig g
v ano
Ġfound ed
Ġto mb
Ġv ague
AG ATTC
TTGG GC
Ġgu ilty
Ã© ra
Th us
Ġrefer red
m ont
Ġsu cc
Ġbr ig
Ġgl orious
or ter
ab led
Ġsil k
Ġg rie
ok s
ĠD utch
Ġd ich
Ġg ed
Ġswe pt
ic hen
Ġappe al
ut ive
ATT TAG
l ers
Ġt Ã¤mÃ¤
âĢ ¦
Ġp ipe
Ġtrad ition
Ġme asures
Ġincl ined
Ġmove ments
; "
os er
Ġst or
Ġacc ur
Ġwe b
Ġcelebr ated
Ġg rav
Ġobser ve
d ays
TG AAAC
Ġcle ver
Ġsubst ance
Ġ rib
Ġv it
Ġt ai
re z
ACC ACC
con c
? )
Ġd ess
ĠH ave
ur ther
_ --
op ing
V er
Ġtr ace
Ġoccasion ally
Ġc er
Ġcas a
ol is
N ever
Ġun o
Ġthan ks
Ġm ixed
ĠÃ© p
Ġm onsieur
Ġpre fer
e i
Ġmu ut
ĠhÃ¤n et
in ut
ĠR u
Ġnot ed
! Â«
ĠG ra
k em
Ġb ones
ATG ATG
Ġe lla
ul ations
bre ak
c z
D er
Ġlike wise
ch te
ett i
Ġutter ly
ist ence
AA TATG
Ġs cientific
Ġs igh
Ġkans sa
ri p
wh ole
. ),
Ġwhen ce
Ġr ot
ĠT y
w el
èĳ Ĺ
ĠE ach
Ġacc ustomed
v ia
ATC G
ai red
Ġcoff ee
ar o
Ġinterrupt ed
Ġsign al
Ġqual ities
ĠM other
TT AGCC
ĠT ra
Ġab road
Per haps
ois elle
AC H
Ġsy m
Ġp Ã¥
ier a
Ġdifficult ies
Å ¥
ĠR us
Ġdefect ive
sh ire
Ã¶ tt
ĠPort ug
Ġh ay
AA AGTG
d at
Ġins p
AGG AGC
ĠBes ides
um ption
Ġ ingen
Ġadmir ation
D E
ĠB Y
Ġphilosop hy
C TC
ATCC CC
ist i
å Ĭ
an ing
Ġo nder
gr ace
ob ser
Ġaff ected
of t
r in
Ġste el
Ġfurn ished
AG AT
Ġr ang
Ġkind ness
Ġt ud
ĠIs rael
br ought
Ġw en
bl er
n umber
ack ed
Ġb atter
Ġj ours
Ġhtt p
ĠD ay
Ġw estern
all en
um mer
Ġmad ame
ias m
Ġder iv
ATAT ATAT
b ow
Ġread ily
ĠInd eed
Ġanx iety
k on
Ġp in
lo g
Ġprin ces
ĠP re
Ġru de
Ġgener ations
ATT CCC
to p
ĠNap oleon
Ġmount ed
en ough
AAAA AC
sel s
Ġaccompl ished
Ġn ie
rep resent
Ġis sue
ĠhÃ¤n elle
es i
Ġn im
ä½ ķ
Ġsoft ly
Ġcr imin
pl om
Ġany body
ĠTr ans
em an
ons a
Ġacquaint ance
ah an
Ġpu h
Ġare a
Ġbene fit
Ġre nder
Ġb in
Ġann ounced
g irl
ch n
all is
unt il
Ġhy vin
Ġenjoy ed
Ġcount enance
Ġcl ergy
Ġsec ured
è ²
Ġdep uis
Ġta ht
y ard
æ Ķ
Ġrep orts
Ġprinci p
Ġand ere
Ã¼ hr
åħ ¬
Ġle af
ĠA ust
ĠAb out
Ġcare er
Ġrid ic
Ġh ollow
cl osed
Ġan ch
Ġhor ror
Ġconst ruct
ke ep
ATC TTC
av ano
Ġal ike
è Ļ
ĠA L
ĠÏĢ Ïģ
Ġass umed
Ġa ina
AGG AAC
ĠF air
ud ent
ĠMar ia
n em
Ġvers ch
pr im
ais i
å° ĩ
st ate
ÏĢ Î¿
y a
AA ATTG
Ġint im
Ġget s
ou ver
os ition
Ġy ks
IC E
F ig
Ġst iff
ac co
ĠChrist mas
ell y
h igh
ou re
it led
Ġprovin ce
Ġf ulf
TT AAAC
ĠCar ol
Ġkn ife
st a
Ġim age
Ġquar ters
Ġv om
Ġl one
TGG AAG
G TTG
ĠB ab
im ony
Ġse hr
pp e
AG E
Ġst airs
ig keit
dif fic
ĠÎ ·
Ġoppos ition
ĠS us
Ġl est
col n
r ound
Ġk om
ĠS a
Ġfe ather
Ġpun ishment
ĠJ ane
0000 0000
ĠB oy
Ġd imin
Ġtra il
Ġindust ry
i ro
Ġhouse hold
Ġint ent
ol ation
Ġmyst ery
Ġlight s
Ġsa is
AC TTTT
Ġsy mb
Ġwood en
Ġdepart ure
Ġu l
ĠM ost
Ġt in
Ġso bre
æ Ħ
bus iness
eff ect
p op
Ġele ments
Ġobtain ing
RE E
Ġsh ade
ess aan
cl ose
ht er
bu ild
Ïĥ Î¹
Ġrece ipt
Ġm ai
Ġcoun ter
Ġs ab
un ted
Ġout er
Ġs outhern
Ġdread ful
Ġhe idÃ¤n
ĠS qu
ç ¥
ĠF a
Ġc elle
ATC TCC
t able
Ġinter pret
Ã©r t
am ber
Ġpet it
Ġr age
Ġj ew
å ĸ
ult ure
ann el
AA TCTC
Ġbelong ed
Ġreason able
l an
quar ters
Ġse es
TCCC AAAGTGC
æĸ ¼
Ġnerv ous
av oir
Ġa unt
ĠA R
Ġhum ble
ij d
Ġexper iment
Ġse i
Ġinter ior
Ġpay ments
Ġwhen ever
Ġbeh old
ĠB oth
Ġm Ã©g
Ġim mer
TC TTCC
Ġver se
for ms
Ġcomm unity
Ġref use
ATG TAA
ĠE ll
Ġal ors
Ġcomp et
Ġaver age
TT AGAA
h ome
am os
ĠAlex ander
Ġpo is
Ġman ners
Ġav ant
Ġv os
Ïħ ÏĦ
Ġdes ir
ĠD om
AA AGGG
all el
ĠM AR
re tt
Ġissu ed
Ġo wing
TT TAAC
AA AGCC
ĠdÃ© c
Ġman aged
Ġwar ri
Ġas sez
Ġp Ã¨re
ul ating
eng ers
Ġf ired
V ery
im ag
Ġdel ay
Ġk ot
èĪ ĩ
rib es
om ed
I m
Ġfright ened
L ook
Ġv ed
ĠIn c
Ġcharm ing
ap es
Ġe ternal
bo at
im ens
Ġstru cture
un to
Ġre new
ĠA ber
Ġsche me
ĠT w
ink in
Ġco al
us ions
sh ips
Ġver t
Ġaccord ance
s ing
Ġpo em
ĠSch ool
Ġche eks
Ġvie l
h undred
f ait
m el
Ġfier ce
Ġb orne
Ġdiscuss ion
Ġgr im
ĠUnivers ity
Ġnecess arily
Ġk ol
Ġcomp ared
Ġb ark
Ã¤Ã¤ llÃ¤
Ġk m
Ġbre aking
Ġdr am
Ġenc oun
Ġres pond
Ġm ood
ATG GGG
i Ã©
Ġsepar ated
Ġmill ions
Ġv ote
Ġquest o
Ġl ors
ÃŁ e
Ġwon dered
itt Ã¤
let on
Ġdep end
worth y
Ġal c
Ġexp osed
Ġparagraph s
è¦ ģ
Ġlead ers
Ġdeli ber
Ġto do
Ġun ion
Ġignor ant
Ġrem arks
ĠS ta
G TAG
Ġret ired
Ġtri be
Ġabs urd
Ġsol ution
Ïģ Î±
ĠB ern
Ġmis erable
AAGG GC
Ġexc use
Ġa k
Ġrel ated
e es
Ġbl essed
ï¼ ģ
turn ed
Ġp henomen
Ġ3 3
Ġroll ed
Ġdream s
ç Ń
in th
m em
Ġtra vers
Ġdef end
Ġse ed
ou bted
us alem
AGG TGC
Ġacqu ainted
AA ATCC
av o
m orning
Ġm ild
_ ]
Ã¡ nd
Ġob ed
Ġcomfort able
Ġper d
Ġth read
any thing
all ow
P H
s us
ise en
ou x
Ġobser vation
Ġconvin ced
rel ig
Ġlaug hter
Ġj Ã¤l
Ġbelong ing
ĠCon f
u us
b urn
Ġe lder
Ġs Ã¥
n is
........ ........
let ter
Ġprot est
aj a
Ġb ord
Ġcoun cil
Å į
s ac
sec ond
inc re
gg ed
o z
un es
W H
Ġre volution
Ġin form
Ġhe eft
ĠMin Ã¤
TT AT
k ki
dif ferent
ic an
Ġn agy
Ġsle pt
Ġsu p
Ġdeg rees
ÏĦ Î·
Ġd ol
pass ed
d iv
Ġwel che
pro vid
ĠN on
Ġact ed
ON D
che ster
Ġsome where
Ġopin ions
t te
av our
ĠÎµ Î¯
Ġa ivan
ĠÎ ¸
AGGC ATG
Ġm atch
Ġta as
Ġcurios ity
Ġfe ared
in ently
Ġm and
Ġexec ution
re ceived
sch ool
Ġgl anced
az e
TTTT TTG
) :
Ġtri p
" .
c it
Ġm art
ĠR os
M AN
Ġt ables
ij o
H ave
Ġhe ure
TGG AC
O SE
Ġall eg
c reat
ACC AGCC
Ġnom bre
ĠG ar
Ġcre ation
Ġur ged
Ġprof ound
r ont
AGC TGC
Ġo ath
Ġprec ise
Ġdri ft
R S
ers ch
Ġar ise
Ġh i
Ġl ately
Ġbr ide
Ġtele gr
Ġdoubt less
Ġat mosphere
ĠA u
ĠS at
è ĥ
ĠM ax
Ã© ch
Ġcreat ures
Ġall er
Ġp ause
Ġeager ly
on ial
Ġpres erve
Ġsl a
con n
k ko
Ġt el
Ġsh ining
P res
Î ¶
burg h
AAC TCC
TAGC TGGG
Ġce ase
Ġste ep
ĠF ore
_ ),
Ġarch itect
i ast
Ġgaz e
ion ed
IL ITY
i Ã¤
or um
Ġrun s
Ġsus p
Ġdist inction
Ġcons ists
Ġpri ests
Ġman kind
Ġut most
TAC AC
Ġro pe
çİ ĭ
L ES
P R
Ã§ on
ress ing
Ã©t Ã©
pro f
æ ±
ais ia
or us
Ġsac rific
Ġviol ence
Ġs ank
S ON
Ġh Ã¶
k seen
è ĭ
v est
un less
Ar ch
g em
ĠC ollege
ĠNot hing
Ġe j
Ġme in
A nt
ATT T
ĠAg ain
ĠAn ne
ap ing
ĠR em
Ġc ui
ro it
TC TCCC
ATG AAG
ĠÏĦÎ· ÏĤ
Ġi o
Ġthen ce
ÎŃ Î½
occ asion
Ġunfortun ate
Ġattempt ed
Ġterrit ory
arr ass
Ġdep ends
qu ite
ocr atic
AAGG GG
Ġmyster ious
Ġele g
TTC TTG
Ġtr ack
aught ers
# #
Ġmin ist
er ies
Ġstand ard
Ġg host
m u
TH ER
Ġku iten
Ġauthor ities
ann ed
ies e
æī Ģ
Ġtu o
Ġw ire
Ġv est
å° ±
ĠM et
Ġdispl ayed
Ġu seless
AA ATATT
ĠMarg aret
IG HT
Ġse Ã±
uss a
Ġlim itation
b ird
TAAAA ATAC
p hen
p an
lo qu
he el
Ġsu st
ĠA z
app eared
ATC ATC
Ġmar ks
v ill
Ġla iss
Ġm ies
Ġfall s
AG TTTG
Ġav aient
Ġt unn
Ġc ents
ull ut
Ġri val
Ġfran k
ĠP ost
Ġarrang ement
Ġindepend ent
Ġbe ast
Ġest im
Ġdec ision
tem ps
op in
Ġshel ter
De f
r d
O G
ĠÃ ¢
C ar
Ġsc r
Ġelect ric
Ġa pt
t own
TAG AGAC
Ġmij n
Ã µ
å¥ ½
Ġburn ed
Ġdelight ed
bl ack
OR K
Ġocc asions
AA TGGC
ĠAn other
Ġpo ver
ĠC le
---- -+
ĠH art
ak t
ud a
Ġ6 4
ĠD i
ge ant
our ces
Ġcont ra
Ġqu ando
Ġcamp aign
al ys
ipp i
Ġun ited
Ġbar bar
ĠB ell
Ġv ille
cul ation
Ġb ask
AGC TAC
Ġer ror
TG AGCC
fort une
Ġcoll ected
å¹ ´
k Ã¤Ã¤
at ched
Ġenorm ous
TGCC CC
Ġtem p
ĠAr my
ven ue
r ate
Ġg an
Ġfind s
Ġheb ben
ĠTh ree
Ġest ate
r ace
ĠL uc
ad j
Ġcomple ted
ci pit
hand s
Ġconscious ness
Ġe z
AA TTTG
am our
r ouw
ĠE p
Ġt anto
Ġf ille
Ġcom r
T ON
ĠB et
Ġgu ests
Ġfl ame
mir al
Ġcolle ge
Ġconst ruction
Ġcor por
Ġplain ly
it ors
Ġus er
Ġfat ig
t aking
Ġto is
Ġli bert
Ġact ivity
Ġge z
Ġsc ale
Î¹ Îº
Ġappro aching
Ġturn s
Ġdis pos
Ġl ic
Ġattack ed
ĠL ook
ĠC a
v y
Ã©r al
Ġen f
Ġr ush
c ribed
Ġpl at
Ġod d
ar in
d one
Eng land
d am
we g
Ġbeg ins
n ature
pro du
Ġd az
Ġcor rupt
Ġhand ed
se re
Ġres c
wh ose
e ous
am ents
ant ages
um a
h ouses
anch oly
est ab
P E
ay er
r ical
Ġl an
S i
Ġfail ure
om o
Ġcon cluded
Ġdisc our
ATT TGG
Ġg egen
Ġg ens
Ġprovid ing
E m
ais in
Ġpen etr
Ġf ert
AGC TCC
iss en
j u
Ġele ven
AG AGCC
! âĢĻ
ann a
use um
ĠWor ld
Ġorn ament
Ġlarge ly
à° ¿
Ġrepl acement
Ġw ave
Ġ3 4
TC ACCC
p ast
u ld
tw enty
G AGGC
Ġtrou bles
sh ine
ĠH o
g le
Ġc Ã´t
ĠJ um
Ġun happy
ĠdÃ© jÃł
Ġcharacter istic
Ġt ark
Ġg ing
Ġave va
ĠA then
TG TTTG
Ġch urches
ĠW ater
AA TTCC
Ġpract ically
ient o
Ã¨ ne
TT ATTG
ĠWal ter
ess o
M a
we et
Ġbe aucoup
ĠF our
AGC AAG
Ġacknow led
re ction
Ġsh ru
F F
Ġsa le
S te
Ġexam ination
Ġsovere ign
ĠÏĦ Î±
OH N
n ell
AGGC TGGAGTGC
Ġdis position
Ġe ene
Ġr am
rown ed
Ġm ig
Ġst retched
AA AGGC
Ġy ard
Ġun conscious
there fore
L Y
Ġpropri et
Ġaj at
å ķ
Â» .
Ġde ed
Ġdeli ver
= :
Ġcommer ce
st y
Ġfirm ly
TC GG
sy ch
J ul
Ġact ions
AA TAAC
ou le
b ene
ĠCan ada
ĠS in
ATAA GC
ac ific
TTG AC
Ġperm it
ĠM ah
ĠR ock
Ġweak ness
Ġm ing
ar g
Ġdispl ay
od en
Ġlight ed
a um
per t
Ġmet al
Ġcott on
ie z
acc ount
ATG TTC
h ot
Ġsuspic ion
ĠI ND
Ġinv ited
ĠC OM
AA TATC
to ld
for mer
å¿ ĥ
et ic
Ġst ared
Ġsil m
Ġpor que
èĢ ģ
Ġrep utation
Ġcomm enced
ĠAug en
l Ãł
Ġoper ations
F l
ĠH am
Ġsp are
ru p
Ġsc orn
if ies
or igin
Ġb i
ak k
Ġgaz ed
po on
ann ut
tain ing
Ġcon flict
ĠAd d
Ġcomp lying
f ty
Ġdem onstr
Ġtran qu
ĠN eg
iz es
Ġir rit
å ĵ
." [
K ing
Ġapp ropri
Ġrec ently
an che
ĠdÃ© f
Ġrid ing
ig ent
un que
Ġt ie
Ġth under
m ag
Ġlo yal
Ġins ult
Ġmurm ured
orn o
Ġut tered
Åĵ ur
ig ence
Ġemp ire
ĠC as
b all
Ġp endant
ĠE i
w ait
Ġacqu ired
f ld
ĠL IM
Ġz w
ribut ions
Ġlo ving
om a
Ġmagnific ent
om ach
Ġ Ã¤Ã¤n
Ġab b
Ġsh r
Ġgr oups
Ġchar ged
Ġh unting
ĠT or
ĠG i
Ġbur den
TTTT TC
Ġ â
Ġfore head
re nder
Ġdis posed
Ġind icate
ien cy
Ġspeak s
Ġt ah
Ġsupport ed
TGC TTC
un ction
iver se
od a
Ġcrowd ed
Ġkiss ed
ar ation
Ġcrit ical
ck ing
U B
ind e
ch anged
am men
ĠG reg
Ġhur ry
Ġex ists
Ġch amp
Ġs aint
AGGG GG
akes pe
D ec
ple asant
Ġderiv ative
ÏĦ Îµ
Ġp ant
ak aan
Ġau c
Ġto wer
Ġge b
åı ª
Ġm Ã¡r
å ģ
Ġun certain
Ġme er
19 0
ol ate
Ġroad s
ĠG all
Ġu ma
Ġmer c
Ġignor ance
% ,
TGC TG
g one
gent le
Ġette i
Ġte aching
ott i
AAC G
Ġv all
on io
à± į
Ġcl iff
op o
bl ock
cl ass
: âĢĶ
Ġre ject
Ġanc est
Ġwhis per
Ġch ain
aut hor
I AN
AAC ATGG
Ġfle w
Ġhuman ity
Ġhither to
Ġclaim s
Ġre b
ĠN O
F rench
ist le
Ġs illoin
Ġdon ner
Ġw retched
Ġsc enes
Ġelse where
ĠPrin cess
å¾ Į
if orn
all ing
icht e
ab ri
TAAG CC
ĠO N
ĠK ent
Ġ ÏĨ
Ġpr Ã¨s
ter ior
Ġqu ella
Ġbl ame
Ġwar ning
ĠSp ani
r ather
pe re
X page
Ġbe lle
Ġhad n
Ġland ed
Ġdelight ful
Ġ /
Ġexam ined
Ġde ze
Ġ 00000000
AGC TG
in f
V ol
ATC ATG
it an
Ġmar ched
Ġh anging
AGG ATG
Ġpat ience
oren ce
ĠFred er
ĠJac ob
Ġinst ances
Ġaud ience
T is
Ġd ared
Ġsp ark
Ġe ivÃ¤t
um er
Ġgener ous
Ã¶ k
heart ed
wr itten
Ġdo ve
ç ½
Ġent itled
Ġfor bid
Ġher s
y ty
Ġmin ulle
he im
ACC G
Ġa o
Ġ3 7
ĠT im
ne et
Ë Ĩ
ĠD is
Ġm ille
Ġcost s
ic ians
j os
GGG CC
Ġste ady
uk k
Ġper o
ĠA ustr
s ar
ĠS and
AGG TG
Ġto ler
Ġcaval ry
Ġlisten ing
ĠW estern
Ġpass es
ink uin
ar ms
TGC G
Ġg al
Ġs ore
. -
iss ippi
P e
am i
A U
ill ing
Ġext rem
Ġarri ve
Ġconf irmed
Ġvi h
ATC TTG
Ġk oh
ĠOn ce
n ous
Ġpres ident
an while
Ġt ide
Ġse ul
Ġang el
Ġpro hib
Ġre ferences
Ġcapt ured
t ro
Ġbos om
read ing
Ġtod os
act ed
æ İ
od es
Ġs ar
en em
Ġcompar ison
Ġl ust
TTC TAA
wh om
Ġpu zz
uck y
? Â«
L ondon
p her
xt ure
Ġo tt
Ġrail way
ribut ing
ĠO b
akespe are
Ġj ur
Ġsi ihen
I P
art ment
TGG CCC
Ã© ment
quis ite
ok si
alt ies
ĠLin coln
AT AGTG
Ġdep th
, Â«
Ġas certain
i ques
Ġtre asure
ä ¼
w hether
Ġf an
ĠChrist ians
ĠH elen
AAAAAAAA AAAA
æ ¬
al m
s atis
Ġdet ail
f em
c ence
w alk
Ġwrit es
ĠLIM ITED
ATC TG
Ġde bt
Ġrel ative
å Ĩ
Ġprem ier
Ġvast aan
å »
Ġtrain ing
Ġc raft
ĠÎµ Î¹ÏĤ
Ġdeter mine
Ġjot a
TT TACC
Ġell es
Ġt iny
Ġb row
Ġk l
Ġsupp lied
Ġor g
Ġreal ized
Ġconf ined
H ar
ĠU se
ĠGer mans
th ousand
ĠH ence
Ġ3 8
Ġsi inÃ¤
Ġche ek
de ath
Ġtrem bling
Ġapplic ation
ĠH aw
ann y
Ġfl ung
ĠMar ie
ific ations
Ġtreat y
itud es
Ġst im
ven ir
Ġapp ar
v oy
att i
ĠLie utenant
Ġge en
Ġmy Ã¶s
Ġant icip
t le
Ġ15 0
Ġform ing
Ġcomm ence
Ġpr is
qu elle
T wo
Ġl um
Ġinter view
Ġpre mi
on ut
or de
p ossible
ĠTh y
GC G
m ill
ly n
IN D
nt y
ĠMex ico
Ġlone ly
Ġne arest
ĠU N
ĠW ITH
ra wn
An other
Ġp ace
Ġbas is
Ġconf irm
Ġflo od
ĠLe e
st ri
Ġest a
Ġwid ow
Ġhor rible
Ġground s
hed ral
ol as
ĠCast le
a ht
suff icient
Ġbe ars
Ġdis g
ĠB u
Ġmain tained
sp irit
AT E
ĠS ince
Ġdirect ions
Ã¤t te
ĠD ist
TTC TAG
ins a
av ais
ud ence
avi our
Ġcomp ass
o ja
w ords
c d
Ġa ino
Ġprev iously
Ġl em
t ree
ĠtÃ¤y ty
so ld
b ran
Americ an
Ġchar ges
z ig
Ġdisci pl
Ġsli pped
AAG ATG
atur day
Ġse ur
g reg
Ġno on
TTG TC
ATT TAT
Ã¤ ll
Ġgr asp
Ġcap acity
Ã¡ ra
Ġtr ick
er te
Ġfl ow
Ġshe d
ot ions
Ġw ohl
Ġp aik
Ġh ind
Ġsuggest ion
ĠI X
Ġjet zt
Ġopp osed
art ed
Ã¢ te
so on
I ch
Ġrec overed
in ations
Ġr y
ĠK u
ÏĦ Î±
ĠEmp ire
F eb
av ia
Ġmo b
ink aan
Ġmain ten
ç ī
à± ģ
AA TTAC
Ġlim it
Ġc um
ĠH al
p ol
è¡ Į
ĠJ ones
Ġsum mon
ĠM S
Ġneighb or
ĠP ri
ĠÎ´ Î¹
Ġcommunic ation
Ġsort s
Ġon s
h arm
R Y
Ġerr ors
Ġcomple x
Ġse inen
ä¾ ¿
reb be
Ġst out
ind ing
ä» Ĭ
Ġdr ag
ĠComm ission
Ġd ict
Ġann oy
Ġfe ast
angu age
Ġaccount s
Ġun usual
Ġexist ed
medi ately
AC TCTG
f red
r ir
Ġstud ied
wh y
C omm
Ġcon vention
Ġc utting
Ġenthus iasm
in cluding
Ġm ak
Ġb ishop
Ġr au
ATAA GG
itt aa
IS H
ĠProt est
Ġpre jud
Ġal as
st ed
p ra
Ġbr ings
Ġsc ream
ĠĠĠĠĠĠĠĠĠĠĠĠĠĠĠĠĠĠĠĠĠĠĠĠĠĠĠĠĠĠĠĠ ĠĠĠ
th us
AACC CC
Ġstrong er
id ly
d ark
Ġk ap
e enth
ru it
r ust
Ġc in
Ġres istance
Ġwind s
Ġp oured
hy si
Ġhospit al
F ran
Ġmis ery
ĠP ass
Ġfound ation
Ġd oth
Ġde ce
ATT AAAA
D u
ĠV or
AG TTCC
Ġdon ate
ire r
cript ions
EN CE
k n
Ġr it
è ¬
ĠT ro
in flu
Ġcontr ast
Ġmais on
Ġtrou bled
Ġg ates
ab in
h l
ĠS outhern
Ġun expected
ep endant
Ġc osa
ac cess
Â ½
AGC TGG
gr at
is y
ATT ATG
Ġhab ÃŃa
Ġne at
Ġri fle
æ ģ
con ven
ĠI ll
op es
ĠC ro
Ġp es
Ġr im
ob ject
b al
Ġser a
çĦ ¶
Ġ4 2
me re
Ġvo it
Ġri vers
pie ce
act s
D uring
ĠTur k
an cial
g ro
Ġb owed
H en
ĠB as
S uch
Ġdec or
Ġv ale
l ik
ç §
ant in
Ġorgan ized
AAC TTC
ĠrÃ© p
Ġj ag
Ġport rait
AS T
æ ¨
Ġins isted
ĠYou ng
ĠG il
ĠH et
ĠIs lands
m os
Ġp ul
ATT TTTC
ab l
er g
Ġpu ol
oubted ly
as hing
it us
Ġpat ron
ĠS un
ach ment
Ġcon j
Def n
Ġcon ception
f ell
Ġdesper ate
end ous
Ġpain ful
ing ham
Ġab ility
Ġpo co
Ã¶ m
Ġbe loved
OR E
ĠC ur
Ġad j
Â ¿
AT AGAG
Ġrail road
ri ver
Ġgener ation
th ren
ĠJohn son
Ġmer ry
t ri
TTAA CC
Ġsleep ing
Ġhast ily
Ġabandon ed
TC TTGC
Ġ16 0
Ġwer d
Ġl ent
AGG CCC
of ten
ĠAr m
Ġbe ings
Ġnever theless
Ġe er
f ois
Ġpal jon
AG ATGC
on te
se a
ĠD un
Ã¶r t
ag ues
em ploy
ex cept
B rit
Ġmie ux
Ġsla very
Ġas h
Ġnur se
Ġein es
C e
åī į
Ġhistor ical
ort ing
Ġent ering
Ġcreat ing
per fect
can not
Ġsu pre
ĠI llustr
Ġprot ected
ĠÎ »
Ġen su
ĠSe cond
å £
Ġres idence
TCC TTC
Ġaccomp any
Ġref uge
ĠM me
ent er
ACC GC
plic ity
AAG TAA
k el
Ġe ating
x ed
s ol
ĠM os
Ġhold s
so le
AC AGAA
Ġhung ry
Ġinfer ior
Ġadvent ure
ar ian
Ġo c
Ġresol ution
Ġmar i
Ġprodu ct
Ġin ev
Ġsa a
Ġcalcul ated
AT ACCC
Ð ²
G u
pt on
Ġc ul
Ġty pes
Ġ3 9
AAC ATG
AA ACCC
Ġblo ck
Ġser iously
Ġfol ks
Ġpursu ed
Ã¨ te
ĠF il
Ġimpat ient
Ġact ing
acht en
Ġsupre me
Ġu g
Ġsens es
c u
Ġse is
ot he
Ġag ric
Ġson o
ĠH ist
fe et
Ġsh oes
com b
çľ ĭ
Ġsum m
Ġre pr
Ġc ries
re ne
Ġe astern
oll is
Ġrest ored
åħ ©
Ġ7 5
Ġpres ents
ang el
AA TGTG
Ġmaterial s
Ã© v
Ġhas te
Ġelect ed
Ġre vel
ament o
TTAA GC
Ġden y
Ġdiss ol
Ġm ik
Ġh ol
Ġl Ã¡
ch ter
nd en
Ġprof ess
Ġoh ne
Ġincre asing
Ġper ceived
f lo
b i
Ġl ink
Ġmin or
th ird
Ġele ction
ĠE le
TATT TATT
ĠAcc ording
Ġp ir
æ ¯
ĠÂ §
oth y
Ġan te
Ġmist aken
ect or
ist ics
ĠOx ford
Ġt ard
Ġperform ing
ges ch
Ġse lected
en cia
ĠH ard
Ġm Ã¨re
ĠXX X
Ġ ici
ld en
Ġhel pless
adel ph
Ġour s
Ġd ancing
AG TGGG
re ls
Ġconv iction
Î± Î»
è ·
Ġvo ix
Ġtem po
AGC TTC
Ġconven ient
ACC TTG
Ġob vious
Ġst raw
Ġmass es
Ġread ers
ĠA tt
un ion
el ia
stit ute
Ġvast asi
Ġdri ving
ÏĦ Î¿
Ġlo ves
Ġwhat soever
her self
Ġdistur b
Ġl ing
Ġele v
r um
Ġro ot
ĠAn na
ç µ
Ġcol umn
ĠÏĦ Î¿Î½
l ay
UL L
Ġfol k
RO M
Be fore
Ġaccording ly
C L
am er
ĠC ross
n ational
Ġin her
Ġshort ly
Ġrare ly
Ġpray ers
igne ur
ĠI S
Ġt ear
ATC TGC
TGG TGG
Ġmid night
ĠSomet imes
s aw
eter min
U RE
opp ort
Ġreturn s
Ġpar ish
ĠThere fore
re ceive
ĠSecret ary
Ġqu ale
ĠDe ath
Ġerect ed
ĠÃ© r
Ġver l
Ġfore ver
TG TATG
Î¬ Î½
s pect
Ġfar mer
Ġpar ce
Ġtend ency
k ommen
Ġsince re
Ġp atter
ĠA uf
Ġheav ily
Ġe ld
ot ic
Ġd re
ĠCol umb
Ġm Ã¶
Ġnot ion
Ġsafe ly
Ġin val
Ġw ww
Ġ4 8
Ġbott le
Ġcoun sel
Ġexperien ced
Ġ( ?
TCC CCC
AGG TTC
Ġst ayed
or te
Ġind ustri
, )
Ġqu oi
Ġrest ed
T e
o il
Ġcompos ition
Ġexem pt
ke in
Ġsome how
g row
Ġpreced ing
AG TGTG
ut y
Ġc ri
Ġcommon ly
Ġcop ying
Ġins pect
id os
é »
Ġstr ain
ather ine
Ġear liest
al ph
æ ³
? Â»
M in
c ut
vis ible
Ġsett lement
ĠAt l
l ad
m oney
Ġpet ite
uth ors
bel ieve
Ġagree able
V II
Ġmort al
AA TAAG
z et
Ïİ Î½
ĠGes ch
Ġcommand er
e ither
Ġpap a
ham ed
Ġl ag
r ag
tr ou
f ashion
an ed
Ġfl u
b ens
ild e
Ġsh ield
Ġ ig
Ġm oy
ĠH aving
Ġdepart ed
Ġfin est
ind ividual
Ġch im
Ġlo in
Ġp owder
Ġe loqu
ass o
Ġbe re
h ol
ĠW ould
Ġdis se
Ġs isters
Ġque er
Ġf ant
gr im
å ł
Ġt unt
somet imes
Ġe gli
ĠS ax
Ġgall ant
fe w
ĠM as
AT AGAC
TAC TAA
k at
Ġindic ated
ĠST ART
ke a
p Ã¤Ã¤
Ġe ux
h ur
Ġw ard
Ġalt ar
Ġshad ows
ĠO ut
ih in
Ġsitu ated
pon se
t ies
Ġr ou
Ġspec ific
for ward
TG AAGG
ĠÎ± ÏĢ
g ave
TC ATTC
Ġnight s
ĠU pon
Ġgr ain
c at
GCC CC
Ġmag istr
Ġm ap
t ur
Ġd ien
w all
ĠC ape
Ġbelong s
Ġexp end
Ġdev otion
ATG TTG
w ant
P T
ell i
Ġex ert
Ġfe ed
Ġe cho
d as
Ġdesc ended
TGAA CC
nt en
åĽ ŀ
che ss
hor se
c ation
Ġt art
c ity
ke eper
aut res
Ä ĵ
Ġord in
ACC CCC
v ait
att om
ç ¦
h ire
Ġab rupt
Ġ4 4
Ġr ue
au pt
Ġf ed
d uring
Not hing
am o
Ġbeg ged
Ġc ens
c ross
Ġex ternal
Ġme as
ins on
r ot
Ġant iqu
b ishop
ATG TGC
AAC AAAA
fr ont
ok a
Ã¡ j
Ġar ts
th y
ille urs
Ġhom es
Ġas hamed
Ġv oll
Ġz al
Ġw ives
ens ed
s che
Ġvill ages
Ġreg ards
icht en
ĠC ard
AG TATG
ĠBer lin
Ġgen uine
es pecially
Ġan ci
ĠHoll and
ond en
Ġsuccess ion
TAG AC
cour t
Ġindividual s
just ice
Ġcircumst ance
ĠWh ich
Ġb ath
c overed
u ivat
Ã± a
Ġmut tered
D es
iss ent
Ġp auv
Ġcont ents
ĠMin ister
ur red
Ġsu itable
ĠP ublic
Y et
Ġres ist
AGG AAAA
ĠP an
ĠPe ople
Ġap ost
çĽ ¸
b acco
ed ed
h ast
Ġexceed ingly
Ġen Ã¤Ã¤
" _
ĠBel g
Ġsus pect
z Ã©
Ġp ian
ĠW H
ĠJ ah
ĠS ection
Ġc ert
Ġvaik ka
Ã³ s
R o
Cap tain
Ġtemper ature
l Ã©
t ill
se veral
Ġconduct ed
TG TTCC
Ġsa h
and ed
Ġdisc ont
v Ã¤Ã¤
ic ago
RI B
ĠChristian ity
Ġh il
Ġcomm ittee
P ER
Ġinstruct ions
w omen
ĠBar on
TC TGTG
. ).
EM ENT
TAC AAAA
ver ing
ah l
Ġsens ible
éĸ Ģ
Ġ4 3
ĠO s
ĠMiss issippi
Ġmu y
éģ İ
ĠM ir
ang le
Ġet was
Ġreve aled
Ġqu oted
ste in
Ġafter ward
Ġse as
Ġthreat ened
qu oi
TTC TTTT
ck er
Ġc ave
ost er
ĠE ND
Ġcott age
ĠA T
f if
Ġconsequ ently
ĠF IG
import ant
ge w
ï¼ Ľ
Ġco ach
ĠÃ© n
Ġstud ent
ĠHug h
ils on
ĠLe on
Ġmar ble
ertain ly
Ġser ait
al ong
Ġr ug
Ġvol umes
Ġme ly
TAT AAAA
Ġher ra
ar si
ĠB our
bro ken
gr ad
ph one
Ġmer chant
Ġco pper
ĠB re
Ġb orrow
r ick
Ġpe ine
ap r
ia an
az ine
Ġf ils
ĠRom ans
bo x
ĠL A
Ġv agy
Ġmer it
ĠI h
ĠC rown
pl ed
ĠTH AT
Ġbr id
ĠA ch
Ġb onne
Ġabs ent
il en
gl ich
Ð °
Ġmas ters
Ġdes cribe
Ġdu c
Ġin fl
Ġestablish ment
Ġsolic it
ĠS k
Ġtest imony
us cript
Ġf itted
AACC TCC
TC TATT
dire ct
ph il
Ġ6 5
adelph ia
st ud
ire nt
n ent
Ġsee king
tre es
Ġbad ly
n ie
Ġcry ing
Ġreg istered
Ġc ad
ask ed
Ġfor give
iforn ia
Ġcon na
Ġmel ancholy
sc ar
u ve
Ġper sec
è¨ Ģ
Ġfavour ite
TT TAGC
under stand
Ġche m
bl ood
Ġsome body
Ġso ir
ĠFra u
ĠM em
Ġku inka
ATC TAA
Ġd aughters
Ġslight est
Ġ4 1
Ġwal ks
Ġs ins
TC AGAA
Ġbr on
TTG TAA
li que
AG ATAC
ĠS av
m ais
ocr acy
with in
Ġart ific
Ġnicht s
ro d
P L
ate ur
ĠS H
Ġorigin ally
Ġsign ed
â ķ
Ġprim itive
urs ed
und o
TAG AAG
ab ove
Ġfe u
t or
é ļ
Ġorgan ization
Ġd ia
AAC AAG
Ġf ederal
Ġfru its
O Y
Ġho of
Ġregard ing
Ġp od
Ġth rill
ĠGr ace
TGG AGG
Ġan che
Ġcerem ony
à° ¾
Ġrec ords
Ġt utti
Ġexist ing
aw s
m oi
Ġb apt
head ed
f re
Ġv iz
ot on
Ġvers ion
Ġal oud
Ġj ug
consider able
Ġa ug
Ġ4 6
al ready
Ġsa iled
Ġs ne
Ġb ond
in ery
Ġsie llÃ¤
Ġassem bled
TC TTTG
Ġsharp ly
Ġky llÃ¤
ĠAs ia
ĠN ous
Ġpo i
ĠP ur
ast on
Ġincl ude
Ġf ears
AT H
Ġch oses
Ġmag ic
p un
TAC G
e qu
Ġsen za
Ġed itor
é £
Ġc av
Ġt ones
or ie
r ons
ĠX IV
Ġreg ions
No v
C TCC
BER T
Ġimm ort
E urope
Ġnu it
Ġimp ulse
em en
E ven
st ro
TCAGCC TCCC
l ord
Ġlar gest
f ellow
ç ¬
all er
Ġel Åĳ
Ġt Ã¤mÃ¤n
Ġvict im
ĠM ill
Ġsh ared
A K
n um
ig a
Ġpur ple
Ġcent er
uud en
Ġl un
Ġsl ender
ge b
ç ¾
Ġg ij
if ully
r ors
ot en
V III
Ã¤ ssÃ¤
Ġsong s
Ġre in
ĠH an
u utta
Ġl end
Ġe c
ci ation
Ġw ra
Ġhe ures
Ġsh ake
ĠS ub
ĠW ind
Ġto ss
Ġdel ic
ĠB RE
Christ ian
ard o
Ġvar i
> [
Ġv arm
ann ing
ĠEx cept
Ġf asc
è ¶
and en
ear th
ï¼Ł ãĢį
Ġintellig ent
Ġv ivid
Ġpl ais
Ġsound ed
beaut iful
Ġlead s
Ġy stÃ¤
Ã¤n ne
Ar t
Ġwond ering
Ġoff ers
erv ation
Ġgrat itude
it self
ATAA CC
Ġst em
Ġsm ell
ATC ATT
ĠN ic
every thing
b as
Ġk ell
ll ing
ĠJer usalem
Ġpr ime
Ġext ensive
Ġcos Ã¬
Ġmer ch
ker chief
ie g
AGG TAA
ĠGe org
ĠS ic
Ġimag ined
ic ation
Ġamb ition
Ġno b
our nal
ĠP a
AG TTAA
h our
Ġsw amp
Ġru ins
× Ļ
ĠCon stitution
Ġpass ages
Ġposs ibility
Ġn ut
em b
Ġex change
Ġmedic ine
Ġn aked
Ġm ate
Ġper il
ATC GC
Ġdet ect
Ġa te
ott om
g iving
Ġl Ã¶
les iast
Ġdam age
ge on
Ġ5 5
Ġprevent ed
Ġcl ay
Ġconce aled
Ġpl a
ci Ã³n
d ell
TTTTTTTT TTTT
TTG AAC
I AL
ight s
ĠT ell
ĠS el
it Ã©s
tern ational
ĠH ay
Ġran ks
Ġn ap
to i
Ġlean ed
Ġl ion
k new
m or
w ife
å ½
um ns
iss ant
sem bl
Ġre cover
Ġcon cept
Ġbe aten
Ġpl ays
ill o
hens ion
Ġcon vert
p se
me et
Ġt ren
f elt
ud ed
ind eed
å¤ ª
h ill
Ġcontr ad
ĠServ ice
Ġg ang
t alk
at ers
Ġd ru
OR Y
Ã± o
Ġsem pre
es ch
Ġm ains
ight ed
ĠFl orence
Ġcr ack
Ġhy m
g un
èµ ·
Ġw Ã¼r
Ġpar allel
yl on
Ġqu elle
Ġpursu it
Ã§ ais
m ur
ul ta
ĠO li
ge ance
Ġsan ct
è »
å Į
Ġst omach
sh ort
te k
Ġ Ã¤r
int a
ud en
Ġg a
Ġ4 7
Ġpl ac
TATT GC
Ġvent ure
Ġcomb ined
at u
ĠP our
Ġus k
Ġart illery
Ġp ound
Ġdecl are
m aid
ult an
Ġthrow ing
ĠT en
TCC TGC
Ġtut to
acks on
Ġdr unk
Ġle is
Ġshe et
C or
n ation
ĠG ent
ter y
be it
io v
Ġof t
M ost
Ġdistinct ly
Ġstead ily
Ġle ather
Ġrestrict ions
f te
g ate
l est
w ich
ul us
Ġret ire
Ġid le
Ġexha usted
Ġen abled
ib li
p in
l iness
il ta
Ġf ires
Ġbal ance
Ġgu est
Ġdist ress
acc ording
Ġsp ell
AGGC GG
Ġst er
ĠTem ple
Ġperf ection
g reen
ag a
======== ========
Ġadmir able
Å Ń
ACC TGC
Î¼ Î±
èĩ ³
h ui
Ġrequ ires
c amp
w hel
Ġcontin ually
my self
TC AAGC
Ġdeser ted
ens ions
Ġcomb at
Ġb one
Ġk ur
Ġpover ty
Ġspec ified
TGG TGC
enn es
Ġrep rodu
Ġglo om
Ġsad dle
Ġqu art
TGG AAC
Ġc y
Ġinvol ved
Ġbe ard
follow ing
Î½ Î±
p ict
Ġv ary
ill on
et her
Ġeight een
st ers
Ġstat ements
all owed
Ġlo fty
f el
he ur
Ġlim bs
AC TTTC
Ġsun shine
len ess
ane ous
Ġmus ical
Ġfin ancial
Ġl ett
è º
Ġaut umn
AT AGGC
iet ies
ĠE arth
ĠcÃ´t Ã©
ÃŁ t
Ġass ure
Ġcheer ful
Ġad ministration
it ious
Ġth ir
Ġdrink ing
Ġless on
ĠL P
å Ĥ
TG TGGG
ĠJ uan
Ġsevent y
Ġl ament
Ġsupp lies
Ġdec ide
R IC
Ġemb arrass
Ġsent iments
ik o
ff ic
Ġsc ul
ĠS cript
Ġown s
Ġrep ublic
Ġk al
Ġmost ly
Ġno bles
Ġcult ure
ĠW ARRANT
Ġt ick
ul o
Ġcivil ization
Ġcol ony
s ie
Ġzur Ã¼ck
n el
ĠAl so
Ġs ic
Ġfin ish
Ġto e
Ġ Ïĩ
ĠTh rough
n ier
AR Y
u j
Ġem peror
Ġtr aged
p ite
k te
Ġr aces
ust er
ic hel
n icht
b ear
t reat
al ian
ĠHe b
ag le
M ER
Ġrest ing
ter ing
z ed
AGG TTG
Ġk yl
v iously
Ġkuiten kin
ĠHen ri
Ġ4 9
s ou
ĠE N
Ġoccup ation
Ġo w
st eps
less ness
ĠV i
ag re
Ġp ains
Ġcross ing
Ġphot ograph
TG AGAG
Ġimp osed
id able
âĢ Ĳ
ph as
ĠgÃ©n Ã©ral
éł Ń
Ġdou te
Ã¶ h
ĠC y
is me
Ã¤ d
de cl
Ġg ifts
Ġh oney
Ġrem ote
ĠÃ© g
AGC ATG
Will iam
g etting
bb ing
Ġche ap
Ġde eper
ĠAd am
Ġthere by
Ġun like
est o
po or
è ¿
Ġwr ath
Ġr ud
le tt
AC AGAG
Ġp ig
ATT AAC
TTC ATG
TT TAGG
Ġma iden
ĠC op
Ġrepe at
ĠR od
Ġprop he
Ġneighbour hood
Ġp ark
er ness
TTC G
p ress
circ umst
ĠGree ks
ann i
AG ACCC
Ġtal ent
Ġc ared
ur ious
Ġbe ach
Ġpos itive
ĠAnd rew
Ġth ine
Ġd in
Ġcontin ent
Ġlim its
ak a
be gin
Ġatt ent
1 00
Ġp ud
Ġdis miss
e u
Ġp sych
ony m
Ġper chÃ¨
ĠĠĠĠĠĠĠĠĠĠĠĠĠĠĠĠĠĠĠĠĠĠĠĠĠĠĠĠĠĠĠĠ ĠĠĠĠĠ
ĠH Ã¤
ier t
ĠAl ice
friend s
Ġres umed
AG ES
Ġbu ff
AG TCAC
Ġprovin ces
Ġsh one
Ġen able
Ġse gu
Ġa uthors
Ġobject ion
ĠP enn
Ġro ots
Ġche val
ot al
Ġd ice
, _
R ep
on ge
Ġf ab
ever al
by e
?) </
ak seen
U C
e au
Ġte gen
ĠAmeric ans
tr ue
Ġs ci
go vernment
Ġpolit ics
ĠÎ ²
Ġm ater
Ġconce al
trad emark
ign or
Ġo st
Ġrais ing
Ġconc entr
Ġstud ents
Ġpouv ait
onn te
yl van
Ġhop eless
Ġe Ã»t
au ch
Ġma xim
p arent
ĠT ake
Ġass ume
Ġ âĢĿ
Ġnu o
Ġp ear
Ġsu oi
att ention
arm ed
T ake
Ġlight ly
Ġsou ff
ĠI ls
Ġexam ples
TTC ATC
ĠP AR
o bl
Ġfe ature
Ġpl ung
â Ĥ
Ġk ar
Ġpri ze
br other
ht t
ag t
ĠT est
Ġintrodu ction
ru nd
Ġ17 0
ir ts
ex am
Ġvi ime
Ġan ni
AC TGTG
Ġinquir y
Ġd ata
Ġp ine
Ġstr ing
Ġlaw yer
Ġre form
Ġfurn iture
Ġ5 2
Ġde eds
Ġstr angers
Ġt Ã¶
Ġcover ing
ĠL ew
ĠM ond
S ie
Ġcon se
Ġ }
Ġsu bl
B ar
>( ?)</
Ã¡ ban
Ġv as
å® ĺ
Ġstart ing
TC TAT
Ġc ure
Ġphilosop h
E lle
ĠAl though
S ep
ĠI ng
ĠRe volution
TAG AAC
Ã¨ ce
Ġent ity
> <
ĠT own
Ġju uri
Ġwa ist
Ġh ut
å· ²
ĠR uth
d raw
ig ation
Ġland ing
Ġmed ical
ĠP ap
Ġcl erk
ĠRog er
à° ¨
Ġv ice
ck ets
Ġm ail
Ġinter fe
.] </
Ġou v
os ure
f les
Ġnor mal
ĠSam uel
Ġsl ain
Ġse ats
ĠE v
Ġsli p
Ġcry st
Ġrel ieved
iment o
ft en
Ġquest a
et a
ĠV ers
ĠM ission
Ġy mp
Ġsus pected
Ġsig hed
Ġb ade
ĠP L
Ġmod o
m ut
Ġfather s
Ġrespons ible
C TGC
Ġbes ch
ĠT ime
Ġ5 6
Ġmore over
ĠB eg
am med
sem bly
Ġden ied
AGC AAC
Ġwant ing
Ġr ice
Ġcle ared
isi Ã¤
ATT AAG
conc ern
ind en
Ġr as
Ġr ays
Ġe ut
Ġat tain
ĠJ OHN
Ġpart ie
Ġgrate ful
ĠGree ce
Ġover come
Ġr hy
ord on
Ġform ation
AGC TAA
Ġperform ance
ĠB art
Ġpass ions
Ġel abor
dou bt
TATG CC
ATION S
k as
com es
Ġv Ã©rit
ĠA SC
Ġcol ours
Ġobserv ations
ĠAb b
Ġfl ash
Ġpres que
AGG A
Ġtax es
B ec
Ġmot or
ens ity
que red
Ġh alt
atter ing
ĠV ous
Ġbree ze
t imes
ons ense
um bled
Ġmult itude
i ents
pl ay
TT ATAC
Ġfran cs
el n
p olit
Ġwas h
Ġdes k
Ġe g
Ġd ag
Ġcapt ure
ĠB illy
Ġemploy ment
Ġjo int
ĠC O
ĠW el
Ġcont est
co at
il o
Ġn ou
ĠG ott
c ott
âķ Ĳ
Ġih rer
Ã Ħ
Ġbo il
Ġtu lee
or se
Ġsec urity
ĠP age
Ġtal es
Ġr ag
t ant
Ġaston ished
Ġc ant
d ated
rif ied
Ġdistur bed
Ġrecord ed
r un
AA TTGC
ĠÃ Ĩ
U E
Ġsein em
Ġjour nal
Ġfear ful
ĠĠĠĠĠĠĠĠĠĠĠĠĠĠĠĠĠĠĠĠĠĠĠĠĠĠĠĠĠĠĠĠ ĠĠĠĠ
iv eness
Ġr out
Ġcol onel
ĠP acific
Ġd av
Ġf ug
Ġarm ies
Ġf iles
Ġcustom s
Ġaston ishment
um ing
Ġdi plom
ĠÎ ¬
il ia
ĠN i
rav ag
ise ksi
ĠX II
l ines
Ġprovis ion
ĠB ru
æĺ İ
Ġdemand s
pp en
ĠW all
k ka
Ġsu ur
ĠB al
Ġcour ts
AA TCAC
ĠGr ant
Ġperson ne
Ġgard ens
Ġchap el
ĠJud ge
TTG AAG
comp an
Ġaff l
Ġhapp ens
Ġtou ching
Ġpu b
und en
IN T
ĠJapan ese
em oiselle
ĠCount y
Ġstart led
Ġrec all
ĠSh akespeare
s un
ĠâĢľ _
ĠT ex
Ġcons isted
Ġe aten
Ã¤ stÃ¤
Ġc ra
be re
hal ten
at z
cher s
ai x
Ġdepart ment
ic ing
Ġv ine
ĠAd miral
Ġcons id
Ġbur nt
will ing
Ġconf ident
Ġze al
Ġprend re
Ġc lock
Ġqu atre
Ġg au
Ġfem mes
TG ATAA
Ġk aj
TCC G
s pring
Ġto bacco
o ard
et to
ig u
ĠO ver
Ġsol o
alys is
ore r
Ġpremi Ã¨re
ri ly
ÃŃ s
Ġ12 0
× ķ
per ial
aut ta
ĠB a
es prit
Ïĥ Îµ
ament al
Ġfast ened
AA TGCC
IN C
Ġattempt s
ĠÎ¼ Îµ
ĠP u
Ġprom oting
Ġmod est
Ã© cri
Ġcand id
apr Ã¨s
Ġinter vals
Ġneg lect
Ġni inkuin
comm unic
Ġf ury
ATG AAC
Ġ(? ),
Ġm Ã¼
Ġgrow s
ĠSen ate
ĠSpani ards
Ġthere of
Ġpal m
Ġscul pt
Ġconsequ ences
ĠCh ild
æ ®
Ġir regular
Ġw oll
amil ton
Ġsi is
S ec
ick e
Ġ5 1
Ġemploy ees
Ġappear ing
b are
Ġker ran
Ġhes itated
ĠD ire
Ġdefe at
Ġhe d
ĠS aturday
Ġt amb
Ġclaim ed
ATG CCC
al though
l oss
in ence
Ġpl ot
ent i
Ġprom inent
k le
ave c
ang led
ĠX I
ĠD AM
AC E
TT AAGG
c os
5 00
P WH
l ui
h ig
TGGGATTAC AGGC
Ġdr agged
ne ar
Ġbe asts
Ġwed ding
us ammen
Ġheav ens
ĠT urn
Ġmod el
ĠBr ig
Ġd alla
AG TAAG
" ;
Ġhoriz on
t al
ol ph
Ġpro gr
Ġform al
ĠASC II
Ġvo id
Ġbed s
ÃŃ n
Ġcon vent
A NN
Ġf ri
Ġrest e
ri Ã¨re
Ġse kÃ¤
ĠB urg
ac hel
ĠCent ral
ad ers
Ġdi x
Ġexam ine
Ġad orn
Ġme ad
er on
Ġst air
Ġ5 3
se ven
! )
ATT TTAA
Ġbr as
TTC TGG
Ġgood ness
in ch
out s
Ġnewsp aper
Ġin duced
Ġex quisite
Ġsens ation
Ġstud ies
æ ·
Ġhand le
Ġb ud
ĠSte phen
ĠR ay
L AND
Ġmot ive
Ġp ink
Ġcol ored
Ġwhere ver
Ã¤ s
Ġ5 4
ĠComm ittee
AA ATAT
AA ATAG
ple asure
l ady
Ġinclud es
ĠÏĦ ÏīÎ½
d al
Ġre search
Ġim prison
Ġso b
A gain
Ġwas hed
Ġse lect
n ant
Ġv id
Ġreal ize
-------- --
Ġb ald
ish ops
å¤ «
ens ation
it se
Ġpurch ase
åĽ Ľ
c us
Ġtra v
Ġvar ied
ak ened
Ġbr ut
ĠJe ff
T om
ie ren
Ġr ac
al one
Ġde me
Ġp ic
Bec ause
Ġsu ure
ĠM oh
Ġdoc ument
Ġty p
alle ys
Ġind em
TAT ATC
Ġmin ut
Ġsu e
Ġout ward
Ġquar rel
Ġwhere as
ult ies
Ġkne e
Ġpl ates
ition al
å Ĵ
ACC AGC
ind a
ĠP ot
TT TA
TTC AAC
Ġaw ake
Ġclot hing
ĠrÃ© g
ĠMa ur
ĠÃ Ħ
ig hed
P lease
Ġjump ed
TCCTG ACCTC
Ġint imate
AG TCTG
itt a
ĠM oses
ĠM enschen
Ġprin cess
s pr
Ġdu ke
ĠĠĠĠĠĠĠĠĠĠĠĠĠĠĠĠĠĠĠĠĠĠĠĠĠĠĠĠĠĠĠĠ ĠĠĠĠĠĠĠ
Ġha ut
Ãº n
F irst
T u
Ã¡ b
Ġend ure
Ġo wed
fall en
Ġwr ought
iv i
TT ATCC
ATT ATC
pic uous
ĠS her
TG ATGG
Ġtr ag
W N
Ġsi Ã¨
ĠN iin
Ġch i
TAC TAAAAATAC
Ġadv antages
ch ts
Ġmind en
Ġindif ferent
N on
Ġroll ing
man ner
Ġf en
Ġsix teen
Ġb arr
Ġse u
Ġdam ages
TTTC TTTC
Ġdo it
ĠÎ± ÏħÏĦ
ues e
Ġco in
Ġbo ots
Ġhat red
Ġscar ce
Ġweap ons
ĠL uther
Ġf ishing
Ġcondem ned
d in
Ġvisit or
Ġpaint ing
Ġyht Ã¤
ier ra
Ġprepar ation
Ġsc ore
ond ern
Ġinstit utions
Ġb order
ib ilities
ag u
N OT
Ġs way
ur rection
ĠÎ ĳ
Ġwid est
ak ka
Ġtr unk
Ġsym pt
V ER
Ġsh aking
Ġl is
ch ance
ĠS U
Ġguer re
Ġab str
g on
Ġphys ician
room s
ato es
pro bably
lic her
z ione
] ;
con sequ
Ġoffic es
ĠD IST
re te
w and
ĠSt an
ĠSt ra
for ced
k au
Ġf anci
Ġmi xture
TGC AGC
Ġcompar atively
free ly
TCC AGC
ON T
vo ice
Ġcon quer
ter ms
Ġr oman
Ġcr is
Ġdiscipl ine
ĠPr uss
in us
le gen
Ġv ulgar
ĠL iber
ne xt
qu ote
h j
che l
il ian
ĠN ed
Ġpron ounced
know ledge
Ġth irst
Ġbe au
ĠT od
Ġpoint ing
ATAA ATAA
Ġpl ains
ou ched
ot to
ion es
Â §
Ġcons erv
Ġvo im
ograph ical
Ġsu ite
Ġsp ort
AAAA AAG
pr on
Ġindepend ence
ĠE D
ain te
Ġman o
Ġref us
ict ions
alog ue
Ġog ni
ph ant
Ġref lection
æŃ £
b ad
ic ia
Ġman age
Ġcl oser
ĠN A
Ġo ak
r ained
Ġpart ed
ĠH ind
ch ten
ĠK l
jour d
Ġh ated
Ġbr ass
w onder
o ved
ath an
as per
Ġre bell
C G
Ġrespect s
ent re
zz o
iel t
å± ±
AG TAAC
B er
Ġc ards
cc a
v ast
aj o
Ġk il
ier on
app ing
Ġfortun ate
ĠJ oh
TA L
itt Ã¤Ã¤
ĠU r
OO D
Ġfurn ish
au b
Ġpo ems
Ġte h
ĠW IL
Ġdoubt ful
Ġlie utenant
Ġspec imens
Ġmon ument
inn ed
fam ily
Ġgaz ing
ik ki
ĠCal ifornia
ĠNeg ro
os is
Ġg iant
ra is
Ġm ould
Ġinst ruction
ENT S
h men
Ġper ceive
GG GGC
Ġih ren
Ġcrimin al
ĠCh icago
Ġpo ets
Ġs ze
ĠD am
ĠIs a
Ġbl oss
Ġtransl ation
ĠV ar
Ġvo inut
g old
tt s
Ġwe aring
Ġsur vey
Ġg am
Ġun iverse
Ã© taient
Ġd Ã©t
Ġsatisfact ory
TGGC TC
Ġso ber
Ġself ish
Ġo ly
ĠAr ist
de ep
åħ Ĵ
ier o
ke eping
ĠP ed
be gan
in burgh
m eth
Ġmo ist
Ġent end
it ating
U nd
Ġlay ing
off ice
Ġf olly
AC K
Ġc ream
ĠM ars
Ġprof its
è ¥
~ ,
ĠL am
Î¿Ïħ ÏĤ
ĠÎ ®
de al
Ġy er
Ġfour teen
us ually
ATG TGG
Ġhast ened
ort on
Ġocc urs
TAT AAC
Ġ5 7
Tr ans
æ ŀ
Ġinstr uments
Ġlean ing
TAGG CC
è£ ¡
Ġqu er
Ġro ses
Ġann ual
Ġsa i
IRE CT
ĠV ill
ĠPhil ipp
Ġdon ne
qu iet
h ung
AT AGCC
av or
bec ame
Ġkeep s
or ic
atch ing
Ġst aring
Ġseule ment
Ġfeel s
Ġattract ed
Ġthe atre
Ġsw ung
Ġstream s
I nde
Ġd rank
u ated
ol ent
Ġw Ã¤
Ġni itÃ¤
Ġh int
Ġkos kaan
F rance
w it
Ġad vert
Ġf Ã¶
Ġpre ferred
Ġhtt ps
RIB UT
V EN
Ġme ine
Ġv ida
me ans
ib en
Ġsh aft
gg i
ar ono
tem per
Ġ3 00
D as
S omet
u ously
AG AAAAG
spe ak
ĠG ran
Ġt ip
Ġih nen
Ġv ia
Ġprepar ing
ĠL ight
Ġcl imate
cont r
Ġen fin
Ġwe iÃŁ
al ion
contin ued
f ish
ĠU S
j ou
Ġd ining
AA TGGG
Ġnot withstanding
Ġinj ury
ut ing
ĠHe ad
Ġsteam er
AT AAAAC
Ġbask et
reat h
ne en
é ¡
here nt
ab ord
Ġall en
Ġk not
TTG TAG
ach use
ul ent
Ġp ah
Ġres ources
d aughter
TAT CCC
Ġcu ando
ĠrÃ©pond it
ĠP G
ĠB ull
ĠF ull
Ġsymb ol
Ġbless ing
Ġtim ber
Ġshell s
Ġug ly
AG TTAC
Ġconsider ing
Ġbre thren
um an
on na
isto ire
Ġinsp ired
Ġsy d
Ġch in
TCC TGG
rem ain
AG ATTG
ATC AAG
âķĲ âķĲ
Ġt id
ĠP ierre
Ab out
Ġd ried
å¤ ļ
ACC TGG
TTC ATT
Ġprim a
Ġplat form
AAAA AAC
ĠB urn
u ja
Ġenter prise
Ġdep ths
Ġgather ing
A pr
iam o
Ġlive ly
EN SE
Ġdes ires
O ld
ter min
Ġfollow ers
é º
ĠÃ ¾
Ġt Ã¤Ã¤llÃ¤
ĠAust ria
Ġ5 8
Ġref lected
L ady
ĠF el
Ġdwell ing
AG TAGC
TAC ATG
ut ers
out side
Ġm ou
Ġis Ã¤
sp read
follow ed
AG TCCC
TGGC TCAC
ĠOh io
ri ages
ĠB ank
Ġind irect
be hind
Ġb onn
Ġpre y
Ġgrand s
Ġw agon
ne ighb
Ġat tained
Ġlo cked
fa ith
TCC ATG
Ġh unt
Ġp ile
Ġsh alt
Ġcompan ies
Ġcol umns
ass ador
ACAC AC
Ġha z
ĠI nt
Ġv ener
ul g
ã ĥ
ĠE ve
Ġr ay
Ġread able
Ġf ount
ist ribution
Ġke in
Th ank
Ġre le
Ġeffect ive
ĠlÃ¤ he
cess ion
L u
ĠB ed
l aug
tow ards
fe el
Ġhar sh
AA TCCC
TG AGGG
ĠNE W
Ġdis grace
f ied
be come
Ġweap on
æ µ
act ions
Ġto en
ad ise
Pl ain
ylvan ia
Ġsou vent
Ġnarr ative
Ġk onnte
d etermin
and al
am or
T O
Ġwrit ings
it le
.âĢĿ [
Ġinc red
ĠM useum
m ove
Ġwar s
ĠDe c
ĠAl bert
Ġt we
achuse tts
Ġint end
ult s
Ġpro dig
GTG AGCC
Ġpro long
est en
Ġcan non
TG TCTG
char ged
de velop
äº Ķ
AAG AGC
ĠN orthern
appear ance
Ġd aring
AGG TAG
f i
I O
f s
Ã¡ lt
ta ire
L ou
ge ben
Ġv in
Ġoff ering
Ġb arn
Ġpar ler
ĠW ilson
AGAA AC
Ãµ es
TAA AAAA
ACC AAC
ĠK at
ĠJ ackson
TTG TTTT
b ound
ATC AAC
ter re
tr uth
Ġv alt
Ġim ages
Ġj est
Ġaut om
Ġapp et
sc ape
Ġcha que
Ġcow ard
Ġvan ished
m ith
Ġs ap
ht Ã¤
l am
Ġm ÃŃ
åĲ Į
r ation
st reng
Ġg ig
Ġsm art
Ġdetermin ation
el ta
TC TGGG
Ġde er
Ġw ax
ĠJew ish
ĠOff ice
ar ound
Ġinc ap
b orough
Ġw ages
com par
C he
sh aped
Ġsie ge
Ġang els
Ã¼ ll
rec ogn
Ġconf er
Ġwithd raw
au de
block quote
ac ia
Ġapart ment
Ġkno cked
Ġg arrison
Ġexec uted
E st
ĠN ach
ĠB uck
Ġb ot
gl ass
Ġo we
The ir
ipp ing
Ġre tained
Ġlo ck
Ġp ak
Ġcell s
Ġcan oe
ĠW y
ht y
ĠS id
ĠX III
ain es
TGGGC AAC
G ATTC
Ġfee ble
On ly
Ġar ist
Ġass ault
ingu ished
ĠW in
r ise
Ġt ien
us hes
ĠI M
Ġ5 9
Ġplus ieurs
ĠS C
r ated
Ġfif th
18 0
ch air
Ġmil ieu
w elt
Ã¡ ll
Ġo lem
åķ ı
Ġsw ear
Ġcre pt
ut te
ey ed
d og
Ġco arse
Ġacc us
Ġl Ã©g
ĠÎ ļ
AG AAAAC
Ġdiam eter
ĠN em
Ġdistingu ish
pl an
ĠAlex and
ver b
Ġde fin
z ar
h m
A cc
éĿ ¢
ind re
ed ge
qu ick
C al
AAG CCC
Ġj ossa
w ild
ĠGreg ory
gr Ã©
Ġk ah
ĠMore over
ĠI k
Â º
Ġn our
Ġrespons ibility
TATG GC
ait a
Ġm ia
Ġk id
Ġkys yi
w ering
ĠT al
Ġprocess ion
ĠTer ms
Ġanch or
e ast
Ġwe g
Ġcon qu
Ġapp l
Ġd irty
Ġle ct
ĠF ULL
ACC TAA
Ġund oubtedly
ĠG ro
Ġprivile ge
K un
Ġbe held
Par is
Ġexper iments
ta il
Ġmin isters
Ġbe ating
ĠF ield
Ġstat ue
Ġp all
Ñ Ĥ
M il
k ir
Ġp ys
Ġm os
Ġdar ling
i ate
Ġang le
qu ate
Ġprecise ly
G TAC
fact ion
Ġpl anted
M ore
Ã© ge
res ents
çķ ¶
Ġfun ction
Ġm ul
Ġendeav our
ĠDAM AGES
er ie
Ġt ub
Ġru ined
Ġg ut
Ġstro ke
t ic
Ġelectronic ally
Ïģ Î¯
Ġbe e
ier i
Ġliqu id
OU ND
Ġ6 3
Ġz elf
Ġrais on
el se
Ð µ
ACTTTGGG AGGCC
Ġharm ony
c orn
ane et
ĠK ir
oll o
ud es
IS C
ĠU m
Ge orge
Ġf oi
Ġeconom ic
AA TAGC
le ast
Ġt ir
Ġadm ire
car ried
comm and
Ġag ed
OU S
TT AGAG
st ell
Ġro ar
Ġrep ent
Ġb out
Ġab ol
Ġh ook
AA TACC
Ġinter nal
+ ,
æ ĩ
ch urch
coll ection
Ġve il
ent ire
Ġmiss ed
Ġn erves
AT AGGG
ACC TTC
AS S
Ġmod ified
Ġinstit ution
Ġf iring
Ġp ip
ĠQ ui
AG TTGG
éĤ Ħ
Ġbr ick
ĠN ich
rib ly
TT ACAC
Ġe igen
ĠY e
ĠS em
Å ¡
T ell
qu Ã©
Ġarrest ed
de ad
ĠkÃ¶n nen
Ġhost ile
ab il
ATG GGC
con ce
L D
Ġp urs
G reat
rem ark
Ġcol onies
ic ial
Ġearnest ly
Ġgle ich
AC TTCC
Ġsur render
ib t
Ġlo ad
con vers
Ġre ception
Ġy li
Ġimp ressed
Ã¤h rend
Ġsor te
Ġpar ole
Ġdiv isions
Ġgrace ful
Ġsurr ounding
st ock
Ġt us
il ation
ĠFreder ick
ke Ã¤
Ġv ak
l ater
Ġr ises
Î¹ Î±
ap ted
Ġw ake
U ND
Ġa de
Ġp iano
ere r
u ation
ĠF le
Î· Î½
_ ."
Ġd amp
Ġein mal
au er
Ġin ser
M en
Ġne ll
Ġgl ow
Ġcop ied
Ġac res
Ġobed ience
Ġo let
ĠP oor
ĠM od
Ġname ly
ĠE astern
ĠB etty
land ers
ĠK ind
Ġcritic ism
ĠAl s
ä½ ¿
se x
ri ers
TTC AAGC
ĠPhil adelphia
Ġproceed ings
ĠRoyal ty
ed uc
Ġse p
au ks
k ward
se in
Ġrom ance
pri v
Ġk w
ent a
Ġliber al
aj or
Ġswift ly
ck en
AGG TGTG
Mad ame
f al
Ġke ine
Ġm ikÃ¤
Ġsum mit
Ġsubsequ ent
ç ¸
ĠS pr
Ġtravell ing
cent ury
Ġlight ning
R AP
ĠH ij
ro b
Ġvirt ues
Ġvisit ors
P RO
ĠTh or
Ġv ital
Ġsecret ary
ĠM u
ĠS alt
an no
agree able
g re
part y
ĠAs soci
Ġdesign ed
è Ĭ
un ta
r ines
st reet
ak ers
Ġper for
pl ain
Ġarrang ements
Ġdistrict s
ĠS ix
C AGC
ĠE nd
Ġman uscript
Ġtr ained
Ġder ni
Ġsh ores
io let
Ġconce ived
Ġt ies
AG ATCC
TCC TTG
ss en
Ġstir red
j at
c ivil
Ġsol itary
Ġglo omy
TC AAAC
Ġb ir
Ġpe asant
Ġfavor ite
è Ĳ
ĠF ox
TC AGGG
un ken
Ġk Ã¤Ã¤
Ġven geance
TAA TAC
Ġc ual
ay lor
Î¿ Î»
Ġpol ite
Ġ6 6
s qu
Ġ ib
ĠL ang
r t
od ing
Ġad just
Ġre view
Ġafford ed
l ung
ient e
Ġdead ly
ĠLu cy
pl aces
r idge
ĠL ow
Ġinv ari
éĥ ½
Ġconstruct ed
z ony
f ight
ĠD ur
Ġj Ã¤r
Ġn erve
Ġfais ait
Ð ¾
åħ Ī
Ġreven ge
in ning
ĠÎµ ÏĢ
Ġbr ush
Ġprompt ly
os ity
f old
ing t
Ġj out
Ġenv oy
ard in
ĠR en
Ġhu one
ĠWARRANT Y
ĠFran ces
book s
Ã© on
Ġeight y
Ġprosper ity
TG AGTG
Ġtr ap
t Ã©
Ġto i
Ġconf used
im son
ĠSim on
ĠCl ub
èĥ ½
Ġfeather s
æľ Ī
s an
Ġse ver
Ã¨ ve
Ġr oug
serv ice
Ġclim bed
ic able
Ġ6 2
ÏĮ ÏĤ
ĠĠĠĠĠĠĠĠĠĠĠĠĠĠĠĠĠĠĠĠĠĠĠĠĠĠĠĠĠĠĠĠ ĠĠĠĠĠĠ
par a
TCTC TCTC
Ġam usement
Ġj ack
Ġsa anut
Ġacc used
TCC TGAG
Ġt res
Ġacc um
Ġk en
pl ied
kki Ã¤
TTC AGC
ĠDon ations
ĠSu pp
TG TTGG
v ant
Ġd us
ï¼ļ âĢľ
act ive
us c
æĸ ¹
Ġright eous
AC ATGG
Ġc Åĵur
Ġgrand es
M ary
åľ °
Ġsle e
ĠP ict
G AAAA
ĠP oint
ĠDIST RIBUT
ĠD et
ure au
Ġup right
Ġf ont
ac re
ett es
Ġs ink
ĠW ales
GC GG
Ġz o
Ġkes k
AG TATC
Ġday light
ra ham
Ã Ī
ĠCar l
ps on
OU N
Ġinv itation
ĠBRE ACH
Ġty ran
st at
Ġvo is
sch aft
V ous
per mission
in formation
Ġre du
Ã© qu
ĠL IC
Ġb iz
u its
ot o
à° Ĥ
G TTTT
fe eling
Ġpad re
Ġmo is
Ġe pÃ¤
Ġdis gu
ĠÃ¡ ll
Ġforest s
we alth
ber ry
Ġchar ity
Ġb ul
TC ACAC
I CH
om aan
Ġover whel
ou vern
ĠWith out
Ġf oe
Ġo ven
ĠSo cial
imm ing
Ġchief s
ist ributing
Ġh oles
om on
TTC TAC
èº «
Ġdisclaim er
Ġabund ant
IS S
ou den
Ġl aps
ĠÎµ Îº
Ġn aval
Ġcol on
Ġphenomen a
Ġun l
Ġth ither
pl aced
Ġoccasion al
Ġcompre hend
pp ers
Ġc ub
Ġpe op
Ġo re
Ãª tes
s is
ĠH ome
Ġrecogn ize
Ġmach inery
Ġd yn
TGG AGC
requ ently
j er
Ġm io
b ank
Ġne got
TACC CC
Ġc itt
utta a
Ġn Ã¨
ces ter
influ ence
Ġve z
Ġlos ing
Ġus es
Ã© re
Ġadd ing
ĠAr n
un al
Ġgrand father
ĠÎ± Î½
ĠV ery
Ġre tain
TC AGAG
Ġpor ter
ĠProtest ant
op f
Ġc raw
ĠR alph
up le
Ġfun eral
k al
Ġhe ir
' .
f aced
ĠAl b
Ġm ant
Ġam m
Ġmis chief
ĠAtl antic
Ġvig orous
m ad
Ġsl ope
Ġmu ist
Ch ap
AR K
Ġwhere in
âĢĶâĢĶ âĢĶâĢĶ
ult ural
b ts
re ally
Ġrecomm end
Ġ6 8
TG TATC
Ġk is
id ade
Ġprepar ations
Ġkle ine
Ġming led
Ã¤ is
Ġtrou ver
ap arte
Ġmut ual
ACC AAG
G ATT
H aving
ĠC L
c ro
exp ression
Ġmaj esty
Ġ6 1
ATC TAC
Ġ6 7
Ġpublic ation
Ġpro position
Ġeng agement
Ġtem por
Ġm amma
Ã¤ llÃ¤
.' "
Ġsun k
s or
Ġbeh alf
AG TTGC
LE Y
æĽ ¸
Ġneg lected
S H
Ġres erve
Ġpl ane
Ġho e
ĠE h
ik Ã¶
Ġrespect able
âĢ° ,
Î· ÏĤ
Ġtu be
Ġg orge
ĠBe ing
ĠAG REE
Ġvol unt
Ġcomr ades
phe w
Ġ7 2
Ġach ieve
Ġb a
Ġbo iling
CT ION
. âĢľ
Ġsummon ed
Ġb und
TTC TTTC
le arn
Ġpure ly
ur ate
M any
Ġprodu cts
im i
TG ACAC
TC TGAA
w on
è ¾
Ġroy alties
Ġup ward
Ġcomb ination
ç ¨
ÎŃ Ïģ
em me
Ġsc rap
mind ed
Ġport ions
Ġcand le
Ġte hd
Ġsubst ant
v ain
TT ACCC
Ġsh rie
Ġli ik
arm es
Inde ed
Ġproceed ing
Ġindign ation
ãģ ®
ĠLIC ENSE
èģ ½
Ġfl ames
im er
Ġcol ors
Ġsour ces
ar re
on to
TTC T
h ope
ol k
Ġh olid
Ġsto res
Ġmanufact ure
od ge
Ġsc ru
Ġsatisf y
è §
Ġag ony
Ãª mes
Ġsail or
ĠtÃ¤ ssÃ¤
Ġview ed
et ter
Ġcons ist
Ġinc ons
Ġfrag ments
ract ed
Ġne ut
Ġs aints
ĠSch w
Ġpre cipit
Ġstup id
Ġprof essor
Ġv end
l ag
Ġlow est
; âĢĿ
Ġw ounds
Ġs ets
Ġdisapp ointed
Ġh asta
f air
æ ĵ
Ġdeg li
writ ing
Ġpersu aded
Ġabs ol
Ġcons isting
ĠR oss
Ġfl ashed
Ġmay be
th row
E nd
F ather
Ġbl az
Ġass igned
." --_
Ġent reat
ĠP op
AA TCTG
ĠLe ben
TTG AACCC
TTTCC CC
Ġhet i
Ġf urent
Ġpay ment
Ġalk oi
Ġfair y
TGC ATG
Ġmat in
Ġrecogn ised
ĠT ar
s ylvania
TGC TGG
ĠH amilton
Ġpro pose
fol k
Ġrom antic
ACC TCCC
Ġr isen
id as
Ġtr aces
ĠÎº Î±
ATC TGG
Ġto ch
Ġam ple
Ġhe ap
ot el
Ġwhe at
Ġman s
Ġr abb
e ksi
ang s
is ms
Ġdiscuss ed
AAAA ATG
Ġmar vell
s ich
Ġg own
ĠAn th
ĠGr ay
Ġem ber
Ġden se
c ad
Ġad voc
Ġspe cul
Ġext end
AC ATTC
ĠS anta
Ġro d
le ans
ong s
Ġu sted
Ġdro ps
pro ve
Ġv ita
ant ine
ĠHÃ¤n en
sec ret
al ty
Ġinfant ry
OL D
elt Ã¤
l ist
AC TTTG
ie use
TC AGGC
ick ing
k ken
AC AGCC
ĠB all
Ġo un
or ical
L iterary
Ġres ign
ke pt
P LE
ĠAfric an
et he
ĠÃ© cl
Ä Ŀ
ĠW elt
Ġvers es
Ġbar on
Ġge h
ii i
iet h
ic ism
Ġwide ly
Ġn as
Ġsil ently
TG TCAC
Ġ8 5
AV E
port s
________ ________
TCC TAA
m ot
Ġform ats
ĠJer ry
me g
Ġave z
TATT GG
B es
Ġg ros
ĠV ic
Ġzij ne
æ ħ
Ġsou p
TT ATGC
ĠFrancis co
form ing
Ġwand ering
Ġpass er
Ġsurr ound
d ers
[ =
ATT GGC
Ġhum our
Ġer st
âĢ ²
s ays
Ġle cture
Ġsqu ad
P oor
ed es
Ġl if
Ġnu est
ĠF riend
ĠO p
Ġst uck
Ġtrem endous
Am ong
S pe
acion es
Ġless ons
ru ck
Ġla v
Ġimpro ved
Ġcultiv ated
ol ta
ĠH ung
on ic
Ġin duce
lesiast ical
adem y
Ġ6 9
ĠEgypt ian
u ksi
Ġstreng then
ĠO t
Ġy hÃ¤
Ġj oke
åĲ į
Ġleg end
Ġla us
proper ty
l iv
Ġla quelle
çŃ ī
Ġma ail
Ġeduc ated
Ġem phas
ist es
it os
æ Į
Ġr idge
Ġremain der
é Į
IC K
Ġc unning
ĠDiv ine
A u
Ġb or
Ġhealth y
comp any
Ġpictures que
f ut
ĠS ac
al is
Ġm ix
Ġwarri ors
might y
ĠH ans
Ġdress ing
Ġ1 10
Ġsim plicity
Ġt ons
it ia
u ity
Char les
l ain
sem ble
ĠConf eder
g ra
Ġbl ows
ch ap
Ġbus hes
Ġconsider ably
in as
ci le
Ġmoder ate
Ġdisg ust
Ġenjoy ment
Ġ :
sh ot
Ġconf ession
c all
ĠF ire
TATT TTTAG
ĠR elig
cond ition
provid ing
Ġdon n
Th ou
Ġy mm
Ġre Ã§
ĠH E
ACC ATC
ĠHer z
Ġo ogen
pro ceed
' _
Ġash ore
in cl
AC AAAC
ĠFl or
Ġfor te
Ġdefe ated
Ġm un
bl ick
ne ed
onym ous
Ġper ple
TC AGGAG
p ens
Ġdest ined
Ġgest ure
Ġand eren
Ġdram atic
Ġric hes
Ġw il
Ġme idÃ¤n
ĠSt and
Ġkir jo
J un
ĠTh om
Pro fessor
ĠM AN
TG TTAA
Ġn it
ATT TTTG
AAC ATC
AC TAT
m agn
ĠH u
Ġmy th
Ġown ers
Ġoccup y
TG ATGC
us ively
T E
U p
Ġcitiz en
Ġc li
re ve
Ġloc ations
LI AB
LI AM
at ri
omb ard
s n
ors hip
Ġs illy
ex istence
j aa
an ter
Ġkat so
Ġdesc ent
M er
ĠH ER
uls ion
f ac
TGC TCC
Ġimprove ment
com me
Ġsail ors
æĬ Ĭ
Ġcan al
ĠH as
is d
TC ATTG
Ġo v
Ġzwe i
all o
Ġem ail
R ight
Ġd ic
Ġad vers
ĠAs sembly
Ġent ra
Ġinc ome
um ps
Ġdoor way
h os
ull en
Ġsub mit
Ġun ity
Ġshoot ing
åī ĩ
ess en
Ġb ust
Ġjud ges
ĠCl ark
iz z
E h
Ġb ast
d anger
bl o
Ġse eds
Ã¤ in
ĠT ri
ĠF ROM
Ġwhe els
im mediately
Ġvie ux
Ġpass engers
Ġassem bly
int rodu
Ġspect acle
Ã¼ nd
Ġclo ak
cl ot
as ury
dist ance
Ġ13 0
Ġin k
Ġf osse
Ġstrict ly
Ġd orm
Ġinev itable
Ġkys y
Ġmit en
ĠU p
Ġpr Ã©c
bu ilt
Ġtre acher
GC GC
r ar
p ain
m ie
Ġ7 1
S am
Ġf oss
Ġs ondern
ĠE sp
Ġv ive
Ġz eg
Ġch anging
s ens
comfort able
G reek
Ġv rai
ĠCarol ina
post ed
Ġcount ed
k ar
èĭ ¥
Ġteacher s
Ġqu od
F oundation
at ten
bar a
Ġ7 4
éĢ ²
Ġmer k
Ġcham bre
omm od
AT AAAAG
iv ities
Ġbus h
Ġpauv re
ĠÃ ¥
Ġest o
C o
Ġadv ised
Ġmot ives
ĠK night
Ġhe v
Ġeff et
Ġqu it
Ġh art
f amil
ent es
uv re
Ġg ri
TAG AAAA
wo ord
amp ed
Ġ7 6
c oun
Ġdies em
å ©
om ing
ĠT a
TG TCCC
ATT TCTC
Ġpos itions
i ac
at um
Ger man
ĠHeb rew
Ġimpl ied
TC TGGC
ec utive
p ath
Ġhand kerchief
b ien
Ġmain ly
G AGAC
TAG TAA
us se
Ġdro it
å¥ ³
vÃ¤ sti
Ġtem porary
Ġinter course
Ġcalm ly
ĠC Ã¦
Ã¨ v
Ġsh ud
Ã¡n ak
W est
Ġir res
Ġwar ned
Ġdesir able
Ġrepl aced
if s
Ġlo aded
Ġeas ier
ĠSh all
Ġeff ected
Ġbew ild
Ġsuper st
Ġe b
é ħ
å Ł
Ġapp ointment
ent ially
Ġmy Ã¶
é «
Ġill ness
Ġfare well
it ations
vers ion
Ġpit ch
Ġt ab
ne x
Ġ7 3
ĠC f
ug ar
boy s
Ġsul ph
Ġvent ured
des c
s am
ild a
Ġaccompl ish
ag ner
ĠG oth
AAC AGC
Ġj at
TGGG AGG
ik ko
A ny
Ġdon na
Ġk in
Ġ7 7
Ġvol na
Ġex agger
ĠDep artment
ial s
A pp
in ate
ĠM eth
e ux
Ġle aped
L L
pur pose
K e
at tempt
Ï Ī
Ġd angers
Ġdr ama
ĠD ans
bour g
Ġchild hood
port ions
Ã¡ ly
B Y
ATAA TAA
ĠXV I
Ġpeace ful
Ġc iv
Ġla at
od ore
medi ate
Ġme ll
cept ible
v ir
ne g
ĠW ild
Ġinc or
ho z
Ã° n
Ġf t
Ġqu asi
AC AGGG
Ġtap aht
ou ri
C ATG
Ġeff ic
Ġvis its
Ġcons pir
Ġh ir
ATC AGC
Ã¼h l
ATT A
Ġ7 8
Ġin vention
Ġgo ed
ĠMon te
Ġre ci
ĠkÃ¶ z
AGG TAC
Ġacknowled ged
ĠK en
pre p
Ã¢te au
ĠPl ace
un is
ACC TAC
TGG TAA
pp o
Ġrem edy
Ġsal vation
TT AGGG
æľ ª
hel p
ĠÃ© v
Ġhung er
Ġj oh
Ã¤m Ã¤Ã¤n
Ã¤r t
Ġwe er
Ġtraged y
ĠÎº Î±ÏĦ
Ġdisp ute
å ¨
ĠA S
ĠEnglish man
Ġvig or
ol er
ĠVan illa
TCC AAG
ĠjÃ¤l keen
Ġr ings
ĠG R
um en
Ġd ug
Ġt iem
Ġexhib ited
Ġt act
Ġcomp uters
Ġhe els
p ool
Ġt as
Ġalt ri
ch Ã©
Ġl ip
Ġf ence
Ġhum or
Ġgo in
w ort
âĢĶ âĢľ
Ġeduc ational
Ġcl osing
æĸ ĩ
Ġrel uct
eff ort
ĠD own
mount ed
Ġpe as
åĪ Ĩ
Ġest as
Ġput s
âĢĶ _
Ġp Ã©n
TG TAAG
Ġcom te
ty m
Ġattract ive
Ġre cht
Î¼ ÎŃÎ½
B el
Ġcourt es
ĠR O
Ġpl acing
ĠP ut
AC AGTG
Ġas hes
Ġw ont
even ing
Ġopp on
ck e
Ġrespect ing
r Ã©s
ĠÃ §
Ġclim b
ĠSt u
Ġma Ã®tre
Ġab ide
TC ATCC
Ġc rest
Ġgr acious
ĠC re
adv antage
si ans
TC TTGG
ATC T
pro pri
st ory
ER N
Ġfat to
Ġrenew ed
Ġp ik
Ġdisapp ointment
P aul
ast y
Ġdi et
Ġun se
circumst ances
ĠDire ctor
Ġext ravag
sh al
Ġtu le
Ġme ille
ĠG ew
Ġty Ã¶
P age
after wards
Ġdec re
ĠM E
Ġpre acher
Ġch ances
Ġav ons
en z
ber y
Ġco ck
Ġam used
TTGCAGTG AGCC
Ġymp Ã¤
s ort
id Ã¤t
Ġspec imen
ĠNor man
ĠK ings
pere ur
Ġpro se
Ġf isher
Ġun w
å¤ ĸ
Ġse ize
Ġtr ump
Ġs que
TG TTGC
Ġinj ured
ĠL is
t ak
h usband
ener y
poon ful
Ġw ool
ac cept
isp ens
ĠL at
Ġdisapp ear
Ġconn ect
gu er
Ġbe z
rane an
ul ed
Ġhe ed
ĠBe cause
Ġoper a
N iin
Ġsad ly
Ġcr imes
Ġsk etch
ĠV alley
R eg
a am
Ġarg uments
Ġpost er
k or
Ġoff ence
Ġacc ommod
ĠC es
é¦ ¬
Ġc roy
Ġm ettre
Ġen lar
s ense
AGGCTGG TCTC
Ġabsor bed
Ġcost ume
Ġres ent
build ing
Ġorg ans
TGG ATG
Ġes pe
Ġcon quest
ĠPart y
Ġl ettre
Ġto il
Ġco eur
Ġdis charge
se par
Ġhe el
Ġbreat hing
TATG GG
igr ation
l ab
ĠDan iel
ij a
Ġdo en
ĠJ en
ĠH aus
Ġmin es
la id
Brit ish
TTTTTTTT TTTTTTTT
Ġh iding
elij ke
hem at
per iod
Ġmess enger
Ġj Ã³
Ġmeant ime
che in
Ġ9 5
Ġv ai
imp se
ĠG ordon
ATT TTCC
f ine
Ġsp ear
AA TAGG
ĠP y
ĠB arn
Ġd ame
ĠnÃ¤ ky
return ed
Th ose
Ġsin un
bl ished
ell er
Ġlast ed
ATAA ATG
ĠN ight
ĠTurk ish
Ġpu ole
Ġmus cles
ans as
und ert
Ġdisc ern
Ã©t ais
TTTT AAAA
Ġ7 9
Ġse al
Ġmerch ants
Ġd ent
Ġf ox
Ġ14 0
C ont
çĶ ¨
Ġin ward
Ġtor ment
AGG AGGC
ĠD oug
h istory
Ġf et
ĠJ on
AAG TGC
Ġwen ig
Ġown ed
Ġbell s
phil osop
Ġt ullut
St ill
Ġ ..
ud ge
unic ip
Ġb our
Ġatt acks
Ġst able
ACC A
Ġsp ots
Ġcomm en
Ġwild erness
C TTC
ĠA uthor
Ġremind ed
æ ¸
Ġann ounce
æķ ħ
Ġin flict
Ġpleas ing
) (
Ġal tered
ĠBr ad
im us
Ġter ra
ĠseÃ± or
um bling
Ġbitter ly
Ġabrupt ly
c ou
fic ial
ĠV on
Ġentertain ed
ale ment
bl in
ot y
imp ossible
Ġmaxim um
Ġli able
clam ation
Ġr az
J ack
Ġqu Ã©
Ġole van
Ġdas hed
Ġpuzz led
ment ioned
Ġv ag
Ġsecond s
Ġver g
Ġed ges
Ã¼n k
em e
Ġl ange
ĠK n
ĠDiv ision
Ġsun set
Ġst ole
Ġobey ed
ow l
TTG TTC
-----+ -----+
Ġag ents
Ġnewsp apers
Ġartific ial
è¥ ¿
Ġ( "
le ave
ĠEd ition
Ġ9 9
l ate
Ġresem bl
ÃŃ as
? _
Ġrep resents
id el
Ġpain ter
ĠB ig
um aan
ĠK ar
Ġconf essed
Ġf f
s itu
ATCAC TTG
Ġest Ã¡
Ġpro sec
Ġfront ier
Ġst olen
Ġch airs
Ġch ase
A y
Ġv ro
OR T
Ġrecogn ition
n ung
AGAG AGAG
jo ining
ĠP ad
ien na
P o
Ġp int
Ġeng ra
app re
å Ŀ
Ġcommand ing
ĠB lo
Ġw i
k il
Ġband s
Ġll eg
åı «
on er
AG TAGG
Ġprop het
Ġar oused
Ġcon sec
ir ie
Ġde emed
x x
Ġp ous
IB ILITY
Ġj eg
Ġcur se
Ġgent e
Ġillustr ated
Ġro be
Ġpup ils
Aug ust
pre nd
Ġrespond ed
or r
Ġwar n
Ġ 00
Ġass ass
é ¤
Ġp hysi
Ġwor ry
Ġha re
Ġproble ms
Ġcabin et
Ġflo ating
Ġwh irl
Ġble w
Ã Ĩ
Ġre ct
Ġalarm ed
att u
ĠU ne
ĠP il
ay a
Ġext ending
Ġgrave ly
Ġpurch ased
Ġmaintain ing
M E
Ġpol ic
to it
Ġdies en
Ġsurv ive
hÃ¤n en
ah ren
b ig
am ount
Ġnew ly
US T
Ġcro is
om bre
Ġgu ilt
TT ATATT
TC AGTG
Ġ8 3
L ie
Ġbull et
Ġun just
min ster
ĠA ustri
Ġsto red
p aper
Ġc yl
AAG A
ud o
az ioni
AAG TAG
TCCCAGC TAC
Ġcertain ty
ĠE u
Ġrepresent ative
Ġad min
Ġpress ing
Ġart istic
ĠA D
ent o
ĠJust ice
Ġb end
åħ µ
Ġjour n
ĠB udd
TAT A
ĠW ol
Ġaur ait
Hen ry
------ +
Ġaw kward
Ġaccept ing
ĠJ u
f urther
Ġsm oking
att end
ha ft
å· ŀ
Ġword t
ĠCam bridge
l tÃ¤
TC AAGG
ĠW ork
Ġrend re
Ġtem ples
Ġmurm ur
Ġl inen
Î¸ Î·
v ict
iz en
AAG TTC
ĠL ast
Ġrep ose
Ġmis fortune
ĠScot ch
at ro
Ġwe il
m und
at ore
ĠW hether
am ia
Ġrec alled
ac a
Ġprev ailed
Ġ1 15
Ġdon de
enn en
Ġku ole
åħ ¥
ĠS ing
Ġte chn
ob ile
Ġassoci ation
ĠK ate
Ġcomp let
Ġrep air
m aan
Ġwra pped
Ġimper ial
æ ¥
ins Ã¤
æī ĭ
ze k
Ġpos it
ĠPro vin
Ġexpl os
AAAAAAAA AAAAAAAA
R ich
ot taa
ad mir
Ġmiss ing
ĠW ORK
h alt
Th ough
AAC TAA
ĠU l
Ġven ir
Ġschol ar
B E
ĠVen ice
Ġch uck
ore t
ĠC ond
Ġsa ving
Ġret our
Ġ8 1
e vid
_ !
Ġobsc ure
L icense
Ġdev ait
at rice
Ġsur tout
antin ople
E i
Ġthere in
Ġn am
che t
Ġtender ness
Ġman agement
Ġheart ily
ag ers
L ife
Ġcon greg
Ġbo ast
Ġpret end
Ġsh y
AAAT AAAA
ĠR et
å¾ ŀ
Ġvol s
e ches
ĠPers ian
RAP H
Ġrepro ach
ospit al
bl ue
Ġtrou ve
ĠlÃ¤ ht
Ġdeal ing
ĠPro vidence
f at
Ġmor te
Ġcon quered
ĠMass achusetts
st range
ient Ã´t
on ed
Ġte idÃ¤n
ĠC ook
Ġtransl ated
TTTC ACCATG
Ġalter ation
Ġ Ã¤Ã¤
AC AGGC
AGG ATGG
d re
d ale
Ġder ive
Ġperiod s
p us
Ġne lle
TTG AACC
Ġheaven ly
up reme
ĠG ed
Ġd ad
Ġadv ancing
Ġpr ices
Ġimper fect
am ar
lich keit
ot ism
Ġze er
all i
Ġfun ny
un ts
icht er
F rank
em m
im per
ĠL i
ne ys
ĠC ette
Ġeconom y
ĠM itÃ¤
Ġspr ings
cast le
âĢľ âĢĺ
l ot
AT AGTC
Ġm ismo
min en
Î® Î½
ug en
ĠEs q
erd in
Ġimag in
Ġbe f
ç ©
Ġpit i
> </
ac ross
Ġto inen
ĠR ad
Ġem otions
Ġf aced
Ġgo ver
Ġre eds
D en
ĠLew is
ign ant
Ġl unch
Ġdiffe rences
n ia
Ġcont ributions
AGGCTGAGGC AGGAGAA
vent ure
rient al
Ġ8 4
Ã¡ st
ĠpÃ¤Ã¤ t
c Ã©
Ġp ious
Ġr att
s ure
Ġan ge
Ġ8 2
gener ally
ais er
i endo
AAC ATT
Ġtr iste
man ces
Ġwand ered
cond uct
ĠM P
d it
Ġanc ora
Ì ĥ
sy stem
og ue
g rave
a illeurs
Ġf Ã»t
åĢ ĳ
Ġc iel
Ġem inent
st ream
Ġv ue
ĠK er
Ġpart ic
ag an
._ ;
ink led
Ġsh irt
Ġmu uta
ru de
ĠM i
Ġindic ating
Ġmay or
opin ion
el te
Ġve ux
Ġcorrespond ence
Ġsk ull
TT ATGG
Ġhat ten
Ġy onder
Ġl eng
ĠNo v
TGAA ACCCC
ĠPro f
Ġdesign s
ĠP E
ĠBo ard
vent h
ĠAl fred
Ġw reck
ĠR h
Î¼ ÎµÎ½
D ear
ance ll
Ġd opo
OO T
ie ves
ann es
ĠIm perial
Ã± os
Ġl ief
ĠLaw rence
ĠWilliam s
b ij
ĠD ou
Ġbel t
Ġrow s
Ġform idable
ĠF if
ĠEd inburgh
M ed
Ġadop t
AGAA ATG
e urs
å® ī
ig an
l ings
ĠS ou
tt Ã¤nyt
Ġt es
Î ĳ
AAG AGG
s kin
rend re
ĠĠĠĠĠĠĠĠĠĠĠĠĠĠĠĠĠĠĠĠĠĠĠĠĠĠĠĠĠĠĠĠ ĠĠĠĠĠĠĠĠĠ
GG GGG
Ã¤h den
Ġgi Ãł
le i
ess ie
TGC AGTG
Ġpo ik
certain ly
d ain
ĠCH AR
Ġ9 6
TCC TGGG
H y
Ġne phew
Ġres ponse
ide a
Ġr oused
an th
Col onel
Ġf oul
b able
Ġj ury
Ġshould n
ho le
Ġtrust ed
G l
ill ings
OM E
Ġin visible
ĠAd ams
g end
è ¼
e ld
Ġconce ive
Ġinse cts
m Ã¶
Ġar bit
through out
Ġad apted
Ġcons picuous
ç ¶
Ġqual i
l ive
poss ession
---- +
Ġam using
ac o
ne arly
AGC ATT
ch io
ant on
ci an
et ies
b od
Ġproc ure
Ġadvent ures
ic ro
ĠG ospel
at hetic
itz er
Ġl op
Ġsp here
Ġb ol
ol ence
Ġfl ank
iss aan
Ã¤ inen
Ġprofession al
How ever
c ry
ĠprÃ©s ent
Ġstrange ly
H ist
Ġaddress es
ĠSu per
Ġcar go
ĠT ill
Ġw ilt
ant y
ĠÎ´ Îµ
Ġab oard
ri k
pher d
D a
as ily
Ġh Ã¤tte
t at
rend ered
ĠCan ad
hab ited
TAA TTC
ĠB ol
Ġun pleasant
Ġve ins
Ġp ont
R U
Ġspe cially
Ġmon aster
Ġ1 12
z ten
M art
Ġyield ed
Ġsurpr ising
ĠMond ay
ĠA post
Ġeleg ant
Ġquestion ed
g all
Ġmart yr
Î» Îµ
Ġkau p
s uddenly
p te
ar gent
ĠK Ã¶n
Ġid ol
Ġr aw
Î» Î±
ro ck
Ð ¸
TCC T
m ach
Ġvo il
Ġbe k
ĠE ls
AAG ATC
ret ion
TG TAAC
Ġabund ance
Ġpr ayed
Ã©r Ã©
IN S
l ost
AGC ATC
Ġkill ing
Ġk omm
Ġbill ion
mar ried
AA TTGG
Ġe th
Ġd ass
Ġto im
Ġpo le
Ġ8 8
Ġrepresent ation
ĠBl ue
Ġs od
Ġpun ish
g rown
ac ci
Ġpou voir
×ķ ×
Ġnouve au
ĠO cean
b at
TATT TTC
u ur
Ġsevere ly
Ġwork ers
Ġhero ic
Ġf Ã©
æ ´
Ġresc ue
Ġp id
ban ks
. :
éĩ ĳ
it el
AAG TTG
Ġam or
ĠB os
On ce
Ã³ t
AAC TGC
ep end
Ġv ind
rem ember
ATAT ATG
Ġvi i
Ġmur dered
AAAA TAC
Ġgu ards
b rown
-- âĢĿ
Ġfl ies
Ġbut t
ub a
Ġlan tern
Ġqu ad
l ig
Ġv rouw
Ã´ le
ais se
ct ic
[ _
ĠD ios
al ter
ACC T
Ġl ung
Ġofficial s
im ately
ĠB i
br ight
ĠG ard
Ġlong ing
Ġgar ments
-- '
Ġ9 2
æĪ Ĳ
ĠN ext
Ġp itÃ¤
Ġdis ait
Ġans wers
Ġdoll ar
TGGG TGAC
Ġrepl ace
ess er
Ġfanci ed
en cies
ass istance
su bs
ĠVict or
ine en
ĠÃ Ń
l at
ĠL ibrary
Ġsome one
Ġjust ified
ĠĠĠĠĠĠĠĠĠĠĠĠĠĠĠĠĠĠĠĠĠĠĠĠĠĠĠĠĠĠĠĠ ĠĠĠĠĠĠĠĠ
Ġpatter n
un ks
Ã¡ d
AC AGAC
Ġay ant
Ġsch oon
Ġadd s
Ġpist ol
al ie
ĠM aar
ra its
ãģ Ł
re ached
I ER
Ġcompl iment
s ight
ÃŁ er
GG CCC
ess es
Ġbox es
Ġm ourn
Ġar row
Ġsympt oms
Ġcr imson
Ġpleas ures
Ġwitness es
Ġj Ã¤Ã¤
Ġ1 13
Ġav oit
Ġcomp rom
Ġle ven
ina ire
Ġpup il
arr is
Ġres erved
ĠFa ith
ĠPet ers
H istory
AS E
Ġqu anto
y ll
re cht
Ġc ares
Ġcorrespond ing
begin ning
ĠP el
Ġs q
Ġinvestig ation
Ġa le
Ġass urance
rib ing
ĠAb raham
Ġw ag
TAG TAG
c ular
N ESS
Ġin ex
ĠAng el
OS S
Ġto day
åĽ ł
ATT TTAC
TATT TTTT
Ġp ush
ĠWe re
AC ATAA
ĠN u
Ġer ano
TC GGCC
Ġcirc ular
Ġfold ed
æĦ ı
aps ed
Ġvic inity
Ġinter national
c ord
Ġfatig ue
Ġe tern
Ġon n
br ance
ĠE ss
ab en
Ġcont ented
ĠS pring
Ġpu he
the l
Ġest imate
ĠR ail
aw are
id em
Ġs Ã³
Ġexperien ces
Ġup wards
ol ated
ĠPortug al
W ould
E nt
ĠÏĥ Ïħ
p el
EN S
ĠPe ace
Ġfavor able
exper ience
Ġaff irm
Ġillustr ation
Ġcon grat
Ġdif fer
Ġt Ã©
dess us
Ġpar liament
re ll
ac compl
TT TATTC
Ġpret ended
è» į
ĠTest ament
Ġpart i
Ġsa iling
Ġfl ushed
ud son
Ġvan ity
ic us
Th ree
Ġmat k
Ã¤ si
ĠDor othy
Ġchar itable
ĠSe pt
Ġsim pl
G ACC
Ġdoc uments
AGG T
Ġmult i
è Ĥ
Ġprodu cing
Ġdri ver
TT AGTG
and is
Ïĥ Î±Î½
Ġk umm
Ġk ats
st ar
ãģ Ħ
Ġexcl am
æŃ »
S al
ĠÃ Ĺ
de p
Ġp yr
Ġor ange
ett le
Ġpart icip
Ġdream ed
Ġcon verted
Ġvar ieties
qu ant
P al
ĠB ou
Ġa ven
Ġquant ities
ATT GGG
Å «
AC ATGC
Ġancest ors
Ġ Ïħ
ĠT aylor
Ġsol itude
Ġgl or
Ġac ute
m ort
Ã¤m me
ĠAthen s
Ġde arest
Ġw ander
Ġadm ired
AAC TAC
Ġmar vel
Ġmie hen
s at
iss imo
. ~
f ly
AAG TGG
TCC ATC
Ġ9 7
Ã¢ ce
re rs
Ġsignific ance
AAAG AAAA
els on
Ã¨ le
Ġmir ror
Ġv aim
Ġplung ed
ĠAl as
in ois
ĠMid dle
Ġkaik k
Ġk iin
Ġencour aged
è ±
Ġwarm th
end a
Ġm orn
Ġwe eping
Ġlangu ages
Ġpe uple
Ġcare less
er ted
W ARRANT
ival ent
Ġeld est
Ġ9 4
Ġm ert
Ġrock y
Ġve el
Ġb ars
Ġchem ical
Ġm are
Ġ8 6
Ġch ronic
F ort
ĠwÃ¼r de
k r
Ġtod as
Ġsw ell
ĠW er
Ġtele phone
dire ction
TATT TTG
Ġrem pl
br acht
our ce
â ģ
ACC TGCC
Ġ9 3
Ġg ames
Ġv Ã¤hÃ¤n
ak i
Ġd y
AC TATG
Ġpit Ã¤Ã¤
Ġridic ulous
Ġanx iously
âĢĻ ,
fall s
ci ble
z ik
Ġtravell ed
Ġwh ist
Ġe ens
ab er
A f
Ġprom ises
ink le
ig es
ĠComm on
s pl
Ġindif ference
Ġcar bon
ank en
Ġexha ust
az a
ustri ous
f aces
sel ben
P ort
C TGG
ĠN atur
æ ı
va a
Ġlo vers
ĠCh am
Ġte am
R em
Ġsub tle
Î¿Ïħ Î½
ĠP itt
il ight
Ġr ushing
ĠTur ks
ĠSh ould
m iles
n iin
amp h
ian i
Ġrest ore
abb ath
TAG ATG
ah n
in ated
Ġear n
Ġhal ted
Ġstret ch
ĠF ederal
v ier
kk or
Ġfur ious
Ġconfirm ation
C omp
Ġmeet ings
he at
C ertainly
Ġsusp ended
Ġavo ided
appro ach
f ran
c raft
Ġinter val
Ġwoll te
Ġsh o
Ġimp art
Ġsu or
Ġmechan ical
TG TTAC
Ġapp le
Ġinqu ire
Ġjealous y
interest ing
Ġen fant
Ġkno ck
Ġleis ure
ĠW ie
Ġexerc ised
t ar
ent ered
qu in
Ġc ash
Ġ1 17
Ġm Ã¤Ã¤
Ġm auv
m ail
Ġw ider
ĠAustr alia
olute ly
Ġd welt
f Ã¤
AGG AAAC
d an
Ġmoon light
Ġconvey ed
ud er
Ġr aj
WARRANT IES
ĠF al
ĠnÃ© cess
Ġt iss
ĠN orm
Al though
int on
M inÃ¤
Ġch annel
Ïģ Î¬
Ġkun nen
ĠC ould
ĠNe ither
iter ature
Ġa per
Ġ8 7
Ġtrem bled
TC ATGG
Ġknight s
è Ń
Ġdies es
te le
d ish
Ġasser t
Ġmar gin
H a
ĠM ack
TG ATAC
Ġr ats
ur as
C TTG
Ġhar bour
Ġcur tain
Ġfortun es
f ear
agg io
Ġ1 16
un ition
ĠNever theless
ĠÏĦÎ¿Ïħ ÏĤ
N ous
Ġtu on
Ġ1 14
ast es
ĠPhil osop
Ġ9 8
Ġdes erve
Ġthr ong
t il
ĠCon n
l iving
Ġresembl ance
ĠT ag
æĿ ±
TT AGAC
ĠE llen
. |
Ġw oe
ĠP olly
ĠSt ud
ĠÎ ¤
Ġwitness ed
ĠG E
Ġfl owing
h air
ri eg
ane ously
Ġsc reen
G A
Ġthir teen
TC TTAA
Ġm ahd
origin al
Ġre de
C ons
G H
est ine
ĠĠĠĠĠĠĠĠĠĠĠĠĠĠĠĠĠĠĠĠĠĠĠĠĠĠĠĠĠĠĠĠ ĠĠĠĠĠĠĠĠĠĠĠ
Ġimmort al
Ġd ated
Ġ8 9
Ġhero es
Ġrak ast
e ut
èµ °
ĠR ow
AA TA
ac ent
arent ly
f illed
Ġenv iron
C TAC
Ġcon ject
Ġbatter y
Ġben ch
M al
Ġap olog
d ress
ĠUn ter
ĠÎ´ ÎµÎ½
ĠA li
_ {
f Ã¶r
ĠM A
ĠL ar
under stood
Ġl am
ĠA y
Ġ9 1
Ġe man
Ġl ords
ĠG ive
Ġmur de
Ġto iv
TATT TAA
Ġgl impse
Ġto re
um erable
Ġve h
de part
Ġcol oured
O ut
ĠA le
ĠG rey
ore nt
l ength
ĠÎµ Î½
Ġf etch
Ġlat est
ATG TAC
Ġbe er
Ġbe es
TC AAAG
ĠC OL
Ġch ant
Ġfor me
Ġmainten ant
Ġins piration
ĠSo on
g Ã©
Ġpet ition
gl ise
Ġw aved
Ġcorn ers
AGC AGG
Ġopen ly
ATG ATC
ĠR a
u pt
Ġearth ly
l ang
ATT TTTAA
Ġreve rence
Ġm achen
Ġt rom
omet er
im iento
Ïģ Î¿
Ġdest in
Ġg ond
Ġ200 1
Ġaik aa
Ġge we
est ion
ah m
f urn
see ing
ĠAnt onio
Ġfavour able
Ġswe ep
ĠAm b
g od
ĠV ie
inter pret
ĠJ ournal
Ġappro ved
ene z
Ġdep rived
ĠW ard
Ġf ir
Ġfam ille
Ġtravell er
O bs
AGC A
Ġj ung
Ġpurs ue
C TAA
M onsieur
Ġglo be
Ġglad ly
Ġinv est
Ġcomp are
Ġte k
d ies
fem ale
Ġblo ody
Ġscar let
Ġlong temps
fashion ed
ord ers
TAT AAG
ATG AAAA
m aterial
Ġst ations
Ġes sere
TT AGGC
Ġren cont
Ġf Ã¶l
an or
Ġsto pping
×Ļ ×
ĠP iet
S ince
g h
Ġspeak er
Ġdon nÃ©
Ġ" '
Ïĥ Î±
TTTT TTC
Ġjo ita
ĠP om
hys ical
Ġgro ote
Ġthe r
Ġde alt
ĠMc C
Ġm aan
cons idered
Ġs ke
Ġs age
Ġt ais
TGC TAA
Ġt ijd
une et
ĠwÃ¤ re
Ġol in
Ġin fin
Ġsc rew
ul en
Ġstrugg ling
Ġde ceived
Ġbes oin
Ġv Ã¤h
ĠOli ver
pe ace
Ġd ort
Ġse lection
Ġtr aced
ps y
Ġ5 00
Ã³ r
ĠS ay
c in
Ġbo is
AAC TTG
iem and
AC TGGG
Ġdam aged
ĠChar l
Ġf aded
Ġass isted
Ġrel ating
c old
ĠRo ber
ic it
TG ACCC
ĠR am
Nor th
Ġlad s
Ġplan et
in no
ĠS everal
Ġsick ness
G TTTC
ĠĠĠĠĠĠĠĠĠĠĠĠĠĠĠĠĠĠĠĠĠĠĠĠĠĠĠĠĠĠĠĠ ĠĠĠĠĠĠĠĠĠĠ
Ġdoct rines
Ġl uk
Ġdis k
Ġspeed ily
M AR
is cher
Ġwe pt
incre asing
l it
Ġtor rent
Ġcar ved
Ġlux ury
Ġcommand s
TCTG TCTC
TC ATAA
me ly
Ġpost s
Ġv ra
ĠE Book
Ġsp ared
Ġser ving
in ue
TC TATC
Ġv ient
ĠH omer
Ġmir acle
Ġcou ch
Ġd rap
Ġneighb ours
äº ¦
n ic
pu Ã©s
ĠMar quis
ĠTex as
Ġneed le
w ig
Ġwh oles
åľ ĭ
Ġkas vo
ous se
Ġbetr ayed
M ENT
Ġcomp agn
i at
pl ant
Ġfac ing
Ġinvari ably
Ġsc ri
Ch urch
C AAG
l agen
Ġs ÃŃ
Ġab ode
ve z
ä½ ľ
Ġliqu or
Ġw olf
AG TACC
he ar
Ġvis age
ĠH ope
ĠH ann
Ġpl uck
Ġfle e
I r
pÃ¤ in
Ġcr ushed
ĠFin ally
Ġpassion ate
Ġfun ctions
TG TTTTC
j ar
Go vernment
Ġbe ef
Ġdesp ite
Ġelabor ate
Ġcontin uous
oper ation
Ġste al
cl oth
Ġadd itions
Ġout line
Ã© b
Ġmeas ured
Ġs ung
Ġpl anned
ĠMad rid
ĠS P
ä¸ »
AC TCTC
ĠR hod
Ġenf ants
ĠÎ ł
ĠM eg
Ġ10 5
ĠB ow
Ġc ependant
Ã¢ tre
gentle man
H ad
ĠI F
in ine
n am
it imate
cop ying
Ġdecl ined
P our
ĠAssoci ation
ie b
ĠÃª tes
Ġim pr
Ġcorpor ation
ĠW ort
he alth
ĠP eg
Ġaltern ate
Ġbest owed
n ine
sp ir
Ġend less
Ġmod ification
Ġinterfe re
an x
Ġk uten
Ġvict ims
ĠPenn sylvania
Ġsa at
Ġany way
F r
Ġsubsequ ently
Ġ `
g am
ĠH ur
Ġgl itter
id ay
Ġb ind
Ġrecomm ended
Ġdesc ribes
w end
Ġaccess ible
Pro duced
Ġsav ages
S im
is iin
Ġaw oke
Ġjust ly
Ġd or
Y e
M ont
f u
Ġk iv
Ġam use
TG ATTG
Ġv ibr
Ġu h
AC ATCC
ĠA sh
Ġtehd Ã¤
Ġprec aut
S er
Ġsub mitted
es ar
TG AGTC
AC TATT
Ġ1 18
k om
ĠÃ© c
ard ed
H et
Ġdise ases
S aint
Ġsot to
exp ress
ff en
ist ry
M ac
c ir
Ġwh ip
Ã¤n n
g il
d ri
Ġve ut
Ġsubl ime
ĠÎ ķ
Ġaw akened
ATC A
av ana
s ky
15 0
ĠCard inal
Ġsh rew
Ġrequ is
ĠRom a
Ġto da
Ġj oll
Ġkun ing
ĠIn st
Ġbron ze
Ġall iance
Ã§ o
Ġbatt les
ĠS n
ge z
Ġrest less
aus es
Ġtiem po
Ġw ist
Ġsin ne
op ened
ĠUn less
çĻ ¾
raz y
Ġmis er
Ġg oss
Ġk r
Ġgrav ity
Ġhop ing
ON E
ille en
TC TTAC
Ġhapp ily
y h
Ġpu ff
AC TCCC
TAATTTT TGTATT
Ġ1 19
be yond
en o
Ġacknow ledge
Ġn ay
P or
et zt
Ġfe ud
Ġh Ã¤m
Ġneighbor hood
Ġha w
Ġindirect ly
Ġcruel ty
AGAA AGAA
g ang
ĠA ut
AGG AAGG
C ount
Ġenem mÃ¤n
Ġpas se
ĠFrank lin
Î± Î¯
ĠSpe cial
ĠF en
ATG TCC
l atter
Ã ģ
v ig
TT ATAT
TTG TGC
Ġl etting
gen cy
ĠT out
Ġmo ck
Ġasser ted
Ġexpress ions
Ġser mon
Ġgen us
Ġland scape
AG TTTTC
ĠC la
Ġaff ections
ĠCount ess
_ [
ex cell
AGC T
Ġfill ing
Ġeste em
TGG TTC
Ġcar ries
ĠW asser
Î¹ Î½
Ġe volution
if fe
Ġident ify
m Ã©
ĠP O
.= --
AC TGAA
Ã¶ ll
sh ow
RE D
ĠM ER
Ġpart ing
our t
Un ited
Ġindustri al
TAA A
Ġen light
TAC TTC
Ġjew els
Ġsin o
ĠBern ard
in ement
ne ither
ue go
ess Ã¤Ã¤n
ON G
uks ia
éº ¼
èĻ ķ
TT AAAAC
Ġbill s
Ġm oss
à° °
Ġw ol
z lich
ren te
ied en
f Ã¼hr
ath y
Ġcris is
ĠOr der
amp s
Ġil m
Ġk um
Ã¼ lt
Ġroyal ty
AAAC TCC
Ġappropri ate
ĠC ru
Ġglass es
br ing
Ġret r
cl usion
col oured
k os
Ġcan vas
ĠSt one
ble m
Ġsh ift
Ġqual che
occup ied
ACC ACG
ĠOr leans
U nder
as hes
Ġver te
don ate
Ġbe iden
Ã¼ k
ĠComm ons
Ġf oli
Ġcoll ar
Ġwar rant
ios o
Ġcl er
Ġj un
Ġperpet ual
Ġtak aisin
Ġcur iously
Ġsecret s
TCC AGCC
ĠÃ ľ
Ġpract ised
Ġd umb
po le
ĠGu y
IC AL
Ġv int
Ġart ists
P eter
Ġre lease
L ike
V ir
on en
ze it
j amin
d ream
ĠC atherine
Ġt yr
ĠN av
Ġsuccess ive
Ġbo iled
Ġincap able
ĠChap ter
Ġmo et
ION S
Ġsa ils
Ġs Ã»
Ġth Ã©
Ġbold ly
ĠK le
Ġrel ax
Ġg asped
AGC TGAG
ut i
Îµ ÏĤ
Ġs ia
Ġg ale
AC TGCC
L ittle
pop ular
ĠP ress
AC AATG
åĳ ½
Ġbr and
ven ant
Ġder nier
a al
ord re
Ġinv asion
Ġlik es
Ġinflu ences
le urs
Ġins ist
Ġbread th
ĠSt ar
lem aan
Ġjud ged
st ep
Ġcomm it
Ġ lle
AC ATAC
c ie
Ġb ulk
Ġbelie ving
estab lished
Ġpart ner
c ette
Ġtri fle
Ġnouve lle
ĠSar ah
ĠB ird
Ġl ots
se ems
ak o
Ġas ks
ul u
TGG A
Ġwor sh
Ġauc un
it to
Ġcommence ment
Ġs d
S il
c up
iti Ã©
Ġl ace
Ã¡ nt
W ar
S en
A lex
Ġp ren
Ġser pent
ĠS ign
Ġm ots
Ġpun ished
Ġimpress ions
Ġcontin ues
ĠK r
ĠAr men
Ġdisci ples
ĠDu chess
Ġmiss Ã¤
Ġw ret
g at
_. --
ĠR and
Ġgreet ed
Ġwel fare
Ġam is
ĠHer bert
ç ®
F air
Ġqu ot
ens i
Ġsa uce
ĠIn stead
or ney
Ġpeop les
Ġback ward
Ġman ager
ĠĠĠĠĠĠĠĠĠĠĠĠĠĠĠĠĠĠĠĠĠĠĠĠĠĠĠĠĠĠĠĠ ĠĠĠĠĠĠĠĠĠĠĠĠ
ph r
Ġatt ributed
s light
Ġflo ck
Ġpart ial
Ġs ow
Ä ĥ
EN E
Ġag itation
Ġman iÃ¨re
Ġprob ability
Ġrebell ion
Ġe ben
Ġl ur
J ames
Ġcontro vers
se em
Ġper se
ĠK now
Ġbrief ly
import ance
p ay
isse ment
Ġappar atus
# ,
st art
ont Ã©
ĠPal ace
Ġsu ited
ra ising
Ġluck y
C ATC
ĠC ivil
ĠNap les
Ġwealth y
Ġw ip
Ġty ttÃ¶
as in
è© ±
Ġmother s
o Ã¹
Ġot ro
Ġg ab
Ġcomp uter
r itt
æ ¼
ĠPortug uese
att ed
lij ke
ĠGil bert
ĠL ane
th irty
Ġsa ada
ĠtÃ¤yty y
ext ra
GC TGC
h ors
od ox
ĠN ote
Ġgl owing
ĠEx ecutive
I k
Ġdish on
Ġfab ric
Ġinher it
i astic
u ced
Ġcitt Ãł
ok o
ĠLa ura
-- âĢľ
Ġopport unities
po ch
Ġse ctions
f Ã¼r
ĠD io
ä¹ ĥ
Ġprohib ition
Ġsearch ing
ans wer
XX X
um ble
Ġconcl ude
long er
l ais
ĠR ou
ater n
Ġkas v
success ful
Ġun necessary
Ġharm on
s ed
Ġl assen
Ġhom bre
Ġhes itation
Ã¤n g
AGC TGGG
Ġdest ro
Me anwhile
Ġs inking
ĠM ade
Ġpor ch
k omen
Ġold est
ar f
Ġd rowned
Ġin complete
co ck
æī į
Ġevery one
Ġn onsense
An n
Ġa is
Ġf res
Ġprot ested
ĠÄ ī
T er
li ber
gu ish
Ġped ig
ĠMaur ice
Ġde w
ol and
Ġtro op
AGG ATC
ACTGC ACTCCAGCC
A z
TAC TGC
ĠE lect
Ġv alleys
ĠCor ps
Ġlear nt
á½ ·
C ACC
Î¼ Î±ÏĦ
åį ³
stÃ¤ nd
sz er
Ġk aksi
ob ody
Ġv ow
Ġappet ite
Ġbr u
i Ã¦
Ġfund amental
Ġb acks
Ġu pp
TC TATG
Ġlow ered
Ġguard ed
Ġvi ii
ate g
C AAC
ç ı
ar ched
Ġde af
Ġreject ed
TTC A
Ġheart y
Ġard ent
ij k
Ġre li
ribut es
ĠâĢĶ âĢĶ
vo or
eg y
ĠnÃ¤ in
do ing
Ġcar s
Ġh ans
T ur
Ġoike in
iz ione
ATG TAG
Ġf us
Ġdou bts
ay ne
ĠC ass
pre c
Ġheight s
TTTG TTTT
Ġcre ate
è« ĭ
ĠBr other
de g
TGG TAG
ĠRo ad
ĠC red
ĠL ad
part s
e cess
= .
Ġprivile ges
AAAC AAAC
unte ers
A uthor
Ġpo ckets
AATT TAA
Ġneighb ors
ĠCÃ¦ sar
Ġm ouve
AGATG GGG
Ġphilosop her
du cation
p ill
Ġshall ow
Ġrepresent ing
åģ ļ
Ġrem ar
l ived
ĠPr inci
å¿ ħ
ensch aft
erdin and
nor th
Ġst y
it as
I TT
h orn
ĠP H
sl ow
ht a
Ġgew esen
AGC ACC
ĠL os
._ âĢĶ
ig ung
ĠâĢ ¦
ĠH il
Ġexcl usion
Ġpropos al
e ine
Ġcomm un
16 0
Ġper ish
the w
Ġtort ure
Ġgall ery
ĠF RAN
Ġau jourd
Ġkir j
Ġgod dess
Ġbreat hed
o of
Ġc ous
c ab
Ġembr ace
R es
Ã§ ois
Ġg ouvern
LI G
Ġvoil Ãł
think ing
s weet
Î½ Î±Î¹
ä¸Ģ åĢĭ
AAC A
Ġche min
åĲ Ľ
isd iction
Ġv n
Ġsun light
Ġparticular s
ĠPed ro
Ġdiscour se
Ġs lo
TT ATAG
U AL
oh ol
Ġhum ili
ĠT ower
ON S
Ġstir ring
Ġdet ach
htt p
ĠT reat
ĠÎ±ÏĢ ÏĮ
------ -+
TG AT
Ġrecon na
AG ATATT
ĠB rah
ĠM att
ĠW alk
ĠD uc
Ġsepar ation
ĠC are
Ġfac ility
Ġdec is
ert on
z ij
è ī
Ġexpect ing
ra il
arm ing
Wh ich
it et
Ġregular ly
Å Ĥ
Ġdou ce
Ġsuper int
Ġdis order
K u
Î Ł
wh atever
AGAA TAA
Ġcar act
last ing
Ġill umin
ĠD omin
ĠT R
ç ĩ
cle ar
. *
Ġtrad itions
Ġbl anc
Ġyouth ful
Ġrel atives
Ġgl ac
ĠS che
no x
Ġv ingt
Ġgu essed
Ġven ait
Ġsa voir
le terre
streng th
ĠV ater
Ġbl owing
Ġkos ka
ic her
am ie
w an
ĠF ried
Ġp ond
t rem
bo ats
ac comp
Ġins ign
Ġa am
great er
V an
D R
ge re
Ġvisit ing
Ġlink ed
Ġso ot
ill aan
ine a
h art
b read
v oll
Ġqu ello
am mar
Ġmon ks
Ġcin q
ĠCap t
Ġc ada
er st
sole te
Ġperson ality
Ġdel icious
ĠN early
Ġle i
Ġla wn
ĠV ienna
Ġaccur ate
Ġleg ally
Î» Î·
Ġback ground
O b
Ä ³
TGC TTG
Ġhar vest
Ġwit ch
ĠT ol
Ġk ant
Ġqu aint
i Ã¨res
ĠP oly
ĠWh it
Ġf rown
Ġs out
Ġl ak
ĠP ont
Ġdecl aration
Ġforbid den
Ġperfor mances
TTTT GCC
Ġrequ ested
Ġvast a
s q
wind ow
Ġshout ing
Ġfier y
Ġdis pers
Ġg it
ac un
av aa
Ġpur ity
ag na
ĠG RE
ĠE tym
ĠB L
TAT AGC
ĠV in
Ġmem ories
ans wered
ĠF itz
Ġguer ra
èģ ²
Ġn ome
Ġcard inal
ä¸ Ķ
Ġci Ã²
Ġzw ischen
Ġcro ps
Ġcal am
ĠAll en
c ru
Ġdep endent
Ġche cked
Ġtal ents
Ġha ue
is it
é ķ
ispens able
Ġ10 4
à° ²
J es
TC ATGC
æ Ĥ
ve lo
Ġinvent ed
Ġconst itu
bl ik
Ġ12 5
Ġrele ased
if er
Ġgu ar
Ġgrand eur
ĠWIL LIAM
ĠFor m
Ġnav y
Ġamaz ement
AG ATAG
Ġnet work
Ġa uss
TC AGTC
r icht
ig te
Ġsens itive
im os
Ġcor rid
c ost
c ow
Ġintrodu ce
ĠW inter
arr ant
Ġalt ro
uss chen
Ġfac ulty
ĠO m
TAA GGC
fin ished
Ġsa ap
du ed
ig i
ĠDoug las
ĠB apt
ug n
ĠR el
Ġpro ced
Ġsuccess fully
Ġo nd
Ġar range
ĠS cience
fl ing
Ġb onds
M A
le en
Ġatt endant
Ġwithd rew
Ġbl own
æ Ł
Ġtum ult
ĠK enn
S ay
aw l
m ess
n os
Ġg ospel
li ps
Ġaut our
Ġc f
Ġtro v
TGG AAAA
TAGCTGGG ACTAC
Ġar rows
Ġw are
Ġbed room
jo ined
Ġsmall est
Ġup stairs
ĠÃ ¦
Ġxx x
ang ement
Ġgrate fully
do in
Ġst ages
am is
ĠF am
ĠL anc
Ã´ tel
Ġsy y
ĠU ND
Ġd Ã¨s
Ġ4 00
lle icht
Ġin conven
ce iving
Ġr Ãª
ĠP erson
Ġhe red
ĠW ILL
z ott
ĠC reek
ĠL ab
Ġes per
ĠBab ylon
Ġx vi
Ġa we
Ġf ib
Ġconc ert
if ice
ough s
ob b
Ġd ates
çĶ ļ
w i
AC AAGG
AC AAAG
Ġemb ark
Ġd iz
ens er
ke ys
AC ATTG
Ġpar as
I bid
up iter
Ġ ACT
at ar
ra re
ĠS yl
æ° ´
Ġacc ent
TAA ATC
ĠF ern
D av
ci er
Ġloud ly
å ĥ
Ġcrown ed
sy mp
Ġaino astaan
Ġinc idents
ATT TTATT
are rs
ĠÃ§ a
TAA TTG
agg i
V al
ĠC rom
Ġviol ently
un ivers
h ours
ĠS om
ĠPl ato
w ide
Ġpersu ade
Ġprocess es
Ġth ief
Ġh ull
isc op
æī ĵ
ond ers
abin et
Ġb ug
Ġmu kaan
Ġencoun ter
ey e
Ġmon ster
Ġwish ing
b ot
k se
app e
Ġp omp
Ġle ve
TG TAGC
os h
Ġen qu
urs es
Ġle ap
Ġru ff
Ġp ote
ad ded
Ġmean while
Ġtrib ute
ĠBr idge
v able
Ġz usammen
Ã³ k
Ã¤ nd
b is
Ġh acer
Ġatt ach
Ġz onder
D i
ig heid
ĠSch l
u ate
Ġst ato
TCC AGG
Ġc erc
h orses
d ue
ĠLou ise
Ġwur den
v Ã¡
de ck
ik ka
Ġsust ained
Ġmor ality
Ġ10 3
ĠR EM
wij l
Ġcig ar
AGC TAG
Ġunder take
sh ad
Pres ident
Ġsa it
Ġh ub
AAG TAC
Ġpl um
Ġm ink
AN S
Ġtw isted
ĠA ff
fortun ately
Ġ10 1
J er
ig ate
TC TACC
AGC TTG
ĠL ib
ãģ Ĺ
Ġin cess
id i
ave z
Ã¥ r
Ġess ay
Ġt ents
Ġsuffer ings
ĠsiÃ¨ cle
Ġin iti
resh old
Ġ2 50
ĠJul ia
Ġto ps
Ġu d
Ġkat se
Ġextr act
Ġpot atoes
Ġg ust
çĪ º
Ġbu ck
Ġapp oint
Ġgro ÃŁen
ĠM erc
Ġliv res
Ġtempt ation
Ġfro zen
Ġmotion less
r aint
i pper
ĠMex ican
ĠN acht
Ġno i
Ġsw ords
h re
ĠtÃ¤ tÃ¤
Î® ÏĤ
Ġ10 2
Ġtra ffic
ĠVict oria
hes is
Ġev ils
_ ,"
Ġc rop
Ġf ain
il itÃ©
ĠPro du
Ġapp el
Ġun common
Ġp us
s se
ĠW ed
res ult
z elf
elle en
C O
TC AGAC
estab lish
O ui
umber land
TGG ATC
Ġtheir s
Arch ive
Ġmer its
Ġkor ke
in j
L o
Ġperson ally
åį Ĺ
Ġprodu ces
act ly
ott ing
12 0
Ġdra ught
Ġpack ed
Ġcar pet
Z e
åħ §
; [
Ġcat hedral
rem ained
Ġintent ions
ne ath
Ġsh ops
Ġrevel ation
ĠHor ace
Ġel Ã¤
Ġ| |
un sa
ACCAC TGC
Ġoccur rence
z Ã¤h
com pre
ĠGu ard
Ã©s ent
Ġch ill
ĠM ain
Ġhy pot
interest ed
am ment
ĠN ay
it is
Ġv ost
Ġpo ol
G T
ĠM utter
Ġrespect ive
te re
es een
åį »
Ġins ens
Ġrepresent ations
ĠH IS
Ġsom bre
Ġaqu el
Ġrel ieve
Ġl ain
Ġpur se
convers ation
H ouse
Ġfro st
Ġappreci ate
Ġse ct
Ġpull ing
var ious
Ġde fic
ist aan
Ġacqu ire
ĠB att
Ġher d
Ġliter ally
Ġto ols
ru g
Ġfl atter
c ases
ĠL ion
com ed
Ġor a
Ġele vation
ĠCor p
Ġcr Ã©
TGG TTG
ĠB raz
t an
Ġtrans ferred
st ones
Ġwas ted
Ġst ately
ĠXV III
em ain
Ġcaut ion
Ġdec ent
Ġdest iny
ic ide
s Ã©
b ons
Ġ15 00
prep ared
bl est
Ġs agen
Ġball s
ove l
Ġj al
Ġcharacter istics
ill et
Ġmon ta
Ġwe ep
as m
Ġcompl ain
Ġu ud
obser ved
Ġchar ms
æľ ¬
tow ard
ĠW oman
TG TACC
pass ion
Ġstrong est
Ġall ies
g ne
Ġhoriz ont
Ġk re
v ic
ĠMiss ouri
ĠDav is
d oll
ĠAnth ony
M or
ĠL ud
Ġn aught
stra ight
ĠN a
Ġhy per
ĠConst antinople
ig li
Ġcourtes y
Ġsc enery
Ġva ult
ĠÏĢ Î±Ïģ
aret te
ĠS um
Ġp Ã¶
ĠL ater
TTTT TCC
g ens
Ġenv y
Ġtravell ers
Ġpri or
Ġv Ã©g
Ġgreat ness
ĠB ra
Ġjot akin
enn is
l ak
re pe
Ġindem n
om ini
Ġbet ray
sub st
ĠJ ahr
Ġli ability
Ġwarri or
opport unity
ç Ĳ
ĠLord s
Ġhere after
ĠnÃ¤h dÃ¤
ĠC AR
Ġent ry
no ch
av asti
ĠG ren
OC K
Ġt Ã¤nne
Ind ian
Ġcultiv ation
Ġround ed
Ġja il
Ġtot ally
ĠN yt
m ates
Ġto wers
Ġsolemn ly
ĠSat an
Ġch ains
Ġtwe e
aj an
Ġcirc um
Ġsk il
Ġarchitect ure
ig ger
Ġv iss
G TGGC
Ġbr isk
Ġbreat he
er os
v iel
TTTC TTC
Ġih rem
b ation
Ġen cl
Ġgro ot
B ur
Ġsh aring
Ġre action
R oman
pie ces
Ġar c
Bes ides
m utta
Ġprejud ice
ĠMur ray
Ġcon form
Ġpen ny
Ġfount ain
Ġdeath s
z ip
ĠhÃ¤n ellÃ¤
og s
ott am
AC TTGG
TTTT CCC
ĠR ight
Ġrou va
Ġd anced
Ġ10 6
Ġdes erved
ri en
ple ased
TAT ATAA
Ġm elt
Ġir re
S outh
Ġem bro
AA TTTTG
Ġyks in
Ġw aving
m ale
Ġpass Ã©
th odox
Ġvel vet
Ġ10 7
ĠW omen
Ġbar ren
ĠScott ish
w ie
umin ous
s oul
anc ies
Ġcorrect ed
Ġwind ing
-- Â¡
hÃ¤ lt
j as
t ou
Ġsix th
Ġfort ress
Ġhy dro
Ġcomm od
Ġsur geon
G TGTG
ATT TTGG
res ol
Ġreven ue
Ġfert ile
Ġor ch
mp i
Ġdu ly
et ary
Ġal ien
ĠGe f
ut ies
ĠG ene
Ġse hen
Ġha bl
ad ie
Ġlod ge
Ġfe eding
t res
Ġver o
AAAA A
AN G
Ġencoun tered
D an
Ġkun n
Ġpied s
TC TTTTC
Ġcl asped
fig ure
ĠK ap
ĠM ist
Ġcook ing
ex erc
ok es
Ġdiv ide
Ġlas ci
Ġret orted
ĠK or
Ġw Ã¤hrend
onne ur
Ġter med
Ġdiv or
è ¢
Ġproc ured
ll s
çľ ¾
ĠT ed
it ur
Ġn au
N at
ĠB uch
j ets
ATC TAG
ĠO d
Ġfort night
Ġpet ty
k ap
ne ur
éķ ·
ch aft
j Ã¤l
L ong
Ġwe iter
D is
aff ection
nat ured
ĠC ec
Ġamid st
Ġver ge
Ġfoot steps
Ġspo il
m ons
j am
T S
ãĢĤ âĢĿ
Ġsh aken
ĠW ir
ĠB alt
ĠN avy
c ult
æ ¢
ack ing
Ġfault s
Ġtre asures
acc urate
Ġc ode
Ġast ron
av aient
y an
Ġent ers
ru ly
Ġmad am
Ġsu uri
Ġter ug
ĠÃº gy
ĠC ad
Ġcir cles
Ġbare ly
Ġimp uls
ordin ate
TAA TGC
Ġillustr ations
Ġsh ine
Ġsecret ly
su cceed
Ġfr Ã¨re
Ġright ly
Ġs ommes
Ġaffection ate
Ġtut te
Ġ10 8
ven s
ĠNich olas
ve ill
che on
Ġto ile
Ġreason ing
ACC TAG
v all
âĶĢâĶĢâĶĢâĶĢâĶĢâĶĢâĶĢâĶĢ âĶĢâĶĢâĶĢâĶĢâĶĢâĶĢâĶĢâĶĢ
d iss
éĿ ŀ
Ġhun ter
Ġpu es
AAATT CC
Ġc ake
Ġtempt ed
Ġreal m
s we
Ġf itting
ok at
Ġtelegr aph
Ġ AA
head s
pers ons
Ġsignific ant
s per
IS E
Å ¿
Ġb its
v ice
Ġimp et
he res
Ġwe it
Ġobser ving
ĠCop yright
Ġhy my
r one
ĠD ISC
ĠA ir
à° ķ
Ġst a
Î £
Ġot ra
Ġfarm ers
Ġremo val
us ch
Ġl in
Ġhe itÃ¤
Ġg ilt
Ġshe ets
Lou is
y o
ĠT ob
ATGG TGGC
Ġmel kein
Ġo ve
relig ion
Ġadv ise
ĠArn old
ong en
Ġb ending
AM ES
Ġob solete
Ġinno cence
Ġend ing
Ġst icks
Ġde leg
ĠI d
cor respond
Ġmoy en
Ġhelp ing
Ġmar ching
ĠKing dom
ĠL ock
Ġsem ble
oi hin
Ġs its
Ġdismiss ed
ĠRich mond
Ġexc iting
Ġun ique
ex pect
u il
Ġon ze
Ġpossess es
Ġag g
Ġh ie
ĠL amb
Ġun willing
oun cing
Ġcl ung
ĠFr iday
NOT ES
ĠD ave
ĠÃ© cri
Ġlad der
ĠĠĠĠĠĠĠĠĠĠĠĠĠĠĠĠĠĠĠĠĠĠĠĠĠĠĠĠĠĠĠĠ ĠĠĠĠĠĠĠĠĠĠĠĠĠ
be g
Ġmarvell ous
TT AAAAG
ho e
Ġdemand a
field s
å£ «
G ive
Ġt une
Ġident ification
Ġhorn s
Ġcont ributed
Ġlu o
Ġer w
S tr
Ġs ession
Ġcas ual
ĠMo ore
Ġar v
ek er
Ġge v
M other
Ġrecoll ection
od o
Ġsin ua
Ġc ows
ĠZ ij
Ġcour te
bel ong
Ġwar fare
ell ement
us a
Ġprop ag
Ġaqu ella
z d
ĠMoh ammed
Ġmission ary
Ġob viously
isher s
... ."
Ġlong ed
Ġbow l
ĠA st
Ġfor s
çĻ ½
ut to
disc overed
Ġseem ing
S ur
Ġsh rill
Ġf ist
ĠH udson
Ġplais ir
ĠW olf
Ġche ese
Ġ10 9
ĠnÃ¤y tti
ĠTh ird
th ou
Ġche cks
èĬ ±
Ġha ute
Ġpe pper
ran ces
ĠS oph
Ġeng age
ĠV e
ject ed
ATT AGC
st ation
ed o
Ġall een
Ġcountry men
N ap
ĠColumb ia
Ã§ ait
aik ka
Ġins cription
hold ing
ill en
ĠV o
TGG TAC
Ġkaik en
pp a
w are
con de
Ġchim ney
il tÃ¤
Ġm ast
Ġtr act
å¼ µ
ĠM un
in stead
ĠG ib
arm i
è ®
Ġdiff Ã©
be i
meth ods
Ġnegro es
Ġju ice
Ġbl ade
spe aking
pro ved
Ġpar mi
Ġfulf il
t est
Ġshe er
ĠC ic
roll ed
Ġo pt
ĠM organ
Ġsz em
Ã¶ p
Ġbo ards
ĠC os
Ġbene vol
Ġecc lesiastical
TTG TAC
Ġess entially
Ġarri v
TG TAGG
d rawn
ĠÎ ľ
Ġdis aster
prot ect
or is
Ġin justice
agg age
pass ing
ç į
Ã© le
TAA TAG
Ġbod ily
b one
Ġpossess ions
ĠF ree
ç ¿
Ġliv re
Y ork
æĥ ³
èĩ £
Ġa che
Ġso p
Ġdou bted
bur st
offic ers
ĠH orn
ĠSqu are
Ġr ational
F in
ile y
Ġcalcul ate
Ġres ort
Ã©rie ur
Ġut il
Î¯ Î±
ä» ¤
ĠS uddenly
Ïĥ Î·
ĠPr ice
ĠL ORD
Ġvol ta
Ġbene f
S uddenly
Ã¡ val
Ġshrew d
Ġproceed s
c ano
Ġdia lect
TC AACC
f avour
Ġrepresent atives
Ġpre ach
og g
Ġtren ches
ick er
ACC ATCC
Ġim itation
v ial
Ġantiqu ity
ĠUND ER
TC ATGCC
Ġsn ake
Ġtw ilight
ĠPro p
Ġst ub
ur able
Ġ ersch
h aired
AC TCAC
ĠAg nes
cl oud
Ġz ie
Ġheat hen
Ġgr ac
Ġdef ined
Ġmen os
ĠS ultan
ĠTr ue
f il
Ġih an
g ard
al ais
Ġgew orden
app ointed
_ ?
Ġrel ate
Ġmel ted
ĠG abri
Ġgrand mother
Ġdis hes
Ġpr udent
. +
lo ading
Ġinn umerable
Ã© ric
Ġintr ig
Ġin du
i ations
éĸ ĭ
Ġer re
ick et
HE N
GGC TCACTGC
n amed
Ġan alysis
Ġb ientÃ´t
Ġr aid
Ġwill ingly
Ġpre ached
b orne
ĠN one
relig ious
ar le
S an
Ġcivil ized
ann on
Ġendeav oured
Ġ1 11
Ġit al
ãģ «
m Ã¤Ã¤n
Ġmach ines
Ġadm ission
Ġveget able
Ġlors que
ATG A
ĠSt ory
Ġpr it
AGAA GGC
u ing
Ġcompass ion
f ra
s aying
Ġen closed
ĠC ow
y ers
Ġl ac
TGC AGG
ĠCh amber
el ed
ATT AGG
ave ment
M Y
pro duced
AAG TCC
Ã¥ n
Ġas pir
Ġprim ary
.) </
ĠN ick
ern al
res pons
Ġcompl aint
N ext
ĠJac ques
Ġopp ress
h den
ATG T
ĠRE AD
Ġjat k
Ġd all
Ġy n
IT E
is ement
Ġaj atte
17 0
ost i
Americ a
Ġequ ivalent
TT AGTC
O B
ins ula
i Ã©n
Ã¤ isen
ĠH alf
Ġnob ility
oll ut
l is
Ġauc une
Ġest ates
F OOT
ĠMor ris
s outh
intell ect
Ġwh ither
Ġrejo ined
Ġdis agreeable
TTC AGG
entire ly
s ound
Ã¥ ng
Ġspread ing
Ġsy ll
ĠVen us
Ġgle am
Ġclot hed
ĠT age
! âĢľ
est aan
Ġle quel
U pon
Ġdes de
Ġst ove
Ġsex ual
ink ling
got ten
en joy
Ġo lette
Ġan guish
E X
Ġgard e
Ġland lord
Ġde gr
Ġtrou v
com men
Ġneighbour ing
ĠH ast
Ġsk ins
Ġi x
Ġhide ous
Ġand ers
Ġz ien
TTTC ACC
Ġinf ring
ĠMil ton
Ġen nem
oir s
NN N
AGGC TGAGG
happ iness
n ach
Ġcons ented
Ġd ip
Ġst ark
Ġvary ing
Ġpol ished
Ġl uc
um i
sa fe
ĠI hr
ug gest
Ġflu id
Ġtyp ical
he ll
ĠH AVE
bird s
Ġmad ness
con cept
er ving
u o
Ġad apt
ios a
z ett
Ġsole il
ive l
ik en
ĠGe b
min utes
al and
Ġproper ties
TGG TCTC
TAG GGC
Ġess ence
am id
ĠIllustr ated
Ġpil ot
old s
C AGG
Ġsch w
In ternational
arch y
Ġyour selves
Ġse it
Ġp ump
Ġevent ually
diffic ult
Ġall ait
Ġmoment o
pres ence
Ġholid ay
Ġrep et
Ġf uss
ie ce
Ġbre ed
ĠW is
ass y
M at
ĠCharl otte
Ġc reek
Ġ13 5
J uly
ent ric
Ġmen i
Ġj olly
L and
y ards
ĠÂ ·
epend ence
Ġsu jet
ch ie
n as
Ġtim id
ost o
GCC TCCC
ĠDo es
ĠÎ¼ Î¿Ïħ
Ġqu ien
Ġwork men
Ġsh illings
let ters
Ġgig antic
s um
re ign
z Åĳ
Ġpro ves
E sp
Acc ording
Ġcomp r
Ġsuccess or
Ġengine er
AAAA TGC
Ġspe eches
Ġl ass
p y
Ġo ct
Ġsevent een
Ġik ke
Ġant agon
TTG TCC
TTCC TTCC
Ġgu id
Ġsm iles
Ġelev ated
ĠĠĠĠĠĠĠĠĠĠĠĠĠĠĠĠĠĠĠĠĠĠĠĠĠĠĠĠĠĠĠĠ ĠĠĠĠĠĠĠĠĠĠĠĠĠĠ
ĠA k
AC TGGC
ĠXV II
n st
Ġinterpret ation
ĠAc ademy
or dered
çļ Ĩ
å® ļ
it Ã´t
Ġune asy
ĠHow ard
ĠSto ck
AC ACCC
V E
Ġquest i
Ġpla ats
Ġc ort
TGTAA TCCC
Ġrul ed
Ġp au
Ġbrig ade
enem y
Ġimpat ience
ri et
ĠIn ter
TG TA
Ġass ign
Ġb unch
-- -+
Ġreg iments
ĠK y
unicip al
ass ed
Ã¡ ba
Ġas ÃŃ
P re
Ġbar gain
az ar
ract ion
ĠU pper
allen ge
á ¹
ĠCount ry
Ġb ishops
ĠF ol
Ġalg un
Ġe pit
ed a
R IST
é ½
ĠCamp bell
ĠN Ã¤
rop he
Ġexpect ation
Ġpun ct
Ġer sten
E li
Ġa it
id d
Ġcord ial
_. ]
bro ke
Ġhad den
Ġdec ree
ĠĠĠĠĠĠĠĠĠĠĠĠĠĠĠĠĠĠĠĠĠĠĠĠĠĠĠĠĠĠĠĠ ĠĠĠĠĠĠĠĠĠĠĠĠĠĠĠ
Ġenjoy ing
ĠP ower
iz ens
ĠSt adt
Ġrob bed
Ġsa ith
OR GE
N ay
ol ics
Ã³ d
P at
ĠT imes
ĠWh atever
Ġbr ute
ete enth
ell is
Ġpet its
AC TTGC
ĠU T
Ġhistor ian
ĠSol omon
Ġthreat ening
Ġstud ying
AC TTAC
rit z
work ing
Ġab use
Ġf oes
Ġst ag
Ġneg ative
ol in
Ġbl ast
Ġdaz z
ĠC el
ĠQu and
Ġgr asped
ĠB UT
ĠC irc
an cia
Ġmed io
w ine
Ġb ows
TC TAAG
ĠJ E
Ġjo ht
c rowd
supp ose
ĠA B
Ġdis charged
Ġsem i
TTTC TTTT
G TGCC
b aar
Ġdec ay
Ã¢ me
Ġmo ves
R ed
Ġs Ã¤Ã¤
Ġch orus
ĠSus an
Ġhast y
Ġbeaut ifully
de ar
tel en
ATT ACC
ĠÃ© crit
cop yright
sh ore
ĠCont inent
Ġresem bling
ĠJah re
Ġincl ination
urs day
Ġdecl ine
åĨ į
Ġappro val
Ġprint ing
ĠK re
ĠV oy
to in
vi Ã¤
Ġstri p
h om
Ġd ijo
ĠJ ove
Ġbr ains
s le
le men
az z
ĠP as
13 0
Ġn ada
Ġvro eg
Ġpro portions
R oy
Ġblo om
Ġze ide
Ġrevol ver
Ġconf ront
em pl
hand ed
Ġn ue
k ul
Ġad joining
Ã± or
urs ing
Ġrem ed
ĠCl ara
Ġl akes
Ġes se
Ġgan ze
Ġy acht
olog ie
Ġam end
b earing
Ġextrem ity
ĠRE F
per mitted
I nt
c apt
Ġcons ul
in nen
er de
ĠL as
ien en
Ġha ught
F ORE
Ġcir cul
Ġstri fe
ĠRob in
è¦ ª
Ġwid th
st ruct
Ġche f
Ġcup s
Ġsurround ings
ĠdÃ© p
Ġt read
AGGTC AGGAG
R uss
Ġpo ika
n te
an es
ĠLu ke
ĠF ive
J o
ĠympÃ¤ ri
g ence
M arch
ĠBon aparte
Ġany how
dest roy
pract ically
ut able
Ġinquir ies
ĠV ern
i ated
B en
Ġwh ites
ãģ ª
arm Ã©e
l anguage
l he
Ġdro pping
ĠSh ort
ci as
ce p
Ä Ľ
al ted
Ġnot ions
Ġper cent
Ġre aches
Ġw re
con tem
n one
çŁ £
og o
Ġtoss ed
b attle
èģ ŀ
ic os
un er
ĠW ord
TTC TTCC
n ur
ou ter
Ġhead ed
Ġr ah
Ġtemp est
¢ ¨
ve li
Ġhar bor
é Ĺ
TT ER
Bl ack
." --
Ġri p
ĠEx cell
me aning
end ar
cul es
Ġare n
Ġobser ver
AC TTAA
ĠRus sell
mo ved
ies en
× Ķ
ĠS aviour
under standing
Ġex changed
Ġsubst ances
Ġcatch ing
Ġd ine
ĠGeorg ia
r us
Ġkw am
Ġte as
ag h
pret ty
Ġve x
ĠK i
ĠN ancy
fect s
Ġlett res
Ġsou ri
trou ble
AGGCC CC
Ġborrow ed
é Ń
ç¬ ĳ
sequ ently
Ġcliff s
ĠStu art
Ġsp orts
f o
Ġexcess ive
Ġf iction
Ġto oth
ist ible
âĢĿ ;
cor rupt
Ġtr amp
Ġexcl usive
Ġl he
ut us
Ġri pe
la very
Y N
Ġgi orno
Ġbon heur
Ġthem e
ch amber
ĠP riv
iter ranean
ATG ATT
ĠMad emoiselle
Ġsch l
ad is
D ick
Ġtr am
Ġmon k
Ġin ve
Ġthank ed
fl owers
Ġport s
Ã§ Ãµes
ĠS ab
Ġn ar
Ġp ony
" ),
Ġsystem s
ç ·
PR ESS
lle y
Ġcons ol
r ou
pr Ã©
ĠDes pite
ĠF anny
cond itions
Ġno str
Ġco inc
Ġrece ives
ĠB ild
ab y
Ġjust ify
Ġth orn
Ġmal es
Ġs ire
ym ph
ĠM ind
Ġsp y
AAAG AAG
Ġnow here
Ġhad e
E in
ate urs
Ġans wering
Ġ186 2
phr ase
Ġy ell
stru ck
Ġloyal ty
m aker
Ã©t end
g al
Ġamm unition
me an
Ġview ing
th m
ph an
Ġpen cil
li p
ie ving
j ug
ĠM es
os ite
Ġded uct
Ġestab a
ues day
z ing
TAC TAC
Ġcon ference
happ ened
A ss
its ch
ĠB ad
z ijn
Ġident ical
ĠA ri
Ġlift ing
TT TATTG
Ġtrav ail
Ġall ied
Ġf ul
Ġex h
Ġbrut al
h Ã¶
Ġj ed
H el
fact ory
Ġc razy
Ġk omen
é ¬
Ã¤ iv
Ġk Ã¤t
alt ra
A ber
Ġtr im
Ġreb els
ĠG a
Ġhonour able
Ġang les
Ġext ension
Ġins pir
inst ant
determin ed
Ġkat sel
ĠY ear
j oka
ĠE arly
Ġjo ie
uk an
ais esti
ĠS urely
Ġlo i
ĠCl ay
ĠS old
AC AT
Ġsk et
ĠdÃ© cl
ĠvÃ©rit Ã©
av ail
on et
ĠB at
dist inct
Ġk ai
ĠLet ter
TTG A
acc ord
pro portion
em et
Ġs ill
TTG AGC
Ġdis like
ĠmyÃ¶s kin
ĠWest minster
Ġpeas ants
Ġr asc
some what
ĠIsa ac
TCC AAC
sim ple
im al
vell es
TC AATG
ac te
ÃŃ o
TAA AGC
g ers
åı £
Ġp aa
Ġst aying
ATG AGC
TAG TTC
ĠO THER
Ġo y
fant ry
am bo
iss on
Ġle agues
Ġthought ful
col ored
Ġmar quis
particular ly
Ġfrank ly
Ġbitter ness
et i
ĠW o
to ire
Ġfact ory
m ate
Ġsett lers
IF E
ĠPruss ia
Ġh Ã¡
Ġpl ague
G TATT
Ġschol ars
ĠJo an
por te
Ġexc urs
AG TTATT
Ġd irt
Ġbro ok
Ġf aster
TGC A
d Ã©s
Ġpre aching
ĠChar lie
Ġeg Ã©sz
Ġconv uls
Ġeff icient
Ġwas hing
Ġl ined
Ġt Ã¡
w ear
ars on
Ġp oll
ĠArch bishop
Ġham mer
t im
Ġreg ulating
a Ã§Ã£o
Ġg aan
Ġrest s
ĠB eth
ĠD al
Ġe teen
Pr ince
Ġoblig ation
Ġorn aments
Ġgu ided
rem em
Ġami able
Ġni iden
T w
did n
ist an
g ue
ĠK on
Ġso fa
Ġun worthy
Ġdef ense
Ġri ef
Ġc ust
ot le
Ġpro claimed
Ġ12 1
at em
Ġpens Ã©e
Ġg eg
att ing
ĠPo et
ĠS upreme
Ġm ett
Ġver w
Ġvolunte er
Ġdepos ited
Ġrub bed
Ä į
olit an
GC TCTG
con v
ĠOff ic
Ġ12 3
Ġ icke
ci us
os c
Ġha j
Ġk ommen
Ġmon str
Ġol is
TGC T
ĠS uff
Ġinstruct ed
Ġl ime
Ġa se
Ġt unte
Ġexhib it
Ġveget ables
ol ia
Ġgra ves
le ar
Ġy le
as en
Ġeloqu ence
æ² Ĵ
Th omas
, =
ãģ ¯
Ġc ess
ĠE z
Ġoff ended
Ġposit ively
pro p
ĠC arr
ĠJim my
Ġinse ct
Ġm undo
G TGAA
ĠR ue
Ġdecided ly
Ġcirc uit
ç ħ
Ġnot able
Ġst ake
Ġpar le
Ġsubject ed
è· ¯
Ġhard er
pe culiar
Ġecho ed
Ġult imate
u w
TAT ACC
ĠH ier
Ġsal ut
Ġcheer fully
ch us
Ġtr ous
Ġvig il
Ġaut ant
Ġrig id
Ġsw im
åı Ĭ
Ġsy Ã¶
AGCC TCCC
Ġfac ile
Ġphr ases
Ġsu llen
TGC ATC
Ġj ar
Ġatt ending
æĿ İ
h ang
ĠH otel
Ġve t
a qu
Ã¤m p
Ġpl ut
t rave
Ġesc ort
Ä Ļ
çİ ī
Ġle het
y ellow
Ġm m
Ġreve al
ĠBar bara
Ġpour quoi
ĠM ort
Ġh ired
EN TAL
TAC AAC
ĠRe view
TAT ATTC
ĠO cc
Ġprof ond
Ġsy nt
Ġpop ul
Ġfu Ã©
Ġla ul
Ġremem brance
b ol
ir i
Ġestim ated
Ġwh istle
ĠM uch
Ġsp er
ĠGod s
ĠF all
ĠBen jamin
TCC A
el in
Ġsuperior ity
t ap
h onneur
âĢĶ âĢĿ
ĠB ert
Ġsw ore
I EL
Ġre verse
Ġspl it
Ġre bel
Ġnie ce
Ġse pt
ĠR IGHT
ra ised
Ġlors qu
Ġmans ion
Ġta iv
re a
Ġinte gr
ific ant
iz o
Ġreg rett
ĠCon vention
ĠBe aut
-- Â¿
s ick
Ġtr ot
Ġfre ed
å° ĳ
Ġw eder
Ġlim b
Ġk Ã©t
au ff
ruct ive
AGGCATG AGCC
ĠK aik
oy s
AM P
AGG AAGC
Ġas p
Ġhoof d
J ac
Ġspr ung
dist ribution
ib i
lic ense
re quest
Ġall owing
TC AT
Ġel k
ul ously
Ġcontem porary
âĶ ¼
ĠM is
vel ope
Ġhor rid
En ter
hens ive
S ax
stru gg
nt il
Ġse asons
Ġawait ing
ĠS ig
TACTC GGG
a illes
ator i
Ġdeliber ately
ĠBy ron
Ġse ura
AAAA AATT
Ġwest ward
Ġst are
AAG TAGC
Ġdem i
éĸ ĵ
Ġfaint ly
Ġop ens
Ġcaus ing
or f
am at
Ò ĸ
Ġmet s
Ġre vers
Ġhas n
Ġthe ories
ing ed
Ġstrugg led
ra ient
S y
ĠD ate
ĠP UR
Ġpath s
ãģ ¦
Ġwer k
Ġ12 2
he ro
Ġsc ent
Ġik Ã¤Ã¤n
Ġcir culation
Ġsan ction
regard ed
Ġbes te
Ã©cri a
Ġpro pre
in ne
AGACC AGCC
res a
Ġcons olation
AGAG AAG
ĠÃ© tr
b red
AR E
Ġv oud
j Ã¤n
Ġsand y
G TGGG
Ġen erg
TAG A
Ġaw aken
Ġfund s
Ġe poch
Ġt elle
Ġo nde
ĠWor ks
Ġfu el
po que
ĠMil an
ĠFore st
v ah
Ġsk ies
AC TGTC
Ġel bow
Ġgr Ã¢ce
AGAC GG
Ġcan on
pu is
Ġho arse
h istoire
ĠCanad ian
Ġ12 9
ĠIM P
AGG ATT
TGC GG
ĠG irl
ĠS abbath
Ġpro w
Ġcustom ary
V en
Ġcro ire
ĠK opf
Ġhonor able
ĠE th
Ġbound ary
Ġpreced ed
Ġchild ish
Ġcerem onies
Ġso pra
asp ing
Ġl ane
in str
å¹ ¾
Ġlaiss er
fortun es
A g
w arm
ATG TTTT
ag li
Ġu los
D el
TGG ATT
Ġpre f
vill age
Ġgovern ed
uli Ã¨re
w yn
Ġ14 5
est one
Que en
ĠZ we
Ġ12 4
p aid
ĠPict ures
unn an
F our
Ġ186 4
Ġtun si
Ġvan ha
Ġhead quarters
Ġ12 8
Ġsyd Ã¤m
d ens
l ant
Ġcor pse
O ST
Ġcommunic ated
Ġhes itate
Ġand ern
Ġneut ral
Ġm og
Ã¶ st
ĠIll inois
et een
ĠĠĠĠĠĠĠĠĠĠĠĠĠĠĠĠĠĠĠĠĠĠĠĠĠĠĠĠĠĠĠĠ ĠĠĠĠĠĠĠĠĠĠĠĠĠĠĠĠ
TC TAAC
Ã© tr
ĠR est
Ġsevent h
AAATG CC
ave l
Ġfore most
our ing
Ġunfortun ately
oi res
ING S
ĠMe anwhile
in ating
ĠInd ies
Ġtr at
Ġdoct ors
ĠS ans
ed itions
Ġell os
h aus
lo yd
ĠN ell
ĠnÃ¤ ki
in ous
Ġymm Ã¤r
Ġdesir ous
ĠAustri an
14 0
ĠWith in
: _
ĠGold en
OR N
Ġniet s
ĠjÃ¤ lleen
Ro bert
Ġsacrific es
Ġs ends
Ġb ite
wit ness
us que
ĠCOM P
Ġinter ven
Ġhe il
Ġpart is
iov anni
ĠD ame
Ġrecoll ect
Ġn g
> .
ĠRe ich
Ġpat ent
Ġwhere by
èĲ ¬
Ġlegisl ation
Ġeh kÃ¤
Ġsuspic ious
Ġre ine
s om
AC AAGC
Ġp ue
Sh all
h un
Ġf ou
f ro
Ġoc chi
Ġexcl usively
Ġk iel
Ġdas h
ĠTur key
hal b
AC TGAC
w anted
ress a
G AGCC
Ġv ars
ÃŁ te
u ble
r Ã¤n
Ġl ig
Ġassem bl
Ġco oked
TAG CCC
ru b
é« ĺ
ien ces
ve m
Ġdep ended
Ġr amp
Ġnin ety
av ant
AGAC AGAG
Ġo ss
Ġfier cely
Ġter ribly
Ġs att
NNNNNNNN NNNN
Ġbut ton
ĠMount ain
ĠB R
Ġdess en
ĠĠĠĠĠĠĠĠĠĠĠĠĠĠĠĠĠĠĠĠĠĠĠĠĠĠĠĠĠĠĠĠ ĠĠĠĠĠĠĠĠĠĠĠĠĠĠĠĠĠ
ien nent
stit uted
Ġ12 6
Ġre prit
Ġli ian
Ġb lij
ĠB ud
t am
Ġwild ly
Ġden en
your self
IR ST
Ġfoli age
TGG T
iz ia
Ġbreak s
å¸ «
qu els
TTG AAAA
Ġsp re
åħ Ń
Ġappre hension
ĠJeff erson
Ġco vers
Ġsub dued
Ġcon te
M c
spe cial
Ġhe ated
Ġpart ially
ul ch
pr is
ĠW ords
Ġsubstant ial
le aves
TAC ATT
Ġharm less
Ġkle inen
Ġlat itude
Ġtal on
Ġcompl ained
learn ed
TAA T
ab et
Ġdetect ive
cour age
Ġ13 3
ĠT W
p id
Ġpr udence
Ġlie ÃŁ
Ġcontem por
O E
ĠEvery thing
ĠH az
G en
s ister
Î½ Îµ
âĢĲ âĢĲ
Ġv aar
Ġbe am
Ġasc ended
Ġbas in
Ġpill ow
Ġthank ful
ze ich
app el
Ġhy po
Ġl ibr
iss ima
Ġport a
im um
ĠpÃ¤ in
Ġter ve
Ġm ac
Ġ á½
Ġpour tant
TAC AGC
Ġ12 7
Ġm ask
m me
ĠL en
ĠD ON
Ġsc andal
åĿ Ĳ
Ġ18 70
y si
pre par
Su pp
ãģ ¨
Ġpred ecess
AATT TTC
Ġbl acks
Ġbord ers
Ġserv ir
ut tered
AGAA A
Ġmon uments
Ġtr acks
Ġpu hu
ĠScript ure
ĠL ind
alt ro
Ġant i
ĠRelig ion
Ġdev ote
Ġrul er
ATAT ATT
Ġfulf illed
Ġser geant
am mer
ab ile
ancell or
Ġpl aint
Ġo ars
p ing
Ġjok u
ÃŃ r
Ġperiod ic
AAAT AAC
Ġth reshold
W or
Ġadorn ed
Ġclergy man
Ġagric ultural
Ġqu ote
est ial
Sec ond
j ot
Ġguard ian
Ġsh orter
Ġele phant
Ġdet ailed
ĠO ly
Ġespe cial
j Ã¡t
Ïģ Îµ
ĠKent ucky
ç ĸ
ĠA M
AAG AAAC
utt u
pro of
j or
ĠN ile
Ġoff ensive
ĠDe an
when ever
un ciation
Ġfra ud
l au
ÏĥÎ¹ Î½
ur ation
ad le
Ġalle in
ĠmuÃŁ te
18 87
ĠN an
å¾ Ģ
Ġdef ended
polit ical
ĠPres ently
ock s
Ġaddress ing
Ġmar che
Ġdr unken
vere nd
Ġg io
os ph
Î¹ Ïĥ
Ġt ank
ko on
Ġpip es
S S
Ġfac il
v ad
Ġa while
TCTT CCC
ign y
art a
f og
P et
ol Ã©on
ATC AAAA
Ġlic ensed
ĠN elson
ĠRober ts
Ġl Ã¡t
ĠSomet hing
i Ã³n
Ġh ue
le ich
Ġshe riff
ĠM Y
TG TTTTG
s ummer
Ġ13 6
Ġot ros
ĠW at
Ġb ounds
Ġom n
Ġang rily
Ġfest ival
Ġpres ume
r il
Ġsa u
Ġclear ing
Ġrevol t
O F
æĥ ħ
sold iers
Ġas ia
Ġfrag ment
d ar
TH ING
ĠS ed
Ġom itted
^ {
av in
Ġst esso
TTC TGCC
Ġappreci ation
mar ine
pre vent
.. ...
ĠB elle
Ã©r ation
Ġant es
Ġcorrupt ion
ĠGes icht
disc uss
ĠTom my
ĠC yr
Ġgoss ip
Ġsano a
Ġsam alla
ĠÃ© ch
ĠB ry
ĠS z
ĠF urther
Ġstat ues
Ġtight ly
Ġcur tains
äº Ľ
nes day
Ġh ats
ACC AGG
p rem
Ġbund le
c ion
TTG T
itzer land
Ġbr uit
Ġshout s
Ġp est
TAG GGG
ĠB RO
Ġper ished
Ġdescend ants
Ġge he
Ġsin cer
r imin
ĠF erdinand
vol ved
Ġadv is
et z
ĠChrist op
gr ic
Ġvoul u
Ġhear th
rit ory
éħ Ĵ
ado res
ĠN ur
TTG ATG
ot re
Ġunder taking
Ġcur ve
GG AAG
Ġsp ont
ag r
ĠÏĢÏģ Î¿
é Ĭ
Ġtur b
TCCTGCC TCAGCC
AAAG AAC
v irt
Ġk ad
ust e
ĠP UN
Ġdam it
reat ing
mon ths
ÎµÎ¹ ÏĤ
Ġproof s
en f
Ġin habited
ul um
f ing
Ġhospit ality
ĠJ upiter
AG TTTAA
Ġt ourn
á½ ¶
rem o
us er
Ġs cept
Ġconcl usions
g ings
ĠS ER
Ġpar oles
Ġsw orn
Ġ ,
Ġcl ad
ĠA bs
TTTT T
ï¼ģ ãĢį
Ġp ett
ATGG TGG
imp ression
Ġstri kes
Ġche v
w arrant
Ġsun ny
ĠAb bey
ĠMount ains
Ġmal heure
cont rol
Ġagric ulture
Ġ19 15
reason able
Ġb oss
Ġte ki
Ġmag azine
Ġdiam ond
Ġexper t
Ġlamp s
ĠReg iment
æ° £
ĠG arden
Ġt ulla
Ġmo le
ĠB an
ĠÃ¤ iti
Ġinde bted
é ©
Ġblo cks
Ġt utta
en force
ĠpÃ¤Ã¤ stÃ¤
Ġtre ason
G R
ge red
Ġm icro
prom inently
Ġe ing
Ġresult ed
ĠQ U
Ġentertain ment
St ate
Ġvill ain
Ġmar s
Ġsyn onymous
pl ate
Ġre duce
Ġb red
Ġsoll te
Ġr ash
GCC TGTAATCCCAGC
Ġfashion able
ĠB ath
Ġappre hend
. (
Ġfac ulties
Ġsole ly
Ġopp ose
Òĸ Ð²
TG TTATT
TGGG ATT
Ġjur isdiction
Ġsl opes
ĠÃ¢ me
Ġs Ã¬
ign er
G AGAA
Ġpil grim
clot hes
Ġ13 7
on ces
Ã© rer
Ġl itt
u um
ig ible
Ġasser tion
ĠJohn ny
V ID
Ġc age
Ġmon op
ĠHor se
person al
Ġdon ation
Ġexcell ence
Ġp atch
lle et
te x
ĠK al
ĠM ason
ĠT art
Ġpas te
TTTC TCC
Ġdi ver
Ġill ustrious
Ġlib re
ĠSo c
author ity
TGC TAC
Ġce iling
Ġminist ry
Ġconstit ute
Ġal ten
Ġsucceed ing
ur bed
er ta
TGGCC CC
mo ins
Ġex ile
Ġca vern
Ġbl iss
inter rupt
ĠW es
Ġ13 2
Ġg rip
sh oot
ĠB ent
TCG CCC
Ġto isen
Ġis olated
Ġtong ues
Ġcon ced
é Ħ
Ġsw ing
Ġmu le
U ne
ĠL og
AL E
ĠChe ster
Ġcomp act
ĠMar ian
ĠCom pl
Ġ19 14
Ġku kaan
50 1
Ġdre ary
ĠM ach
ber o
Ġtrans fer
g arden
> .</
Ġ13 9
ĠP le
un ci
Ã¨ de
Ġtr ab
Ġthe at
Ġread iness
ĠA ud
---- âĢĿ
Ġcomp te
Ġtrag ic
Ġwond ers
Ġprolong ed
ans ion
rop a
Ġmar ine
Ġcomp ilation
ons o
Ġro bes
Ġbar rel
G AAGG
Ġ14 4
su it
Qu Ã©
Ġalleg ed
ĠFrench man
è İ
ko a
ill ard
ĠÎ¿ Î¹
Ġcl am
Ġsell ing
Ġc ot
Ġfran Ã§ais
C ATT
Ġlord ship
Ġp amph
Ġc ose
Ġdis par
Ġassist ant
TTC TCTC
Ġbelie ves
pu blished
Ġk ost
ens is
Ġdirect or
AAG T
pl acement
ĠMess rs
fe ld
ĠdÃ©s ir
ĠB road
é ľ
Ġappe aled
ĠN ether
Ġhe ng
ĠM agn
Ã¤d chen
å¼ Ł
AGCC AGGC
3 00
d ied
em er
Ġfor ts
Ġcon ve
ĠV is
B o
Ġte ille
as zt
ĠMar tha
ĠEd ith
G ACAG
ATG AGG
Ġt iene
im ore
Ġfem ales
Ġarm our
br and
Ġtra its
Ġve le
C AAAA
ĠC her
B oth
Ġ15 5
B LE
Ġch Ã¢teau
Ġmass ive
lim inary
Ġch rist
Chap ter
Ġref res
p ence
or io
k it
' -
Ġflo ated
Ġha v
Ġabstr act
par agraph
TTC ACC
à± ĩ
TR ACT
Ġa th
ik s
M em
Ġbe we
og a
Ġm end
ke ut
ĠAng lo
Ġpan ic
Ġc ie
n orm
ĠSta ff
ri val
ĠB ah
sp oken
åŁ İ
O ther
ĠNE G
Ġv ou
ĠVen et
J os
Ġach ieved
Ġun ite
AG TA
Ġmal grÃ©
ç Ĺ
Ġwe ighed
e inen
it ime
cont ent
Ġex claim
hr t
und a
Ġ13 1
Ġne ki
Ġdign ified
Ġconstitution al
Ġn igh
Ġvoul ait
Ġpat ients
co le
Wh ite
Ġpeculiar ly
w Ã¼r
Ġde ren
Ġmol to
Ġc elles
Ġarri ving
Ġtr icks
int ention
Ġdr um
Ġcons umption
Ġaik a
Î´ Î¹
æ ļ
Ġb aggage
Ġfact or
Ġhu uda
Ġl ungs
Ġk Ã©r
Ġre now
br ig
f aire
spe c
Ġhe ars
Ġperple x
Ġdes olate
c ils
abe i
Ġsw allowed
Ñ ģ
Ġal ert
AAG ATT
Ġattempt ing
Ġfor b
Ġlight er
Ġmad re
Do es
er i
TTG TGG
Ġind ispensable
ĠR io
ĠP ast
å¹ ³
ore rs
s end
Ġcomm end
k ans
to e
Ġ13 8
ĠE VEN
aff en
ĠDu blin
sing le
Ġex ult
Ġp end
ĠCa esar
Ġmet ap
Ġsu nd
ĠSt at
st retched
Ġsuperst ition
es a
Ġorgan ic
Ġan at
ce m
ĠE ff
uk set
ĠC ab
Ġan taa
æľ ĥ
Ġref ined
n iet
lic hes
Ġv ile
Char acter
Ġmar sh
æ ¡
ĠB ag
ĠW enn
Ġr ans
anc er
et on
ĠB OOK
m otion
ll is
ot us
Ġrespect ed
Ġp aix
ab andon
Ġte x
Ġworld ly
With out
diffic ulty
P P
th rown
Ġpun to
Ġlab ours
po et
Ġprincip ally
Ġsp ed
OU SE
D U
ĠB ear
pÃ¤ iv
è ½
mar riage
Ã¼ck en
ĠBet ween
by ter
Ġkol me
S w
TAC T
æ »
ER AL
Ġbur ial
att oman
R om
ul ph
Ġmouth s
D ep
as much
Ġsent ences
Ġmat hemat
Ġz ag
a ime
ĠSc ar
ĠC ott
ĠH ell
Ġvir gin
Ġtrem ble
TCC TTCC
Ġcapt ive
Ġaqu ÃŃ
ĠLeg isl
m pre
Ġguar ante
Ġf az
Ġdra ft
Ġwe igh
Ġin accurate
w atch
ĠOther s
6 22
Ġingen ious
Ġpen alty
Ġenlar ged
TC GCC
elf th
st an
le ments
Ġcan e
ill ustr
Ġfl or
g ende
Ġast i
Ġgr ains
Ġascertain ed
Ã¤ ch
Ġne i
Ġb ri
ac ies
Ġo tti
ĠY an
after noon
Ġr Ã¡
ĠAr abs
Ġuse in
æ³ ķ
ĠC all
Ġawait ed
Ġhy v
Ġ13 4
A ls
Ġ186 1
Ġbre ach
Ġá¼ Ĳ
L eg
Ġpropriet ary
ĠTe am
itt anut
pp y
ĠG ulf
AN CE
H on
supp ort
C GC
Ġenthus iastic
AAC ACC
TTG AGG
æķ ¸
Ġke ys
Ġident ity
TTTT TAG
Ġtrad es
Ġpu Ã²
Ġpour ing
Ġi ets
Ġsweet ness
Ġh ob
pp le
Ġinspect ion
ĠO WN
ç ĭ
Ġswe eping
Ġtranqu ill
Ġvers o
ar is
pent er
od d
Ġsymp athetic
conn ected
est ro
ĠE ver
AG TTTCC
w estern
k im
Ġch ast
Ġcl ut
Ġw rest
Ġconvention al
Ġm Ã¤
iver pool
Ġsh iver
k illed
Ġcomp ound
ru its
g us
Ġlik eness
Ġt ack
ĠN ord
ĠG rund
çĪ ¶
âĢľ _
Ġamb itious
TCC TAG
Ġexam ining
Ġb rows
Ã¤y ty
Ġcast ing
Ġfright ful
Ġa fin
Ġglitter ing
Ġmie le
Ġalong side
Ġtruth s
Ġwin ning
Ġ14 3
n in
ĠÏĥ ÏĦ
Ġeight eenth
app er
Q ui
Ġclim bing
ĠSax on
ĠU SE
Ġrejo ice
cop y
Ġeager ness
TCC ACC
uff s
ĠB ald
Ġse arched
et Ã©
id ers
TAC A
Ġd usk
Ġcons umed
TAA ATAA
thought s
und ered
Ġcont rived
en Ã¤
ist on
Ġd ow
ĠH Ã¶
Ġk ie
it he
u pe
ĠMay or
Ġencour agement
à° ¦
ä½ ı
r Ã©e
Î ķ
Ġt rench
Ġexc ite
åı ĸ
Ġe agle
ĠBelg ium
Ġpart ners
Ġd rei
un ct
W ARD
Ġter race
de fect
ĠRus sians
Z o
ek ing
Ġpro str
Ġhurried ly
Ġho og
Ġtiet Ã¤Ã¤
Ġfl owed
S a
s leep
fl ower
ue il
Ġil man
g lo
isten ing
Ġhe ly
in ian
.. ."
Ġwarm ly
tr as
b ach
AG TTTTG
Ġ14 2
Ġdeep est
å¨ ĺ
Ġteh nyt
f requently
Ġ14 1
Ġsn apped
en as
Ġstart ling
B UR
ĠF OUND
Ġult imately
Ġaug ment
Ġfe j
Ġade quate
Ġes prit
ĠpÃ¤iv Ã¤nÃ¤
Ġad ministr
TC TTTAA
Ã¤Ã¤n sÃ¤
c red
D ans
Ġp ushing
Ġp enn
ĠI mp
Ġ15 3
re ich
Ġbe le
Ġdeb ate
Ġ14 7
Ġbatter ies
ĠC ra
Ġt ief
çľ Ł
our se
ĠM iller
ĠG aul
Ġbe ho
AC AATC
C TAG
ĠHar old
ĠJer sey
Ġdecor ated
Ġkn elt
serv ant
ACACACAC ACACACAC
ĠPers ia
Ġsh ades
ten ir
Ġ14 8
Ġ16 5
Th rough
ĠA U
ĠGl as
ge ois
th ick
Ġte itÃ¤
Ġthick ness
at io
Ġlong ue
ven u
imp ly
Ġencour age
Ġve ter
D em
! âĢĶ
Ġaccur acy
an cient
ĠBl ake
situ ation
Ġdec ir
ess ions
e h
Ġin it
Ġe ch
g ie
m ol
Ġhab itu
r iment
ĠB attle
TCC TCCC
Ġdefin ition
Ġgr Ã¶
Ġmuch o
sur r
bel ow
ĠF ord
sur face
Ġdown ward
é ¢¨
ĠS au
Ġu w
Ġwer de
è ħ
obl ig
TG AAAAC
provid ed
ãģ ĭ
v os
Ġje unes
Ġst ad
inn ers
sett led
Ġconsult ed
Ġsecond ary
TAC TTG
Ġdeser ves
C ong
r Ã©t
ĠThe e
Ġre cess
ĠTh ink
wh is
Ġfaith fully
Ġdispos al
ĠX L
ait si
sim ilar
ĠK IND
Ġus age
ĠG ener
Ġun anim
Ġapp are
Ġrough ly
Ġprom ising
Ġlem on
Ġhigh way
ĠV a
A ut
Ġexpress ing
ĠT Ã¤mÃ¤
ĠÎ¸ Î±
AAAC AAAA
RI G
Ġwithd rawn
Ġmour ning
to k
Ġpo ly
Ġprocess ing
Ġunder taken
sil ence
Ġcomr ade
AN C
Ġres igned
Ġse q
Ġle ver
av am
at hed
ĠP ier
Ġvir us
Ġdiam onds
W E
ĠJ oy
tt es
alt ar
Con st
Ġembr aced
Ġg raz
Ġ186 3
z on
Ġde voir
ĠM oor
s ans
old ing
Ġatt achment
AM E
ĠB acon
U ni
al de
M ag
ĠFr ont
Ġanticip ated
d ella
den ed
ĠJum ala
ain ty
ĠD ante
Rich ard
Ġup set
quis ition
mem bers
Ġin habit
TC ATAC
Ġdread ed
CL UD
J une
Ġ14 6
Ġn Ã¥
wait ing
CE PT
TTAA ATG
Ġblank et
Ġchap ters
as ia
TTTT ATT
Ġja w
Ġsu ms
TAT ATAT
Ġam our
ç ģ
perfect ly
A p
s uggest
Ġc odes
TC TAGC
AAG AGAA
im et
ĠMat thew
Ġint ensity
Was hington
Ġring ing
Ġanim ated
Ġfe ce
Ġmor row
Ġf ern
ig os
AG ATAT
TTTT TATT
Ġ19 00
p red
Ġass ent
-------------------------------- --------------------------------
it ory
soci ety
Ġm acht
ĠB un
ĠChild ren
y gen
ĠFore ign
Ġa er
Ġr ates
GC AGC
ĠIllustr ations
olog ist
Ġ ij
Ġsu lla
Somet imes
TTTG TTTG
Ġshud der
ennes see
ĠMeth od
Ġsc or
Ġappl ause
ne z
m itt
aren ce
Ġp iety
éĩ Į
Ġkau an
ocr at
Ġdis may
Ġsa atto
TTC AAAA
AC GCC
ro i
all inen
Ġo z
Ã¡r t
Ġbeh aviour
Ġj um
ke le
conf idence
ĠM ust
Ġ14 9
imag ination
ĠBrig ade
iv en
ph in
é Ł
IL D
ĠLet ters
Ġexem pl
Ġn ave
Ġv ide
Ġc ush
ĠComm and
Ġhorse back
ĠA ges
he er
Ġsh ower
Ġjoy ous
ĠS itten
m ult
ĠhÃ¤n estÃ¤
Ġt ierra
pro gress
ĠP A
G et
anim al
Ġemploy ee
Ġconvin ce
gle ich
ĠWel sh
great est
z em
Ġver k
Ġman ly
Åĳ t
intell igence
Ġtit les
tain e
Ġtri fling
Ġasc end
ĠSil ver
Ġincred ible
GG AGG
ser y
eg es
Ġfu er
TGC AAC
ud ic
Ġexerc ises
Ġtechn ical
mo on
Ġeng ines
l ass
ĠR ap
AC AACC
Ġhed ge
pict ure
Ġout rage
ĠBE FORE
Ġlibert Ã©
anz i
M ark
Ã¸ r
R ev
Ġy hd
Ġpast or
> .]</
Ġcompar ative
åħ «
Ġas i
Ġc ogn
Ã¤ lle
ä¸ ĸ
Ġs Ã¨
ĠA v
Ġmir th
Ġdisgu ise
iss es
Ġme u
G AAAC
Ġwel comed
mount ain
ĠnÃ¤h nyt
at ra
ict s
ĠG host
TAA GGG
åĴ Į
L aw
ĠSen ator
co al
Ġloss es
Ġbe ide
Ġsc out
ĠB ret
Ġinfring ement
Ġkir je
Ġj osta
Ġa str
che m
ĠGra ham
ĠA ve
ĠK itty
Ġtender ly
p ine
ĠdÃ© b
conscious ness
Ġmouve ment
Ġl ance
ill i
ord an
Ġdev ice
Ġd ai
Ġme ek
uv res
Ġch ival
ĠM aid
Ġo jos
ne e
Ġk autta
Ġlo pp
Ġsec uring
ast ing
spe cies
Ġdr ain
ĠG et
ile e
h ogy
ĠY or
Ġw its
Ġdes puÃ©s
ĠDe v
sw ald
ĠMaj est
st orm
Ġyoung est
Ġn ick
H art
ĠE ight
Ġch lor
ig nty
ĠPh ill
pro vision
AAAT ATG
Ġen er
avail able
M it
Ġmead ow
Ġall usion
ĠG y
æ¬ ²
or ges
beaut y
ĠCrom well
P h
ren cy
flo or
Ġtri als
Ġsin ulle
ĠÎ £
Ġker taa
Ġpra irie
w inter
ATATT CC
on ian
not iced
law s
ĠÏĮ ÏĦÎ¹
Ġinflu enced
80 1
F red
Ġep is
Ġbl aze
Ġunivers ity
ĠH aupt
TCCTGCC TCAGCCTCCC
Ġsulph ur
Ġfid el
H as
cri ber
Ġdecl aring
do ct
supp osed
atic ally
Ã© ly
b Ã³l
ĠN un
Ġgouvern ement
ĠF IT
Ġexp ensive
Ġmanif ested
Ġ---- ,
all isesti
ur ia
av ens
Ġf ores
Ġb ub
ur b
AD EM
F a
ĠA ge
Ġsie mpre
ĠK arl
em br
Ġdisc ours
Ġ186 5
ĠSh ak
Ġ15 2
ri um
ik t
he avy
k set
vis ions
Ġdeb ts
Ġse aled
Ġbo ot
Ġdemand e
ais y
Ġsci ences
c ustom
AA ACCCC
TTC GAG
Ġt enth
ĠO wen
to is
Ġk ert
AAG ACC
Ġman hood
IM ER
Ġimpatient ly
it ative
ow a
ĠS TAT
ell ut
ĠM ensch
ge g
arm y
del ight
pre ced
gr aph
Ġpoet ic
au cer
Ġdo st
is o
ri o
ĠIn ternal
Ġsupp osing
Ã¼ d
Ġport raits
pro vin
mod ern
ĠM ake
IT IVE
ec d
Ġcaut iously
ex ec
Ġinfinite ly
Ġtrop ical
IT ION
_ âĢĶ
t ot
Ġfall ait
Ġcap s
Ġvac ant
Ġit t
vo le
GG AGC
S ure
Ġcomplex ion
Ġfem inine
li qu
ber ries
TCAC ACC
Ġal te
Ġp airs
Ġattract ion
Ïĥ Îº
Ġpre st
og li
itu ks
Ġ15 6
ATT TTGC
Ã© z
Ġlo cks
Ġcher cher
s ad
Ġass im
Ġreckon ed
Ġan al
W ait
Ġpit kÃ¤
Ġcost ly
t in
Ġh anged
IN A
G AGGG
so cial
Ġgro ÃŁe
ĠDe f
Ġvirt uous
ĠD ear
Ġemer ged
Ġcr ust
ĠPro v
Ġtrans cribe
girl s
Ġger ade
H o
Ġ17 5
Ã©r able
ve ux
ĠAll ah
Ġobject ed
ed ar
ik er
Ġan ecd
ĠD IRECT
of reading
ĠÏĢ Î¿Ïħ
Ġear l
z as
on ie
Ġsh oe
Ġ16 1
Ġread s
Ġgi orn
ĠHigh ness
ĠK o
p hy
Ġobject ions
rop olis
R even
è Ĺ
ĠVal ent
Ã© ben
ĠSm all
TTC TTTG
TTTT TTTC
AGCC TCC
Ġbo ven
Ġemp hat
ĠSw eden
TCTC AGC
Ġt andis
Ġsom me
ia le
ic hes
Ġconsider ations
aj at
TGG TG
b ott
Ġre covery
ri que
ol erable
fore st
bel ief
Î¿ Î¯
ĠDe vil
L anguage
Ġp ige
t om
man if
Ġdream ing
con stitution
eg li
ç½ ·
Ġcru de
ĠBar b
á½ ³
Ġsz Ã³
AA TATTC
Ġcongreg ation
ĠS part
Ġm Ã©d
RIC T
AAAA ATC
Ġz war
ob ed
ap se
id an
ed ition
che z
Ġconstit uted
Ġsw inging
om i
al en
z w
Ġun seen
Ġp oder
Ġbes ie
Ġtid ings
TCTG CCC
Ġhu is
Ġser ves
Ġaut or
ab ad
ĠSt ation
ĠE g
Ġed es
c ong
Ġ5 96
oll inen
ĠAugust us
f ried
Ġfool s
CLUD ING
Ġg ird
G L
In formation
re plied
Ġtrans cription
Ġb ata
Ġdelic acy
ĠC reat
TC TAGG
Ġr ural
Ġoly an
Ġs iv
ĠSc ots
Ġoccasion ed
u vat
end ix
Ġo min
Ġch allenge
Ġext ends
TT TATCC
Ġl up
f resh
be h
Ġar ising
ĠI st
åį ĥ
Ġeloqu ent
Ġmir ac
Ġ15 1
Ġwonder fully
ar ter
Ġp ac
á ¸
Ġus ur
Ġt ed
Ġhand ful
ĠO tt
ĠH end
Ġpier ced
Ġme iner
Ġmes mo
Ġcell ar
Ġamaz ed
ĠHer od
voc ation
ĠRob inson
mere ly
Ġlect ures
Ġinser ted
fut ure
Ġrapid ity
ĠBer g
Ġaik aan
Ġper ception
un ately
Ġex alted
Ġ15 4
Ġdissol ved
Ġh ac
Ġfin er
AAAA TAG
Ġbapt ism
ĠÏĢ ÎµÏģ
Ġsolic itation
comp ressed
ç« ĭ
th ro
Ġall em
G AAGC
TAA CCC
Ñ Ģ
Ġdecis ive
rodu ction
Ġro ared
pend icular
Ġvener able
Ġo so
Ġgreet ing
Ġgo al
Ġremark ably
ver te
ta an
w ish
M us
B on
TCC TAC
Ġcru c
Ġhym n
Ġexceed ing
ĠD ad
Ġcomm iss
Ġind ivid
war f
Ġmyster ies
Gr and
Ġapp les
Ġcorrid or
agre ement
4 00
Ġbe v
O p
we ek
eng aged
pro cess
OND ON
re port
Ġeen ige
Ġener get
Ġprosper ous
meet ing
ig hing
th orough
Ġtr ains
r ac
Ġsch Ã¶
Ġsupp ressed
Ġf ren
Ã¤ tt
r unning
ĠÎ Ķ
su iv
ACCC TGTCTC
i antly
app ears
des ire
scar cely
ĠM oon
Ġne u
b ild
ĠDist rict
Ġto es
Ġvan h
Ġch iam
ACC TGGC
TGG TTTT
utter ing
Ġdress es
) /
ĠThom pson
Ġde ceive
ĠGer ald
FOOT NOTES
Ġs ack
ĠO riental
quar ter
Ġc ited
Ġjoh on
AAC TAG
Ġshe w
Ġgl ancing
Î¿ Ïģ
Ġmor als
Ġnous i
Ġcompl icated
ĠO per
Ġhel m
ĠCred its
TAT AAAC
ĠNot es
ĠCh amp
ĠB est
ĠA venue
Ġ18 60
AC AGTC
Ġlo op
Ġme als
Ġrefus al
S m
ĠC arm
Ġj erk
å ĺ
le aving
ĠColumb us
ĠO ber
Ġ18 48
Ãº s
Ġresem ble
Ġmonaster y
Ġg ild
Ġze i
b ag
ab ol
Ġhur rying
b out
Ġorigin ator
f ood
ĠR ud
ĠD um
ak aa
Ġec st
Ã¶ hn
TC GGC
az zo
ENT IAL
anth rop
Ġp ow
TGGCC AACATGG
Ġbene fic
äºĨ ä¸Ģ
employ ed
ĠDar win
em os
Ġge le
fr ag
Îµ Î»
Ġd rown
Ġl amb
vo id
a que
ĠCl are
lik ed
ĠStan ley
per forming
Ġlod ging
P art
Ġend owed
AGGC TGC
ACCC AGC
ud ad
ED IES
ĠLe bens
Ġs all
AG TTAG
ER E
iction ary
Ġa pe
Ġridic ule
** ***
imm t
ĠgÃ©n Ã©ra
Ġfine ly
Ġve c
w orn
Ġv ista
ĠG len
Ġp aar
am atta
ar ches
Ġsembl ait
Ġdesc ending
Ġmel od
Ġ2 20
r ules
Ġplut Ã´t
iv able
Ġey eb
alt on
e hen
r aged
Ġgen o
ĠZ u
ĠNat ural
Ġro sy
ge gen
Ġvo ort
Ġf ath
Ġhorizont al
Ġinherit ance
Ġar ches
v aan
ĠMER CH
P S
Ġv ais
Ġcour ses
ar rived
ĠGl ad
Ġrug ged
ĠPl ate
åº ľ
Ġcompet ition
Ġan gl
Ġp av
f ool
Ġ15 7
éĮ ¢
AAC T
Ġkans s
TTG ATT
TAT ATAC
Ġpers isted
Ġhy Ã¶
Ġen l
AAAT ATC
Ġlad en
Ġth umb
onn es
O TT
alle en
lim ited
ĠEr nest
Ġp iled
ĠCap it
bel ieved
Ġx i
ab ella
Ġtemper ament
Ġloc ality
Ġma Ã®t
u ction
Ġall ora
ĠK ansas
Ġdef iance
ĠW ald
âĢ° .
Ġlay er
ĠCath olics
ĠN umber
Ġindign ant
Ġt Ã¤hÃ¤n
ä½ į
an ze
ĠB us
arr ay
ĠL iv
Ġist ui
ar me
Ġ2 10
Ġapart ments
Ġact or
LI ED
Ġd ÃŃa
Î¯ Î±Î½
ĠTr uth
ch in
Ġach ter
Ġag itated
Ġrapp ort
app y
wer k
Ġmagistr ate
onn Ã©
Ġsquad ron
Ġax e
Ind ians
ĠM inn
Ġtyran ny
Ġel Ã¤mÃ¤
Sc ot
Ġsp ake
Ġch acun
TG AAAAG
Ġref ers
Ġcontra ire
o va
ĠPal mer
AG AAGCC
TAA TATT
Ġcre ed
SE QU
ri ving
Ġsal ary
ĠÎµÎ¯ Î½Î±Î¹
ĠF ro
ab bed
ĠOr igin
ç¥ ŀ
Ġh inter
aÃ± a
Je an
Ġfl ows
Ġpar ap
AGGCTGGAGTGC AGTGGC
ĠC lement
Ġri j
ĠpÃ¤iv Ã¤
æ Ĵ
ers che
r ages
ĠB ene
Ġall uded
Ġpol es
Ġpe ur
ĠAr k
ĠH imm
ĠD ES
Ã¼ m
w y
yn n
Ġrighteous ness
Ġp ope
Ġple aded
D P
Ġcaus a
Ġc ursed
po ir
Ġmir acles
Ġp ense
for me
Ġqu in
e Ã»t
ĠLe ague
d ressed
Ġhapp ier
_ .âĢĿ
s av
EM N
tr ade
Ã´ te
ĠSqu ire
Ġcontin ual
Ġheure ux
AAATG GG
ĠH ir
ĠK inder
ĠCl aud
Ġdiscover ies
Ġs ine
ta le
ĠGoth ic
I Z
ran ch
Ġsw allow
éĽ ²
Ġun c
g ow
Ġmurde rer
å Ħ
Ġlog ical
Ġphenomen on
draw ing
Ġerr and
Ġkok on
ĠÃ¶ ss
ĠmÃ¼ ssen
i op
Ġ15 8
Ġr agged
Ġdraw s
Ġdon ors
Ġstr ained
Ġsim ult
Ġact ivities
ĠG as
Ġau prÃ¨s
p ull
st atus
ĠÃ ģ
ouv re
ell os
Ġmie li
r ary
æĩ ī
t us
Ġ18 50
Ġcommunic ate
ss es
æľ Ŀ
Ġbewild ered
ĠP ic
Ġprof itable
T itle
Ġleg itimate
Ġrich ly
Ġinv ite
Ġdisc retion
Ġst ip
Ġcrit ics
Ġvir kk
ĠB or
Ġre ass
Ġj alk
ĠHim self
ĠT able
C ette
TGC ATT
Ġt ire
ĠH EN
Ġover head
Ġattend ance
Ġstair case
Ġl id
Ġdecl ares
j Ã¡k
TGC TTTC
M ur
t ure
ĠEX PRESS
T en
iel en
ĠSU CH
Ġso ap
Ġsix teenth
ut or
AGAC AGGG
Ġaut hen
éĤ Ĭ
Ġend ured
Ġreal ised
Ġfa Ã§on
Ã¶r te
ren ched
v iv
opport unities
Ġmu utt
Ġ15 9
Ġsever ity
Ġsub stitute
Ã¨ ces
Ã® n
Ġ24 0
Ã©t at
ish ly
Ã¡s z
Ġgrad ual
Ġh ire
ak te
vin ced
Ġtrous ers
k ill
ic ut
its i
Ã© ro
A c
Ġph ant
ce re
AGG TCC
Ġ16 9
ĠW r
IG N
Ġb other
Ã¼n st
ATC ATTC
AACC TCTGCC
Ġ16 8
j el
Ġderni Ã¨re
i bles
Ġdet ached
ĠSe ite
Ġg arn
ĠC ai
ĠMad am
Ġcontrovers y
Ġo lleet
å§ Ĳ
Ġst al
Ġetern ity
iz er
P ers
AAC TGG
TGGG GCC
ĠtÃ¤ stÃ¤
ĠE nde
Ġclass ical
he z
ir ies
Ġsugg ests
Ġsw imming
loc ated
Ġsp ur
Ġindemn ify
Ġ16 2
éĽ £
h ua
ĠG IVE
am us
Ġrep aired
Ġel s
Ġr ites
ivid ed
Ġhu usi
t one
Ġmauv ais
Ġ16 7
ĠAdd itional
ĠG ru
Ġcand les
as er
am y
åħ Ħ
R ele
t ried
Ġdesp ised
t was
ãĢĢ ãĢĢ
_ "
ĠOr d
Ġder riÃ¨re
ĠEm ma
ĠA th
Ġt astes
ĠL ower
s it
Ġref resh
ol ar
ien st
des p
S on
Ġm ules
Ġinvol unt
Ġin land
Ġpre cept
Ġkuul ui
Ġb inary
Ġsh ots
Ġran ch
Ġwret ch
s oft
ĠFlor ida
Ġa kkor
lie ÃŁ
åŃ ¸
TC GGG
Ã¤ ht
am el
ĠREM EDIES
Ġenc ont
b age
d inner
Ġmal ice
ĠD ry
tr ust
t od
Ġarg ued
ĠC ousin
ĠA my
Ġproof read
Ġconf id
Ġdim ensions
ĠK il
igr ants
ĠS ally
TGTGTGTG TGTGTGTG
Ġpersec ution
Ġdet ected
red e
Ġim plic
Ġconcern s
pict ures
TGGG GGC
P OSE
Ġd alle
ĠP OSS
ĠX IX
ĠE ra
en fant
ATC TTTT
ĠC rist
ren s
Ġpal ab
Ġcig arette
d p
Ġbr andy
ĠPl an
sm ith
aff ected
Ġdisclaim ers
Ġimprison ment
am on
ers i
Ġat ro
Ġn ails
ĠdÃ© lic
Ġc row
d les
Ġsl umber
ĠA mer
TTAA TAA
b be
dist inguished
Ġ16 3
ick ens
l ace
er to
Ġcrowd s
c en
olic ited
AGAA GGG
ĠH ospital
the ast
Ġsz Ã©p
zz i
Ġv illa
Ġsl aughter
Ġsuggest ions
Ġdiscont inue
G ATCC
Ġhyper text
å Ķ
Ê ¼
ĠL yd
Ã¨v res
G ent
ow ered
Ġyl Ã¶s
ĠEnglish men
ur dy
Ġsc ram
it ic
ĠH ector
Ġlaw ful
Ġallow ance
ĠMed iterranean
des cribed
ent end
ĠP ra
Ġprim o
famil iar
n ap
z we
Ġmem orial
olog ists
Ġreg ulations
Ġgan zen
Ġpar i
Ġal ma
Ġaz on
Ġexclam ation
mark ed
enn em
ĠE thel
Ġprom en
A H
ib al
Ġqu em
IL LE
ĠikÃ¤Ã¤n kuin
Ġhistor ic
Ġpens ion
vis it
Ġl Ã¤n
ed ged
ut sch
ĠR abb
em pereur
Ġt int
m assa
lic ation
g ement
c and
ĠB ened
Ġvu oksi
Ġc ath
rel ations
Ġw ollen
f ur
ĠR oi
in os
u pp
Ġ18 5
Ġter rified
-------- +
ĠH ab
A ct
f ond
l ower
ĠF eder
Ġar ises
âĢĿ âĢĶ
Ġimp ass
Ġm aken
Ġant woord
ĠLie ut
Ġdo ck
ĠTH OSE
Ġsuspic ions
ĠBru ce
Ġtelegr am
Ġy Ã¶
Ġcan oes
AN E
Ġ16 4
Ġw ink
Ã« n
Ġaj out
po is
TTG TATT
Ġforeign ers
Ġschoon er
od ed
C ath
ac cio
Ġpl ough
AS H
el and
Ġcab e
ĠMag azine
C ast
hard ly
ĠB uff
Ġab st
Ġmin ulla
TAC TCC
m ajor
st ern
Ġsup rem
× ľ
ĠS yd
ol an
h ier
C TTTT
he ment
Ġspect ators
æ° ı
wood s
Ġprev ail
ĠCar ter
ç ¯
M RS
Ġdest it
Ġpear ls
ĠE IN
Ġprof essed
Ġgran ite
Ġnu or
gl ad
Ġgro ve
ĠW ay
ann els
Ġissu es
Ġsa uv
Ġdece ased
Ġjew el
if or
g ments
Ġpre val
ĠÏħ ÏĢ
Ġvot es
Ġsacrific ed
le ading
all aan
Ġen umer
Ġever lasting
Ġexhib ition
j al
Ġwor ried
Ġme ets
Ġimp oss
Ġmik or
Ġrest aur
Ġg ai
ĠT roy
Ġvert ical
LIG ENCE
AL D
ut ton
Ġv riend
R ome
Ġr ider
ĠÃ Ģ
Ġthought fully
re ven
ex tre
r Ã¡
ĠAb ove
Ġpe ep
ĠCON SEQU
id Ã©e
vo it
Ġsincer ity
ATT ATAA
Ġdeg ener
Ġennen kuin
ĠystÃ¤ vÃ¤
Ġkind red
ĠWell ington
Ġdomin ion
about s
Ġtriumph ant
0 5
L ove
Ġspark ling
Ġil mo
æĪ ¿
ĠR ub
Ġhuuda hti
Ġri ot
Ġwel ke
Ġded icated
ter rible
Ġcr ash
V i
Ġcl ust
ĠH arris
Ġl il
Ġbeg gar
zz le
ĠIN CLUDING
m akes
ĠQu el
Ġm ism
Ġco co
Ġw oke
Ġbid ding
Ġfail ing
qu a
T y
Ġm olt
Ġde re
D AM
ĠĠĠĠĠĠĠĠĠĠĠĠĠĠĠĠĠĠĠĠĠĠĠĠĠĠĠĠĠĠĠĠ ĠĠĠĠĠĠĠĠĠĠĠĠĠĠĠĠĠĠ
lo o
Ġsupport ing
ĠtÃ¤yty i
ĠS ue
Ġp ione
Ang leterre
f right
Ġlog s
Ġjoy s
Ġph ase
f ern
ĠCON TRACT
our selves
ĠPat rick
Ġphilosop hers
all eng
ãĤ Ĵ
Ġover fl
Ġlu onn
AGC GC
Ġr icht
ATT TCTG
TGC AAG
ĠP uis
ĠD at
Ġalc ohol
w heel
Ġglo ves
Ġjon kun
Ġmust n
ay e
Ġpleas antly
br as
no ble
åŃ Ĺ
Ġst ren
ĠP ER
M itÃ¤
ĠD U
TG TTTCC
st arted
Ġn ull
Ġen velope
Ġch oir
Ġc able
Ġexpl o
Ã©r Ãªt
Ġno is
Ġdiss ip
ang ular
Ġear ned
hel m
ĠRepublic an
Ġbe ams
Ġen chant
en cer
ĠCar lo
Ġ17 7
m arch
Ġri fles
ĠF L
Ġstr ings
Ġcompet ent
Ġu gy
f ert
ar um
Ġh inder
um pt
ta h
ĠBe au
ĠCont ributions
Î¼ Î¬
Ġgr in
bour ne
Ġblaz ing
á½ ±
Ġbless ings
Ġre nde
ĠPUR POSE
AN Y
Ġident ified
LA F
Ġblank ets
Ġmin eral
AGG ACC
AGG AGGG
TTC ATTC
TGAA TAA
em min
J oseph
Ġol ive
ä¸į çŁ¥
Ġs Ã©rie
G old
ĠI de
ĠF A
Ġreck less
re in
m ass
Ġon ward
ar ine
Ġ16 6
G TTTG
J im
Ġstor ms
oule z
Ġcar riages
en ched
Ġcas o
é ¾
m oral
Ġa ided
ĠD og
Ġens uring
TG TTTAA
Ġpe int
ia e
ĠG em
Ġpro verb
Ġs omm
Ġhun ters
ita ire
å° į
AP IT
all ista
Ġst alk
ĠBr ight
pro v
Ġfail s
ĠO range
è į
ĠM Ã¤dchen
Ġs ant
app arently
ä¸ ĥ
Ġresol ve
Ġmonstr ous
AGAA AGC
Ġassoci ations
cap ital
Ġ17 6
Ġdest ination
Ġter wijl
offic er
Ġtamb iÃ©n
gr ass
Ġannoy ed
pl ing
cult iv
Ġvo ce
Ġrel ates
ĠNOT ICE
Ġpre ference
Ġse ines
Ġf als
Ġoff end
Â« ,
sh arp
ĠA ld
ad m
ĠRh ine
AGAA ATC
ĠĠĠĠĠĠĠĠĠĠĠĠĠĠĠĠĠĠĠĠĠĠĠĠĠĠĠĠĠĠĠĠ ĠĠĠĠĠĠĠĠĠĠĠĠĠĠĠĠĠĠĠ
ut Ã¡n
ĠK it
Ã¦ r
ar lo
ĠBr and
ĠW eg
UB L
as z
ĠAnn ie
mount ains
I US
ĠK a
pos itions
Ġre ins
s itting
is yy
Ġge heel
15 41
E p
ĠIs abel
Ġbig ger
Ġen velop
e vidence
gr ate
Rele ase
for gotten
Ġkomm t
et Ã¤Ã¤n
oil Ãł
Ġpick ing
Ġc rist
Ġgrie v
Ġre ef
ĠA MER
Ġsc ared
Ġdesc ribing
af Ã©
åĲ Ħ
ĠF lem
Ġsumm ons
Ġ17 1
Ġobed ient
se igneur
ĠCarol ine
Ġdar auf
Ġdimin ished
VID ED
ĠB less
Ġill um
ĠRep ort
ir y
we ight
ID ENTAL
Ġind isc
o inen
Ġn uts
Ġseis oi
k ol
ĠJan et
AGC TGGGC
ah a
é» ĥ
Ġwh ale
Vir gin
Ġ q
Ġvis ions
b rill
b road
r agen
á½ ¹
Ġare as
Ġr Ã´le
st ens
ĠP apa
Ġdel ayed
Ġun it
aval ry
F ar
Ġthy self
Ġnav ig
0 6
Ġag ency
à° ¡
ĠP olit
ĠPom pe
guer ite
Ġdo om
TAA TCC
Ã¤ ter
min Ã¤
az ed
Ġnorth ward
M el
Ġ19 17
ĠH amp
Ġl ug
Ġse rene
Ġrul ers
Ġbe m
CCC GGC
f irm
se ct
Ġfant astic
ĠW right
Jes us
Ġlend emain
Ġsk irt
C ur
in cess
Ġfl ush
ess ing
Ïĥ Ïī
ik an
Ġt ait
Ïģ Ïĩ
br is
r ament
comp et
H AM
Ġeste emed
Ġgr ade
Ã¤l tÃ¤
T Y
ast en
priv ate
Ġrest oration
åĲ ĳ
Ġren amed
Ġur ge
da ÃŁ
AAAT A
ĠM ichel
he aven
z ur
ack er
ve ille
C TCCC
Ġshe pherd
Ġpart ir
× ¨
Ġsh apes
d ad
ll es
ĠAl mighty
Ġj eder
y tÃ¤
TC AATT
Ġqu a
und ering
ĠAss y
Ġexp orting
Ġmu ff
Ġpro claim
im b
De fects
ac io
Ġk Ã¶r
ĠE cc
Ġremo ving
ĠA uch
ĠK ur
ĠK ath
Ġbott les
80 9
ĠEm ily
ĠRep resent
ĠComm ander
Ġ8 41
Ġcivil isation
Ã¡nd ose
Ġhe ute
Ġro h
Ġla un
âĢĿ --
Ġass zony
Ġgr inned
TGC TTTT
Ġcham bers
ĠA cts
Ã¼h ren
ik i
C AGCC
he en
th reat
ĠAMER IC
fl ies
it Ã¤t
g om
ĠST RICT
ATT TATG
ACC AAAA
Ġsign or
ĠCont act
Ġensu ite
ĠN ar
Ġ19 16
Îº Î±
Ġp on
Ã¢ che
d urch
m art
Ġtr u
comm ission
Ġ2 30
li ability
Vol unteers
ĠOn line
Ġequ ality
t ender
ATG TGCC
mil itary
ib ile
Ġgener als
ĠF R
Ġun comfortable
Ġcre ep
Ġtra itor
ĠPer o
Ġsouth ward
Ġpl edge
h op
p owder
Ġhun ted
AC AATT
th in
' --
Ġgrow led
Ġkaup ung
ĠkÃ¤Ã¤ nt
NN ER
Ġan alog
Ġcur ved
Ġpres ervation
A pril
ig lia
Ġhil j
Ġaccount ed
Ġconvers ion
J ud
Ġe zt
.) ]
AA ATCTC
ĠRe fund
Ã¤ tÃ¤
Ġmari age
ĠFIT NESS
ĠP rom
tes se
AC TATC
Ġco ins
ĠPol and
ĠL em
Ġsc ales
ĠM olly
Ã į
AG AGGCC
Ġconcentr ated
ĠkÃ¤ vi
EMN ITY
e asily
ĠO ch
Ġdu ck
ĠU rs
ÏĦ Î±Î¹
Ġs ij
Ġro s
Ġ18 80
Ã¤ ttÃ¤
## ##
pg dp
Ġgl au
Ġbrave ly
Ġpel o
mans hip
ĠC ord
ĠNEG LIGENCE
LA IMER
ĠIh nen
ĠIMP LIED
Ġwh it
Ġstation ed
m ile
ĠPro bably
fore ign
Ġann Ã©es
Ġhusband s
Ġr Ã¨
ĠT rib
Ġpra ised
Ġh Ã¡t
ĠNew ton
Ġten ant
Ġt Ãº
ĠC ort
M et
Ġannounce ment
ĠGe off
Ġ17 4
Ġann ually
ĠDISC LAIMER
p ore
åħ ĥ
Ġme zzo
R ec
B R
Ġinto x
sp oke
ĠFre und
Î Ļ
Ġpl ent
ĠCONSEQU ENTIAL
Ġdepos it
ent ertain
ĠP i
poss essed
TGAA ATG
Ġrad iant
Ġstret ching
all ic
ĠBook s
Ġd ined
TC TTTCC
turn ing
val ue
Ġmus k
Uni vers
Ġsu its
Ġpar lor
Ġmot ions
Ġuns olicited
Ġcryst al
Ġinter ference
re v
Åĳ s
Ġgl ances
çĻ ¼
Ġpaper work
Ġlast ing
Ġbl ush
ic io
utt ua
Â ©
Ġan terior
et aan
iet te
ĠB arr
PL AC
Ġz ug
Ġher ald
ĠJum alan
Ġ2 25
Ġlu y
Ġaw fully
la us
pass age
Ã©rie ure
char ities
1 10
ĠEd mund
Dav id
ĠAp ollo
ĠC uba
Ġveget ation
ĠR oll
Ġsub mission
Ġsche mes
u van
Ġja ws
u as
Ã¤ sti
Ġwir k
ĠZe aland
Ġ17 3
Ġz one
Ġfold s
Ġf on
Ġde y
Ġs itte
Ġban quet
Ġfound er
Ġbest ow
acc ustomed
inst inct
Ġc akes
Ġla zy
ĠD ies
ĠSer geant
r and
Ġinflict ed
ĠT ow
ĠW E
asso ci
Ġnav igation
ĠCat hedral
Ġdist ances
isten cy
Ġ20 5
Ġfound ations
sur pr
Ġta vern
Ġshru gged
Ġdemand er
Ġ17 2
ĠS IR
z an
Ġhe ret
Ġvict orious
Ġnu ori
ot ter
R ob
Ġdi vert
em pt
ud ing
Ġrep uls
Ġhur led
dif ference
AC TGAG
Ġc ran
éĽ ĸ
pl a
Ġhon om
C oll
s ides
urn ing
Ġpit k
Ġv ices
Ġto ken
Ã® ner
Ġvari ations
ĠArist otle
D at
Ġimp osing
ric a
Ġkysy my
Ġh uts
Î» Î¹
Ġpolit ique
four th
H igh
TAA AATG
Ġg aining
ĠRe placement
Ġa venue
Ġoun ces
Ġj olla
Ġwholes ome
Ġbre eding
Ġwise ly
Ġg ene
Ġless er
Ġconfer red
ĠNor way
ATT TATC
TAC TTTT
Ġl inn
Ġin fect
Ġro pes
HE S
ab by
ĠVin cent
M aster
ĠÎ´Î¹ Î¬
G TTCC
it ably
Ġsh aped
k ana
est ra
Ġ17 8
s ano
h ob
Ġha il
AAATT GC
Ġlack ing
vell ed
Ġresent ment
ATTAC AGGC
éģ Ĥ
Ġbal con
Ġn ag
b ull
Ġple ad
ple ase
po ints
Ġmagn et
Ġ Ã¤n
Ġeast ward
i u
Ġtreacher y
Ġpray ing
Ġe chter
-- -
ph ants
Ġvie lleicht
Ġj Ã¡
Pres ently
iss aient
Ġt usschen
Ġtu ota
ĠB ack
z ug
Ġto w
ug h
Ġprom inently
ign on
Ġges te
ter a
Ġiv ory
Ġpill ars
) </
all as
ĠPUN ITIVE
Ġimprison ed
Ġha unted
ĠN ation
Ġshock ed
ĠMar ion
po inted
Ġsens ations
ĠPAR AG
nat urally
ĠIND IRECT
Ġm achte
Ġs cient
s hed
Ġ19 5
ĠG iovanni
Ġstru ct
ATT TCCC
AGAC TCC
Ġoff spring
Ġred ist
propri etary
ip ot
M o
Ġbe im
ĠC ost
Ġcaract Ã¨re
Ġbuff alo
Ġk ick
Ã¦ us
D or
Ġ2 12
ĠBo hem
ess i
Ġgar ment
ash a
TC AATC
æķ ¢
Ġlog ic
ĠL ond
Ġde let
Ġste ward
ĠTw enty
Ġv ite
ast rophe
AD E
quest ions
g ives
wr ong
Ġpre l
Ġcons istent
Ġnovel s
ĠÃ ĸ
Ġjatk oi
ĠY ORK
AC TAAG
Ġhaz ard
s ir
ag ements
Ġro aring
Ġwis er
Ġ18 7
GGCC CC
iz ations
æ± Ł
Ġmad emoiselle
Ã ĥ
Ġlab ors
E gypt
u ber
ack et
Ġass ur
Ġhet k
ater nal
Ġh us
fund raising
Ġmen nÃ¤
ust aa
S ub
ĠB ew
ATCTC AGC
anne er
Ġbonn et
Ġ18 3
Ġsuff ice
ATT ATTC
Ġp aces
ĠF Ã¼r
amme red
Ġrepeated ly
Ġgen ial
ĠA lle
ĠT ib
satis faction
Ġgl are
æ¯ į
Ġad ult
Î¼ Îµ
ĠPer cy
Ġ17 9
av ar
ad op
Ġor ator
Ġguid ance
Ġco ats
do zen
ĠK irk
Ġ18 2
Ġco b
Ġtou ches
Ġattend ants
G AGAG
-------- -+
Ġ18 1
Ġrend ering
Ġsqu ire
ump ed
ĠAccording ly
Ġinstinct s
N u
Ġde pl
Ġ19 3
Ġposs ibilities
Ġsle chts
Ãª ts
It s
Ġtied Ã¤
O ver
Ġpar son
Ġcold ly
AAGG AAGG
Ġm Ã©t
Ġspr ach
tell en
Åĳ n
mark et
AAATG GC
ĠH U
Ġpen it
E ach
jour ney
Ġ18 4
ĠAnd erson
ĠCar th
ir as
Ġpro clamation
i is
ĠEX CEPT
kn ife
she l
Ġopp ressed
TTG ATC
Ġbull ets
å¤ ľ
al together
ar ius
de ux
Ġwag ons
Ġnews letter
ĠAG RE
quick ly
Ġtrans parent
Ġtra va
ing le
op hy
ll o
fe es
Ġ2 000
TAA AAAC
ĠD R
at os
Ġle ague
Ġfor getting
ta ils
ĠK aiser
ĠFOUND ATION
Ġres ident
au en
Ġmem orable
Ġnou velles
AGC AAAA
Ġper du
ing o
Ġhu ol
Ġur gent
requ ired
Ġtra it
ĠANY THING
ĠTh ursday
Ġobst acle
me ant
Ġdeduct ible
ĠAn s
C at
ĠE aster
Ġscri pt
Ġinval idity
et c
Ġst if
Ġnot ifies
Ġprophe cy
ĠPARAG RAPH
Ġpr Ã¦
622 1541
Ġfor fe
ĠP oll
Ġdown loading
cur rent
Ġsal ute
Ġcontract ed
Ġrhy thm
ĠSw itzerland
Ġvig our
lock ed
if i
k ot
Ġri v
Ġfor se
Ġde j
ter bury
ĠOWN ER
ou e
ĠJe anne
Ġhon esty
Ġsal on
TTC TCCC
al us
ĠGE ORGE
A tt
ĠI ce
Ã© cl
AD Y
Ġgra vel
ç Ŀ
Ġmus ket
Ġc ured
ĠAGRE EMENT
æĹ ¢
ĠACT UAL
TAC ATC
TGGG AGGC
ĠTr ade
Ġexplos ion
Ġli ver
Ġw uz
ĠBraz il
Ġjung le
Ð ½
est im
Ġflo cks
Ġproud ly
TAC AAG
ĠÎ Ł
Ġplay ers
Ġrequis ite
Ġd ainty
Ġge ht
en ch
åĸ ľ
G TAT
GG AAC
ĠIn n
Ġvo le
Ġpat hetic
Ġox en
ä¿ ¡
Ġstrengthen ed
ĠCh ancellor
ĠÃľ ber
Ġinter rog
Ġk el
ATG TATT
Ġr ann
ĠLu ft
Ġprophe ts
Ġ19 2
Ġsplend our
ien ced
Ġval ued
Ġor che
rie ben
ingu ish
gr ims
concern ed
ĠEm ail
Ġolem me
interpret ed
Ġdit ch
Ġpot ent
ĠAnt on
v ard
Ã¨ se
S oon
Ġsad ness
ĠD ion
à° ¤
Ã© nt
y den
Ġpre liminary
Ġfl ashing
Ġpar fait
Ġinher ited
er oy
ab ilities
ious ness
âĢ ¢
ruct ed
an ia
Ġt iger
ĠDen mark
Ġbloss oms
Ġout dated
Ġstud io
ĠJ am
c aught
PLAC EMENT
Ġrecogn ise
Ġse ren
ver ts
develop ment
Ġredist ribute
Ġaj an
i ors
ĠI g
C onn
ograp her
stit ious
Ġod or
Ġk ut
TA IN
, Â»
ĠPOSS IBILITY
Ã¡s a
Ġprovin cial
ĠE ug
Ġt ough
Ġall ÃŃ
Ġ18 8
ĠJ un
Ġw an
Ġunl ink
ĠPark er
ĠIs le
Ġgro aned
Ġam en
excell ent
Ġsp oon
u be
Ġl b
Ġre igned
Ġpopular ity
col our
Ġdur ation
represent ed
o ient
C reating
\ '
Ġtr unks
Ġsoci eties
C am
Ġt yt
subs cribe
Ġb ibli
Ġab d
Ġaccess ed
ĠDISTRIBUT OR
Ġpossess ing
Ġsie l
Ġtravel s
Ġemphas is
princi pal
h aw
mid dle
le man
è« ¸
t xt
Ġsp aces
Ġein ige
ier to
Ġdelet ions
as to
mer ce
TAG TTTT
TTATT CC
ĠFam ily
Ġplay er
Ġwip ed
Ġt ug
Ġp ose
Ġm im
al on
b ill
ĠI RS
ĠRE PLACEMENT
E mp
ADEM ARK
b itter
TTTC TAA
g room
Ġnon proprietary
Ġarm es
ĠSh aw
ĠREF UND
l ap
ois en
Ġtro d
éĢ ģ
Ġ2 15
ĠS ep
Ġve loc
ĠE rs
Ġconc rete
enforce ability
Ġ841 16
ĠI o
care fully
ĠRed istributing
y on
Ġfel ic
GC TCC
Ġroof s
Ġqu am
ci pl
Ġcl inging
Ġill usion
Ġpropriet or
Ġdes criptions
Ġwe et
hast ly
Ġexp osure
n arrow
ĠL iverpool
Ġf ero
Ġx ii
l ated
Ġpatient ly
as o
IC T
Ġdich o
Ġunder took
s ave
Ã§ aise
n ah
Un cle
Ã¤n ner
Ġgo at
ĠT ennessee
ul ier
Ġlu ok
Ġbeaut ies
ach a
Ġsettle ments
M S
te il
1 15
ĠDem ocratic
Ġl iet
is land
ĠH ipp
Ġsorrow s
ĠT ele
Ġbatt alion
Ġwr ist
Ġrep os
f un
k re
AC ATAG
AAAA TATT
TGGC TAAC
ç¦ ®
ist y
Ġch icken
ĠD iana
Ġpolic eman
Ġsp ending
et ime
ll er
ci ences
uts chen
ign Ã©
Ġstamp ed
Ġu omini
Ġa ught
ks hire
off er
car ry
or ado
AC GGC
g ery
accomp anied
Ġwe e
ĠW it
Ġmo est
Ġtunn el
ĠFran Ã§ois
Ġverd ad
Ġcoff in
Ġvo z
ici Ã³n
s yn
Ġh ors
ĠNap olÃ©on
ĠSe ven
ĠAl f
ve led
Ġappreci ated
Ġmin ing
I LE
AAC AGAA
Ġsp in
Ġment ions
ab o
Ġge hen
âĢĶâĢĶ âĢĿ
Ġsuper natural
It alia
b Åĳl
Ġmo lem
Ġpri x
ĠB ox
we ed
Ġcomp rend
Ġmoist ure
iss ons
ĠCompl iance
e qual
AAAA ATAA
t ong
Ġent iÃ¨re
ĠpÃ¤iv Ã¤n
Ġphilosoph ical
c ido
grow ing
Ġoblig ations
qu elles
Ġfidel ity
father s
Ġdisturb ance
Reven ue
ĠFour th
Ġlev ant
Ġge f
nex ion
Ġc od
other wise
Ã¢ n
ot ros
ĠRed istribution
Ġrev ived
Ġmead ows
Ġe fter
Ġf ishes
ĠH op
å° ļ
ine as
ust en
ĠB ir
Ġhar ness
st al
Ġbar rier
ust i
Ġwild e
ĠSy stem
ÏĦ ÎµÏģ
Ġm Ãª
Ġpu ede
ĠT uesday
Ġrespect ively
T ra
Ġinf irm
Ġaff ords
can ic
( $
ĠrÃ©s ol
TTCC CCC
az on
ĠOr gan
A W
Ġsur rendered
Ġearth qu
ĠA K
Ġcom edy
T out
ĠY ears
TAG AGC
Ġher aus
mus ic
M ajor
ĠE en
G TATG
at ique
Ġobst acles
Ġme inen
giv eness
wonder ful
ĠM au
ĠH unt
Ġve in
Ġhered itary
Ġtunt ui
Ġswe at
Ġrel ics
Ġal tre
ĠS weet
Ġj ul
Ġinqu is
ĠÃº r
h aan
ĠE gy
ĠF ab
ĠK an
Ġconf eder
ĠIND EMNITY
ĠÃ¶ n
Ġri ve
AGAG CCC
Ġide als
Ġb inding
ĠIn te
Ġf Ã©r
TGC ACC
ett om
Ġpir ates
Ġhe iÃŁ
ĠC abinet
TTCC TTC
k ens
Ġp avement
Ġrepr Ã©sent
ĠSt re
Ġaim ed
ce rem
Ġnum bered
Ġl Ã¤h
anim als
Ġf um
A us
Ġill eg
warrant ies
Ġenviron ment
Ġv oted
Ġb ounded
ĠBut ler
Ġgener osity
Î ¤
ĠBro ok
us o
ats on
V ict
Ġto ol
Ġy ksi
Al as
åĮ Ĺ
ĠG on
Ġbr ace
Ġaston ishing
move ment
ĠPG LAF
ex tr
TG AGGCC
TGC AG
er ne
Ġdeliber ate
Ġinv ested
Ġexcept ions
Ġmission aries
end i
Ġl umber
Ġgorge ous
Ġ189 0
Ġd ames
ol ie
ĠH uman
Ġvar iation
åİ Ł
C ON
Ġrepe ating
aks eni
AAAT AAG
Ġhom age
Ġsis Ã¤Ã¤n
Ġresem bles
ip h
l ined
re ux
Ġsevent eenth
hon our
ĠB od
åĲ ĥ
æ° ĳ
Ġmen o
You ng
Ġbe et
spl end
w al
al itÃ©
1 12
Ġn omm
Ġbou che
xt on
pu ole
Ġhorse men
Ã§ ons
S eptember
Ã¤ ksi
be e
Ã©ch al
ren gen
C GG
Ġv og
Ġv ij
be k
Ġan toi
otes que
Ġs ido
s d
OM AS
Ġfar ms
Ġneed n
z Ã©l
ff e
W el
ik Ã¤Ã¤n
Ġar me
Ġf oule
Î½ Î·
Ġstro ve
att ack
ĠMS S
Ġmant le
Ġher ds
Ġpik ku
Ġutter ance
m and
Ġskil ful
Ġgo ose
ĠPar adise
consider ation
Ä ī
AAAT CCC
u Ã©
Ġvirkk oi
Ġmod es
Up dated
ĠBur ton
Ġa Ã±os
Ġf oll
Ġinde finite
Ġdivor ce
Ġc res
ol ine
Ġpresent ing
or ters
Ġpien i
Somet hing
Ġde x
Ġku kk
G TCCC
N A
am ore
Ġscr ut
Ġred ou
çŁ ³
Ġste aling
ob st
uÃŁ te
ic ine
W ie
mon th
ob tained
Ġtiss ue
Ġdam ned
c ris
le in
ign ation
Ġm ens
d uty
Ġ20 1
Ġya wn
ind ust
Never theless
dec ided
ĠÃ¡ t
ĠD ol
Ġwh ir
Ġsee ks
ĠL IFE
Ġjoll oin
Ġne ces
ĠCHAR LES
Ġle b
Ã¤l Ã¤
Ġrib s
t ry
Ġvil Ã¡g
Ġling ered
ist les
Ġ19 1
Ġwol ves
b os
aut e
ĠAlexand ria
prof ession
ĠC ertainly
Ġles z
Ġor thodox
ob sc
Î± Îº
' ;
Ġd Ã¥
br id
æķ Ļ
Ã¶t zlich
sac rifice
Ġmag a
Ġpe c
Ġson st
te li
ĠSp encer
ur in
ĠFran z
Ġdrift ed
k ok
R ose
Ġkiin ni
E P
Ġno isy
Ġworld s
Ġemb od
Ġple in
remem bered
go als
Ġ essa
ect icut
Ãª r
Ġaccept ance
ĠProp het
âĢĿ ,
ons on
Ġfre ight
Ġher r
Ġt ame
S tre
power ful
x es
ĠWall ace
ient os
Ġcre eping
Ãªt res
ĠN os
sto pped
c art
ĠF ritz
we ather
Ġc Ã©l
l orn
ic as
Ġdefinite ly
ub li
Ġqu ell
PLE ASE
Ġpass enger
kan nt
è¬ Ĥ
Ġdisc ord
Ġel Ã¤mÃ¤n
Ġpropri ety
Ġtrad ing
am pton
ast rous
Ġunivers ally
Ġdesp atched
Ġtyr ant
opp osite
Ġk ins
Ġej ac
we ak
Ġst ress
ĠBur ke
p ound
Ã¶ d
Ġh ug
ep endent
Ġcontro lled
Ġhypot hesis
Ã¤ ft
h ou
C TTTC
ret s
å¾ ·
bl ind
PRO VIDED
slow ly
Ġapp rent
Ġconven ience
ĠLie be
Ġ18 30
mist ak
ĠM RS
h aupt
ann en
ĠMel an
å® Ĺ
Ġ2 13
Ġunder neath
vi ol
Ġ20 8
Ġan no
ĠWar ren
Ġ20 3
Ġsh am
clud es
Ġdraw ings
w aar
decl ared
Ġou de
Ġsentiment al
Ġem bar
Ġn ieu
Ġn ahm
Ġoppon ents
ĠP sal
Ġ19 6
Ġenc oding
ĠLe o
s ail
Ġter rific
not es
Ġvie ille
AGG AGAG
Ġimprove ments
ĠÃ©t at
Ġcontinu ing
éĢ £
Ã¼ g
Ġá¼ Ģ
Ġplant ation
ck t
s af
uk se
OR TH
ill as
Ġamb assador
Ġass umption
isen Ã¤
= '
Ġp ulse
Ġappro xim
Ġburst ing
Ġmus cular
Ġs itt
Ġven u
le ad
GG ATC
Ġrelations hip
RI D
Ġcour s
ä¹ Ŀ
Ġ189 8
d ag
Ġsc ope
Ġth ieves
Ġch anced
Ġ, ,
n ost
Ġm ensch
ci Ã³
ind ers
Ġjud icial
Ġcomfort ably
ar ist
f ixed
Ġjack et
ott u
ĠSE C
ly mouth
communic ation
Ġcapit aine
AC TCAG
TGG AGAA
h ij
Ġviv re
Ġdes e
Ġasc ribed
p ure
ĠV ice
Ġcond esc
Ġ ip
TG ATAG
Ġ2 16
Ġelectric ity
ousse au
Ġsl im
Ġr ab
l igt
the e
âķĲâķĲ âķĲâķĲ
LIAB LE
1 19
Ġpara Ã®t
æ į
TG ATATT
ACTT CCC
ĠG un
ĠRo che
ĠDISTRIBUT E
ĠS ant
inst ance
ek t
ĠScript ures
TGGG AAG
Ġappro ve
LIAB ILITY
DAM AGE
ATT TGAA
ATT TCAC
Ġ20 2
TGGCC AAC
ĠL im
ĠE xt
INC IDENTAL
Ġla isse
Ġsex es
ĠW AR
Ġfait es
Ġrec ur
Ġmel ody
as ters
OR S
an se
Ġha ber
ute en
Ġnin eteenth
TG ACCTC
ul er
Ġpublic ly
ĠSy ria
Ġsincere ly
Ġfer ment
ĠL iving
TR ADEMARK
ag it
TGC TAG
Ġsn atched
l ane
Ġ19 4
ĠÃ© toit
vi i
po cket
offic ial
ĠA qu
Ġel apsed
Ġcher ished
ĠFel ix
Ġt am
W il
Ġtreat ise
C orn
ex ample
L at
TTTG CCC
ĠCent ury
Ġno che
Ġjo ining
1 18
int ended
Ġdep ression
ĠCl oth
n om
Ġko hti
Ġlang ue
ĠM and
Ġp Ã¢
Ġdown stairs
éĢ ļ
Ġb ags
Ġ2 17
Ġ19 7
Ïİ ÏĤ
ĠHon or
f inger
id ades
ĠS or
es per
ĠJ ob
Ġkeen ly
TAA ACC
Ġact ors
Ġacqu is
Ã ĸ
acqu aint
Ġcandid ate
Ġse amen
Î ļ
Ġv io
Mart in
ĠPeters burg
pr ises
h ren
Ġref using
fif ty
? âĢľ
Ġble eding
Ġpour rait
Ġwhere upon
Ġinval id
çĲ Ĩ
C K
com posed
Ġtick et
ok aa
ç ¹
ĠM ot
pro c
able ment
ĠS CH
ĠEd gar
S mith
Ġb om
6 00
TGGG TGG
OU T
ĠC art
Ġirres istible
it re
Ġlo is
Ġwor m
Ġyield ing
Ġer Ã¤Ã¤n
Ġsaatto i
ĠP ick
Ġperson n
vent ures
Ġfear ing
Ġ20 4
Ġm amm
min ute
Ġform a
ub en
Ġprom ote
Ġspring ing
1 17
Ġval or
Ġcomm union
ĠH ause
Ġsh rine
Ġsel on
Î¯ Î±ÏĤ
w alls
at ches
Ġb aff
Ġmus cle
ge ven
Ġric he
Ġper Ã²
Ġex terior
Ġox ygen
Ġc og
r ade
Ġm unicipal
ĠO swald
ad ays
Ġ20 9
Ġpe er
Ġv alk
Ġins in
sus pic
ĠT our
Ġwe ars
TCCCC CC
Ġgovern ments
Ġrabb it
ĠJul ian
ĠFle et
Ġp igs
Ġcount ing
Ġimport ed
Ġconc ur
AAGCC CC
Ġun usually
1 13
1 16
Ġarr ay
Ġmin er
ĠL oren
p are
Ġchar iot
M aar
ais iin
ho ven
Ġeven ings
go es
iqu er
vel s
Ġstri pped
vers ch
Ġimag inary
Ġcos as
Ġl ame
Ġpit ched
TATT T
ER Y
dark ness
road s
Ġsust ain
R et
Ġpred omin
Ġhy p
ib ald
TAA AGG
Ġincor por
n uts
Ġseem ingly
pp led
Ġch oc
ĠR achel
ĠO g
Ġlun cheon
il io
AGCC AAG
Ġdaz u
Ġtr as
ches se
ĠC AP
Ġqu o
Ġshel tered
ĠRe c
H and
Ġemploy er
Ġ189 9
Ġfait e
b ia
Ġar isen
Ġreflect ions
éĩ į
Ġen semble
Ġpenetr ated
Ġk ed
Ġdo omed
TG TTAG
Ġtrump et
ch ia
Ġqu este
Ġb ail
hu one
TATT TCC
min ister
Ġdav on
Ġhand led
ĠGo ethe
Ġperson nes
Ġh ank
Ġaff aires
ist aa
Ġn ope
Ġclub s
Ġconspir acy
AGC TGTG
bes ides
Ġinfl amm
1 14
Ġlod ged
ad i
ãģ Ĩ
Ġdark er
Ġn aut
Ġva at
Ġ2 14
old ed
Ġb olt
TAT ATATT
á½ ¸
ves se
Pr ot
ement e
Ġen force
en k
ĠkÃ¤ si
ĠN obody
educ ation
æ Ĩ
Ġeman cip
Ġprodu ctions
Ġmond o
TTG AGCCC
pl ayed
ress Ã¤
ev il
Ġcount ies
F e
Ġensu ed
is ia
ĠV as
ĠDon ald
h anging
af raid
ãģ Į
Ġdo is
Ġ186 6
Ġhonest ly
Ġten ir
TC AATAA
g Ã©n
Ġstor my
P ass
ard i
aken n
Ġadmin istered
Ġloc ation
Ġspo iled
Ġdepos its
do ors
ĠG az
ĠF arm
man a
ĠQu ant
n ames
Ġadj acent
Ġ2 18
Ġremember ing
ĠM aine
Ġl ays
Ġt ac
ĠFor ce
Ġlou der
Ġbin nen
Ġ50 1
Ġsc al
Ġcare lessly
æŃ ¸
hold ers
ç¬ ¬
rel ief
ell schaft
ĠGabri el
ATC TTTC
Ġc ats
Ġban ished
Ġp se
J ew
æ £
Ġmon key
qu ise
TC TTAG
ĠI T
TGG AGGC
ĠÂ ½
ost en
ĠG eg
o id
ĠCom me
ĠPeg gy
st or
ĠS ah
occ o
Ġste eds
Ġcut s
Ġthe ology
Ġt Ã¶r
Ġter r
Ġinc ont
ĠdÃ© v
Ġscream ed
corn er
ed ig
AGC AG
Ġforth with
ores aid
oc al
ĠVol taire
TGC GC
æĢ İ
ĠN ame
Ïģ Ïī
Ġbu ying
Ġho zz
æľ Ľ
ĠM ik
Ġlik ing
ust el
e ken
Ġb rav
Ġstub born
C r
u ole
you th
ous ing
ort a
ĠR ound
... Â»
Ġch at
Ġstill ness
ĠQue bec
Ã¢ mes
ĠT on
ruct ions
y ss
Ġpursu ing
Ġcol onial
Ġdent ro
Ġ26 0
u omo
ro gen
Ġsil mÃ¤
anch o
pl aying
Ġgau che
Ġaccomp an
Ġdiscuss ing
ĠA si
in ig
ri al
ĠF amil
Ġna ur
.âĢĻ âĢĿ
Ġche mist
Ġrejo iced
Ġverd ict
Ġauss itÃ´t
und y
Ġresult ing
consequ ence
ett ava
g unt
Ġal oft
Ġsl ack
Ġer f
Ġexagger ated
fort y
Ã³ mo
it ures
Ġdev out
ĠH of
ĠConfeder ate
ĠO pp
Ġcap o
p il
harm less
ĠÃ©t ant
Ġd Ã»
." ]
Ġfor d
AC TAAC
Ġwho ever
Ġhand ling
Ġpatri otism
Ġl bs
ĠK h
aut eur
Ġindic ates
Ġ20 7
ĠThe od
Ġcyl inder
---- -
GTGG TGGC
Ġvo isi
Ġein z
tr ain
all isen
ĠCons ul
f ruit
Ġn ulla
ĠIn fantry
Ġelect ions
åĪ ¥
m Ã¡s
Ġrub ber
âĢĻ .
Ġf and
Ġll am
g as
Ġvague ly
ĠRem ember
Ġprinci pe
Ġsto oped
Ġ igen
Ġt ribut
Ġ20 6
Ġsupp lement
G TGAC
agg ie
ĠOly mp
Ġac re
ine k
Ġhon oured
Ġ18 81
Ġgo Ã»t
ym men
d ust
Ġfer vent
Ġfr Ã¼
Ġda res
ĠD O
Ġ2 24
Ġ19 9
Ġlaw yers
I ll
AGCC AGG
Ġsec re
ĠÃ© lev
j Ã¤r
ĠK rieg
b ast
Ġb ury
mit tel
j aan
Ġfalse hood
ad ier
ĠCo ast
o ista
å® Ī
Ġpre cip
ĠG ust
ĠK rist
ĠSte wart
do ck
il is
d ign
ĠSupp ose
D iv
ĠS ister
oll ista
Ġs oda
Ġsa av
aise ksi
Ġspe culation
AAAA GGC
ATTCC CC
Ġbo red
super ior
M ich
ĠG ir
or ily
Ġflo at
Ġexert ion
B et
g os
C TGCC
iin Ã¤
arr Ãª
P ut
sh owed
Ġcamp s
ĠNew by
Ġstern ly
TCC GC
æĢ Ŀ
T was
hi Ã¤
Ger many
US TR
ster dam
Ġobst in
Ġmu jer
Ġid Ã©e
rup ulous
Ġshel f
200 1
Tr ue
necess arily
Ġ19 8
Ġkir k
serv ants
Ġfrag te
Ġzeg gen
id y
ĠS M
P u
Ġpoet ical
Ġinterpret ed
ĠB rist
Ġun natural
com position
ĠÃ¤ kkiÃ¤
ĠKÃ¶n ig
Ġmainten ance
Ġtor ch
P op
ĠCor por
vol t
tern et
ID E
Ġt is
ne ck
ittÃ¤ in
ĠB aker
iin a
ĠT it
Ġpart icles
May be
Ġke eper
v ak
Ġform ula
Ġw aking
ic ans
Ġhost ess
Ġexec utive
ç¸ £
ul te
ĠAnd y
ĠH em
Ġhom bres
TGG TGTG
Ġorder ly
Ġdestro ying
be au
ip zig
Ġfo am
ksi Ã¤
e asy
Ġlo ft
ĠRay mond
Ġ2 11
Ġd ome
al tern
AC ATGCC
ATT TAAG
Ġdr agon
Ġcu ore
Ġunconscious ly
Ġeer ste
Ġ19 18
unn ed
eless ly
TGG AAGG
j n
av ent
Ġnat ur
ĠDe fect
ĠN ear
ĠCl ass
C le
Ġno in
? âĢĶ
ĠP it
Ġillustr ate
sent iment
il ib
itt u
0 7
al ainen
Ġast ui
ĠM all
Ġthrow s
tr am
ĠEle anor
ag em
ul p
Ġtrou vait
Ġj ut
me asure
cor rect
m are
k us
Ġref rain
Ġprem iers
Ã© nd
Ġtrou vÃ©
ĠBr id
m Ãªmes
Ġd arted
fortun ate
v iz
oot s
ze ug
Ġexert ions
ĠSe ine
Ġrad ical
Ġtel esc
be ck
Ġchar ter
Ġlo an
w Ã¤r
Ġcompl aints
Ã© ress
Ġroug e
AAC AGG
Ġvarm aan
================ ================
ÏĦ ÏīÎ½
Ġgewe est
d read
man ufact
d ise
AAAA CCC
Ġ*** **
Ġcross es
Ġig az
Ġcr um
fl ag
ĠP owers
Ġdo od
Ġ Åĵ
Ġsingular ly
Ġd abei
Ġr aft
Ġmag Ã¡t
Ġaltern ative
ĠY ellow
ath a
hte Ã¤
Ġge ben
Ġsort ir
Ġrib bon
Ġsu uren
Ġaccompany ing
Ġsc anty
Ġk Ã¤r
Ġpers ist
Ġrem orse
Ġhaught y
Ġst ew
s ugg
cl ed
za am
enc ore
b uck
wel come
TC TTATT
ĠL ap
TAG TTG
Ġp inn
Ġdev ils
TGG TGGC
Ïħ Ïĩ
ow ell
TCCCAAAGTGC TGGGATTAC
Ġpl under
present ed
Ġreward ed
s burg
Ġf rem
Ġeffic iency
par te
Ġexc av
Ġrub bing
Ġcaut ious
ten ant
Ġfurn ace
se ason
Ġhast en
TCC TTTC
ĠMar shal
Ġhon ours
ĠD irect
Ġconf ounded
Ġri re
Ġv Ã¤Ã¤
Ġpatri otic
O THER
æŃ ¦
Ġprospect s
ĠPruss ian
Ġdu b
as iness
Con f
Ġin iqu
Ġfam ine
ĠTurn er
Ġb ureau
m aa
Ġextravag ant
ĠL iz
Ġse us
ĠK Ã¶r
ou che
ĠkÃ¤ rs
Ġcontempl ation
ĠA F
Ġv iolet
ĠĠĠĠĠĠĠĠĠĠĠĠĠĠĠĠĠĠĠĠĠĠĠĠĠĠĠĠĠĠĠĠ ĠĠĠĠĠĠĠĠĠĠĠĠĠĠĠĠĠĠĠĠ
remark able
Ġstates man
ĠH ob
Ġkuning as
äº İ
× Ĳ
Ġpron on
Ġh ood
Ġinter pre
Ġer an
ĠNether lands
Ġpo hj
Ġn uc
sh op
Ġtrans formed
ack now
uks ensa
co ast
Ġbrid ges
Ġfeud al
Ġatt ributes
Ġas cent
not ice
o ise
cap tain
ud i
intellect ual
ĠS andy
Ġy r
ĠR oland
Ġf its
Ġqu itted
Ġsuper flu
est Ã¤Ã¤n
ĠSer ies
J ournal
Ġm ah
j t
ĠI ron
Ġ2 23
H or
ACC ATGCC
Ġmet als
os an
n it
Ġcel estial
Ġey el
ent ity
F re
h ills
Ġwhere of
in habitants
ĠMin or
Ġne c
Ġin asmuch
vel t
Ġg b
Ġ18 40
cit izens
off ered
Ġthick ly
ĠM ans
ine et
eng ine
ism us
ur us
ĠJ AMES
Ġimpress ive
Ġdear ly
N yt
Ġcar n
Ġsh attered
ĠWed nesday
ces e
th ank
Ġtal ks
sur prise
sp n
f rey
AGGCTGG TCTTG
C ONT
Ġt ended
Eli zabeth
å¸ ¸
ĠWe ise
grow th
im an
ie uses
Ġcon verse
w ur
ĠSw iss
Ġw agg
ser ve
G TCTG
r ising
Ġkne eling
auf en
Ġin ut
Ġhe cho
ĠÎ¬ Î»Î»
Ġbe ck
ul c
Ġfif teenth
Ġ2 19
ĠâĢ ķ
Î» ÎŃ
f av
des ign
er va
ĠtÃ¶ bb
Ġsent in
new by
Ġveh icle
Ġ6 00
Ġab omin
Ġgb newby
Ġvolunt ary
Ed ward
and in
,-- "
Ġre ver
Ġm att
Ġ2 27
ĠO ak
ro ar
it ives
Ġtus kin
Ġ2 29
TGC AGCC
Ġtiet Ã¤
ĠH um
ry s
ex ception
me hr
Ġeight h
Ġ186 7
Ġcollect ing
ll i
Ġsal es
Ġnegot iations
Ġr ains
QU E
Ġo be
Ġl armes
ar Ã¡
end om
d well
Ġoun ce
Ġstri ving
ĠMod ern
Ġdo e
Ġlum iÃ¨re
ĠC u
Ġle gg
Ġse qu
ĠMar j
Ġve xed
Ġmult ip
ĠMar shall
velo pp
AC TACC
TAG AGG
ade quate
Ġbreath less
to a
Ġd art
å¯ ¦
Ġmat rim
ĠlÃ¤ hti
ĠG U
v end
ro be
AAAG TAA
complete ly
Ġgr ond
è© ©
Ġneat ly
Ġapp ell
h of
Ġhun ne
TTCC TCC
TTAA TTTT
Ġfoot ing
Ġsovere ignty
ĠD aw
pect ive
Ġse conde
w ir
A bb
Ġdo ings
There fore
Ġmil itia
ĠTr inity
ĠK ol
TAATTTTTGTATT TTTAG
est al
Ġat te
Ġme itÃ¤
Ġt ene
Ġgu ides
ĠS es
TGC TGGG
AAAAG AAAA
AB LE
car riage
Ġa ft
ãĤ ĭ
ĠZ immer
åĲ Ī
Ġfasc inating
Ġenlight ened
Ġair s
ĠChap el
Ġpul pit
Ġrefer ring
s now
Ġqu itt
Ġdet to
expl ained
amp f
re search
Ġm Ãªmes
Ġten ÃŃa
Ġplate au
Ġk op
Ġpag an
norm al
i ature
Ġneighb oring
e us
Ġsand s
ĠM aced
Ġdem on
ĠS ections
è¢ «
we ise
TTG ACC
æĹ ©
Ġindul ge
se at
Ġtais tel
TTC TGTG
CCC AGG
CCC AGCC
creat ing
ĠAb end
re ten
Ġand er
Ġsu icide
TGG AAAC
Ġ190 5
Ġfig li
Mar g
Ġe ve
Ġtri vial
AGAA ATAA
b reath
Ġm est
Ġant ique
Ġw reath
Ġfer m
Ġle e
TAT AG
Ã© lo
Ġan k
Ġ2 26
Ġcomp ensation
Ġadv ances
ĠO LD
Ġr up
ĠÎ ¹
ĠV es
Ġb omb
ill Ã©
ort en
AT ER
Ġbeh aved
ĠW rit
Ġbirth day
ĠD y
ru ce
Ġv Ã¤r
ĠPer u
blic a
le af
ĠExcell ency
pp el
ĠAr beit
leg t
Ġqu ed
Ġ18 82
z al
ch anging
ĠD ann
Ġl itter
ĠD enn
Ġpet ites
sm ile
an as
ĠM R
AAC TTTT
se pt
Ġn ests
Ġpal ms
ĠB ast
ING TON
Ġden ken
Ġrepet ition
Ġsp elling
ĠhÃ¤ neen
ĠHel ena
Ġenerget ic
Ġa fore
Ġhy ster
Ġm enschen
Ġtav alla
Ġp app
Ġgle aming
TT TGGGG
ĠP RE
Ġcl ause
Ġmist akes
Ġ2 28
Ã ¾
o ire
Ġdiff ers
Ġadop tion
b old
AGC GG
ne hmen
Ġphys icians
g ran
ĠS eg
Ġsu pers
extra ordinary
Ġdist rust
Ġass ail
Ġwar like
ab und
Ġprejud ices
Sp anish
Ġg ains
Ġhor rors
ot ten
Ġpres cribed
Ġadmir al
Ġsurv ived
et ing
htt ps
Ġs unt
Ġhi ukan
for get
Ġ23 5
Ġaffl icted
ĠMist ress
ĠFran cia
ĠCic ero
Ġtravel ing
Ġse izing
Ġacc idents
ĠP ART
TATT TAC
Ġeffect ually
Ġc ement
Ġen si
Ġadmir ably
wr ote
prom otion
yl um
ĠAmb assador
ĠH IST
å¯ ¶
Ġt utt
Ã¼l Ã¶n
ĠnÃ¤ kÃ¶
matter s
Ġdro ite
TCTT TGC
ul ter
ĠD in
Ġendeav or
tro ops
åĲ ¾
Ġexpress ly
ĠB av
Ġun p
Ġfew er
Ġmu od
ĠCh in
çĽ ¡
Ġens in
Ġresc ued
ĠWalk er
dist ribute
ĠtÃ© mo
Ġv ene
Ġcie lo
AAAA T
hil st
Ġhu it
Åĳ k
Ġdesper ately
çī ©
Ġ2 21
compan ion
Ġdel ir
at ura
Ġwel cher
ĠS yn
p ired
ĠM lle
Ġpeu vent
st ick
ĠN um
Ġbarbar ous
Fran cis
Ġfig ured
ann te
Ġmoment ary
â Ī
av it
ij an
Ġre ared
ag nes
Ġegy szer
Ġnum er
Ġpr ints
TTTG TAA
ĠTh ames
ĠP ent
ĠH arrison
Ġprom otion
Ġsoci Ã©tÃ©
ĠChar ley
IR D
o co
Ġno od
Ġintense ly
ĠB OY
ĠC hem
z Ã³
ass aan
ro e
evid ently
å© ¦
Ġtrib unal
repe ated
B L
iten ess
Ġdust y
Ġfr amed
M aj
V ar
Ġemer gency
Ġar rog
Ã§ ant
Ġhe res
AGGG AAG
TTTC T
D ist
Ġsk ipper
Ġresign ation
ĠSid ney
ag us
ĠJe ho
ĠB AR
Ġpast ure
Ġprev ailing
ĠB eng
ĠNor folk
ĠC ock
tell t
Ġamount ed
Ã¨ ge
ag in
Ġpl unge
Ġdem ocracy
it ched
ĠM ut
Ġa unque
Ġsoft ened
Har ry
princi ples
Ġsou venir
re con
tell ing
r ak
wer p
Ġot taa
ĠS aints
TTGCAGTGAGCC GAG
ren n
Ġmagistr ates
Ġfind en
Ġkir Ã¡ly
ĠC raw
Ġgro ÃŁ
B ot
ul os
Ġarg ue
spirit ual
end es
ĠIn stitute
ĠR at
Ġ27 0
Ġax is
Ġk Ã©
Ġf ancies
A ch
j us
Ġthread s
lo ver
Ġle icht
u per
Ġdis mal
oton ous
Ġd ot
dist rict
c ot
Ġcommunic ations
ĠG OD
b ows
Ġl ions
Ġrest rain
ĠS now
Ġhel met
Ġ2 22
ĠCr us
ob re
Ġdesp ise
E AR
Ġcontrad ict
TCC TTTT
Ġz ullen
Ġopp ression
Ġslee ve
Ġp ime
Ġdu el
te au
Ġvic ar
ĠR ic
Ġweek ly
ĠSch we
Ġjo ints
ĠK han
Ġh ien
on ing
Ġsel v
Ġd um
Ġhum bly
Ġamaz ing
Ġt ante
Ġcr ush
Ġ18 85
Ġtur f
Ġt usk
Ġl aten
Ġka un
Ġre ly
st aff
t akes
Ġreal ise
ĠMary land
H ur
M R
hens ible
Ġle Ã¡ny
ĠH ook
Ġd ik
Ġdiffic ile
TC ATAG
sil ver
Ġdis dain
ĠSte in
Ġfortun ately
Ġc ach
Ġdemonstr ation
TT ATATG
ut ar
Ġkatsel i
Ġut Ã¡n
Ġkoht a
b ark
Ġexp ose
Ġri ep
Ġt ang
k ne
Ġg um
ĠBu ild
é½ Ĭ
Ġvu otta
çĽ ´
Ġbound aries
Ġcorrect ly
ĠPR ES
ject ion
al er
h ommes
Ġbe ads
red en
une ena
ag as
Ġa kin
Ġb isc
Ġ18 84
ç¶ ĵ
Ġt ener
ĠJul ius
ĠÎ¼ ÎµÏĦ
TAG ATT
ens o
Ġgro an
w is
ĠWh ose
Ġbr Ã»
Ġb ass
Ġgr ammar
Ġm Ã©r
: --"
f ection
Ġih me
Ġfort ified
TAC TGG
Ġna am
Ġsl ay
Ġch alk
ĠÅ Ŀ
TTTG TTG
Î»Î» Î¬
Ġaffect ing
Ġresem bled
æ® º
Ġa vert
Ġdrag ging
work ed
ĠL ear
fin ally
ograph ic
ĠLe ute
ĠG egen
self ish
Ġmil it
ut z
2 50
cy cl
ĠAb d
Qu and
ĠJ ordan
esc ape
like ly
Ġcomprom ise
Ġy oke
Ġsw elling
Ġecc entric
as ivat
Ġstrugg les
G ER
an us
Oct ober
Ġdestit ute
Ġch ron
Ġcons cient
Ġtreat ing
Ġpit kin
Ġazt Ã¡n
ĠB ot
AGATG GG
Ġlaus ui
Ġak ar
Ġsett ling
Ġimpl ies
ig ine
Ġ18 51
AAGC TCC
Ġ186 8
st ery
ĠĠĠĠĠĠĠĠĠĠĠĠĠĠĠĠĠĠĠĠĠĠĠĠĠĠĠĠĠĠĠĠ ĠĠĠĠĠĠĠĠĠĠĠĠĠĠĠĠĠĠĠĠĠ
Ġrem onstr
ĠS ter
ĠE M
H ol
Ġe li
C ould
Ġcro oked
ear l
succeed ed
p ipe
Ġ18 76
Ġcoll a
he b
ĠL ily
Ġrest raint
Ġg ulf
ru le
u et
princi ple
TAA AATAA
AGG TGCC
il ated
e at
Ġsol a
å· ±
Sax on
Ġf ow
Ġni istÃ¤
ĠSw ift
ĠW ait
ĠM orton
col or
Ġl ire
le ine
Ġi ly
M ass
Ġso k
ACC ACAC
TAG ATC
b ottom
Ġfais ant
pop ulation
Ġted ious
ky m
ĠD oc
Ġc yn
Ã¨ nes
Ġrend ers
d ry
Ġprecaut ion
TGC TGCC
Ġent endre
å ¡
_, âĢĿ
Ġchamp ion
er ts
Ġ190 6
Ġen gl
id in
Ġne ue
ell as
Ġoogen blik
y ks
S P
Ġhe er
be w
sem me
Ġst ained
Ġg hastly
ATT TAAC
Ġkun nes
Ġdis pose
D ar
ices ter
Ġbe ans
Ġsh ares
æ º
Ġon nell
AATT CCC
t otal
æĶ ¾
at ical
ĠFif th
ĠV OL
Ġap ology
Ġdec oration
reg on
ĠC and
Ġre se
Roy al
é¾ į
ern a
Ġfav oured
ist re
Ġoppon ent
et hoven
ou cester
Ġex alt
min ent
S urely
Ġst ool
Ġbright ness
writ er
ĠT ab
ĠCal vin
mar ks
Ġla ure
g enden
Ġnin eteen
Ġet wa
k od
Ġun kind
Ġst urdy
iv ent
ia zza
Ġback wards
Ġass uming
ĠÃ¡ r
Ġtend s
z ien
Ġha ul
TTGGC TCACTGC
ch sten
str icken
agn an
she ll
ACCC GCC
hor iz
arr anged
Ġindul gence
Ġtri es
Ġsch Ã¶n
suff ering
? ;
um sy
iff s
ĠC elt
us age
TC TTTTG
ĠHon our
Ġe go
ĠS ent
Ġjust e
Ġw ires
enn i
exp ressed
G ATGG
G TGTC
Ġ24 5
TAGAGAC GGGG
Ġfur iously
Ġ18 71
arm a
Ġh ounds
Ġnur sery
Ġ28 0
I ng
Ġbeg ging
Ġb oughs
N ovember
Ġb ount
AAAG A
W hether
Ġdet achment
ÎµÏĦ Î±Î¹
ĠL ine
Ġpi Ã¨ce
Ġtod ell
cop ied
bene ath
Ġhost ility
ä½ Ĩ
ĠkÃ¤ yt
Ġtro ppo
l ifted
AAAA TTC
st adt
EN ERAL
Ġobst inate
C TTCC
TCCC TCCC
AAAG ATG
iss er
v Ã¡n
Ġas ian
TGG TCC
Ġcomp el
ç ª
Ġmod esty
Ġno blest
ur ait
Ġste hen
) --
Ġres isted
Ġviol in
æ Ĳ
åħ ī
ç Į
C ES
he ars
Ġfra pp
o jen
Ã Ģ
Ġo val
ty ard
ĠChristop her
ĠHEN RY
Ġsen ior
Ġhair s
Ġcou ps
Ġk ii
Ġag it
Ġpar ade
dou ble
ATAA A
Ġmu ito
Ġen ch
man o
Ġprogr am
H all
ue ill
St and
Ġr ond
ĠEgypt ians
ĠDom ain
Ġmagn itude
Ġtar vit
at ie
ass ad
Ġdim ly
P ART
s ak
ĠA gric
Ġbell es
ĠCom ment
Ġwere n
Ġm ute
TAG T
åį Ĭ
Ġzelf s
GC TTC
Ġcondem n
O l
S unday
Ġstand ards
Ġ189 5
!_ "
Ġch oked
UR N
ĠBe yond
Ġappear ances
Ġsleep y
H ard
ay ette
would n
Ġrein force
ace ous
Ġgrim ly
eng o
om ie
Ġqui vering
Ġviol ates
Ġgl oss
Ġgem acht
pract ice
AAATT GG
Ġregrett ed
Ġhum ility
ĠS illoin
iv als
hend en
Ġins ane
Ġho ch
Ġt earing
li in
ÏĦ Î±Î½
é ĺ
ĠS inÃ¤
Ġw ig
g uns
H ER
Ġn en
ĠHol mes
comm od
t um
z s
c ade
ĠDo ch
Ïģ Î·
me as
Ġval ues
Ġid Ã©es
åı ¸
Ġindul ged
ĠnÃ©cess aire
s imply
sp ace
Ġkot iin
Ġexem ple
Ġbenef its
Ġpat ches
ĠtÃ¤ llÃ¤
Ġc ough
ĠAL L
ĠL ONDON
Mar ie
Ġint olerable
ĠP oss
Ġfl ags
Ġobject ive
Ġappl aud
Ġre co
ĠB enn
stud y
ÏĦ Î¿ÏĤ
in formed
ap or
ĠJos Ã©
AGGC TG
ann ah
Ġd unk
é¦ Ļ
M ess
Ġlos es
Qu ite
could n
Ġun question
Ġexped ient
Ġpear l
Ġbl an
Ġo ui
ĠN az
Ġcaptain s
Ġco ve
acqu ainted
ĠC ole
Ã¼ cht
Ġst aat
Ġfil m
in em
Ġte kem
Ã¼ ng
c od
Ġso i
AG ATTTC
O ff
Ġk icked
ĠJ r
e ager
æ ł
rid ges
Ġ18 78
Ġpuis que
s ong
r ado
ob serv
ç ²
it ie
Ġv ader
Ġ23 4
kÃ¤ s
åł ±
Ġtu om
GCCC GCC
inv estig
200 3
Ġfle urs
Ġannoy ance
Ġtu a
rec ord
er ity
ĠJen ny
8 00
E arly
ĠJ ag
Ġsub ordinate
v ari
na ire
Ġghost s
Ġsucc Ã¨s
Ġv arten
Ġel astic
N one
ien cia
Ã¼ st
Ġsc ound
Ġ189 6
Ġn Ã¤mÃ¤
AAAA GCC
A IN
Ġde em
Ġeld ers
Ġcont en
Ġ23 7
deg ree
ĠVir gil
ATG ACC
AAGG AAG
Ġdist ressed
ind o
Ġgl im
Ġpal aces
Ġcam era
Ġes e
squ are
n isse
ord inaire
Ġco olly
N a
E lect
Ġlight ing
mÃ¤ ksi
vi ii
Ġ190 1
Ġno ir
ĠAustr alian
Ġo tras
TGC TTCC
Ġelder ly
Ġm ound
act ing
æĺ ¥
Ġnun ca
ĠHast ings
f avor
wi xt
Ġh ing
ĠR ing
Ġlim p
ĠK ING
10 6
produ ction
aut or
ä¸ ¦
Ġsupp osition
I mp
ĠBurn s
Ġl ump
Ġits ensÃ¤
Ġre el
Ġback ed
Ġcer to
Ġtransport ation
ĠHe art
Ġlo com
ĠF IRST
ik on
tw elve
Ġfr at
ĠV ere
walk ed
ce lebr
Ġpret ence
Ġid iot
Ġindic ation
Ġperson a
Ġo ud
Ġ186 9
ĠHerr n
uk ka
on ation
Ġpe aks
Ġqual ified
Ġn ail
ap art
De cember
ĠV all
Ġcl ar
ĠÎµÎº ÎµÎ¯
C ent
Ġp ots
Ġclass ic
Ġass ented
Ġstock ings
d ate
ore a
Ġtu h
Ïģ ÏĮ
Ġsch ien
Lie utenant
Ġvic ious
ik aan
Ġincre ases
Ġma x
p ap
to fore
Ġv ass
Ġwe ird
acht ig
æ ¹
ant en
Ġmot to
A unt
oure ux
Ġcert ific
iscop al
Ġ189 2
Ġve ces
ĠT op
ĠL icht
Ġhil jaa
us sels
ĠP in
Ch ief
200 5
Ġvast en
- ,
re pro
Ġ23 2
ĠC ase
ĠU ntil
ĠK as
Ġche veux
Ġne gl
Ġtranqu il
Ġdam n
al ions
Ġmem or
ier te
ule ment
int ing
Ġv Ã¡
ĠW agner
B ob
and osi
Ġmes ure
Ġhost s
è Į
TTC TT
m iel
il er
ke iten
Ġext inct
Ġhence forth
Ġcolon ists
w id
Ġsp acious
ĠCo oper
TAT AGG
s up
Ġa ura
Ġbl unt
Ġ23 3
ĠF ate
HE L
ĠCor inth
Ġen se
Ġg ap
ear nest
Ã¼ gen
ÏĦ Î¿Î½
Ġj an
Ġsa rebbe
Ġhapp ening
ATT TGTG
N ational
Ġproced ure
De ath
Ġrad io
Ġcurrent s
e a
Jan uary
Ġspect acles
hig her
Ġst ain
Ġrot ten
ot hed
Ġroll s
requ ent
Ġb ons
s and
Ġz er
ĠB U
ci bly
AAAA AGC
TTTC TTG
h ir
AC TAGG
le l
const ruction
Ġmo or
D et
b ie
ĠRe al
cc o
ih m
Ġpue blo
Ġsub marine
ĠÃ ´
Ġd ances
Ġconject ure
Ġ23 1
Ġequ ipped
Ġbell y
che er
Ġpart out
TCC TAGC
ĠMar se
Ġprem ises
d os
Ġpenetr ate
Phil ip
ĠBas il
Ġcheval ier
Ġsuprem acy
Ġv isto
Ġes cl
é¤ ĺ
C y
p aint
Ġbeaut Ã©
Ġsent ir
ĠE va
op a
Ġentend u
Ġoverwhel ming
S ol
ĠÃ Ī
ĠHar vey
Ġl icht
av ior
Ġtrad ers
ĠBalt imore
ar am
Ġdest ructive
Ġaim s
vo is
Ġcon oc
Ġhe ille
TGAG CCC
Ġric hest
ran o
Ġfl ick
Ġf is
C AGGC
og ne
Ġ3 50
v re
ink o
Ġover throw
Ġske leton
ĠD ark
Ġexpl aining
hem min
Ġaccur ately
ĠPhilipp e
Ġsepar ately
Ġmar ches
Ġle aping
å¸ Ŀ
AGGTGTG AGCC
æ± Ĥ
Ġp ines
Ġvi is
re ce
ĠN amen
should er
E le
G AGTG
ATC AGG
sc ene
Ġth o
ĠCH RIST
Ġsy dÃ¤
Ġn Ã¤m
Ġdark ened
Ġcas te
ĠC ut
Ġ18 72
pract ical
Ġr ist
Ġbe aux
Ġve hement
aur ait
en zie
du c
ere rs
onel iness
æĭ ¿
Ġg Ã©
ar la
R os
Ġth igh
light s
Ġpop olo
ĠIn to
ĠU P
Ġ18 12
Ġs alle
Ġment re
Ġkoht aan
AAAA GGG
atis fied
Ġattack ing
Ġ× Ķ
Ġbright er
ay ant
admir ation
Ġenerg ies
cl ing
ĠKe ep
Ġva ike
le igh
ic ating
exper ienced
app ropri
ĠWeb ster
Ġsat in
aj e
Ġbes ee
Ġ ;
app en
Ġord re
N i
TAT ATTG
Ġb ened
Ġ23 6
Ġka um
ĠP fl
Ġd ing
ĠDe ad
acc ident
Ġretreat ed
ĠC urt
Ġrav ine
AA AGGGC
Ġproject ing
Ġinter posed
ĠI bid
Ġatt ribute
Ġbur g
Ġole v
L ast
Ġwe eds
Ġer ste
ĠB O
Ġint u
Ġd rie
iden ces
K S
Ġt ips
TAT AATT
Ġmink Ã¤
Ġdig ging
Ġmarry ing
Ġwond rous
AAAG CCC
friend ly
Ġthreat s
Ne ither
Ġfor k
Ġt asted
Ġwicked ness
Ġengra ved
Ġsign ature
Ġan ew
Ġim itate
ĠRog ers
Ġuncertain ty
g io
Ġtroubles ome
ATT TGGG
TTC TATT
Ġleg ends
Ġdomin ions
Ġmour ir
Ġeyeb rows
Ar thur
Ġsol che
E ss
ĠU ng
enden cy
ĠGu ards
Ġkn ives
Ġbright ly
Ġ18 46
Ġdispers ed
ub b
AGGG GCC
ATTC ATTC
Ġn ing
Ġredu ction
Ġintim acy
rew s
div ision
Ġf illes
Ġsh an
Ġdiss im
Ġcontempl ated
cl ad
N ature
Ġb ait
Ġsuiv ant
w right
Ġentr usted
," --
Y S
Ġf Ã¼hr
Ġk ent
ĠNew s
Ġdisapp ro
Ġsc and
Wh atever
Ġt at
ĠD I
Ġlif etime
st ir
yd Ã¤n
ĠP ep
Ġv ah
Ġvo ici
Ġen forced
Ġpro cur
M ount
ĠV it
Ġexcept ing
Ġcr adle
ang ling
Ġtre asury
em ption
incre ased
ĠEng ine
AAG TTTT
aur ais
ip a
Ãª che
Ġperil ous
Ġsec ular
Com ment
ena issance
v t
TC TTGCC
fight ing
know s
b il
Ġg out
Ġcon nexion
TCC TCTC
Ġest os
ĠSyd ney
Ġfait s
Ġfrag rant
des cription
ĠFran Ã§ais
S ix
ĠL an
Ġingen uity
Ġha iled
Ġw y
Ġmet sÃ¤
C f
Ġst ating
Ġkiss es
ens on
o ons
Ġhe aps
Ġred istributing
Ġc alf
Ġmess ages
Ġ190 7
pon de
un en
G ACAC
Ġsag t
kk el
ĠE ine
imp at
Ġtub es
ug al
et ten
Ġcont ribute
TGAGG TCAGGAG
ĠÐ ²
É Ļ
Î¼ ÏĢ
ĠKaik ki
ĠÎµ Î¾
ĠC up
ĠH ood
ĠBatt alion
_. )
Ġ9 97
Ġun broken
Ġ23 8
bes ide
app ointment
Ġple a
go vern
Ġcomm unities
Ġtempor al
W ater
az ing
Ġexception al
ĠMan chester
Ġch ois
ĠHug o
Ġim b
Ã¼ck e
Ġmen ace
gentle men
Ġoverwhel med
G TATC
ĠKun st
iff Ã©
Art agnan
Î± Î³
B ill
AY S
stell ung
Ġ190 4
Ġfore going
å¸ ¶
ĠS PE
TTC TCTG
ATATT GG
Ġm ature
Ġ24 1
Ġexec ute
Ġpract ices
ACC TG
w orship
ue ur
I ls
und ers
G TCAC
AAAA ATAC
AAC AAAC
Ġsm oked
Ã´ r
Ġacquaint ances
interrupt ed
ĠB rief
Ġdifferent ly
Ġdefect s
ign es
ĠS A
Ġbe lla
Ġhan em
Ġsur m
Î¿Ïį ÏĤ
è¨ ±
as a
w at
TTTG TAG
op ening
ĠÎº Î¬
). ]
ATC TCTC
Ġnostr ils
ĠIn f
Ġon to
Ġsuper b
au ld
ĠÃ© ton
ÎŃ Î»
ĠRail way
Ġg ibt
AGAA ATT
D own
Ġ18 75
ĠprÃ©s ence
y ttÃ¤
ma al
Ġ18 79
ue ux
Ġlegisl ature
AGC AGAG
v iron
Ġ18 77
O OL
Ã¡ bb
ĠPl ant
Ġbab ies
Ġno oit
ĠXX I
aff airs
hib ition
ĠLouis iana
P en
Ġfor cing
k am
Ġcount less
em ment
G AATG
Ġas io
ĠSher man
ĠCl aude
ct ive
Ġbes onders
G ATGC
Ġproduct ive
ĠÃ¶ r
ĠP yr
Ġe ind
Ġover looked
arch itect
ĠFl ora
d ling
ut ant
Ġcous ins
Ġ189 7
atter s
Ġem me
Ġgu Ã¨re
Ã¼r lich
Ġattent ive
h aj
Ġdev ices
ok er
ĠCan al
Ġ18 54
Ġtrou va
im mediate
ak ter
Ġur ging
ĠM aud
Ġshadow y
to ps
Ġdepart ments
sh aw
y tt
grate ful
R el
ex ceed
st age
s cience
lo ÃŁ
Ġfle x
Î Ŀ
o inkaan
ACC ATT
AAAA TTG
Ġ18 57
Ġmet e
ĠSee le
um at
Ġst ond
Ġacqu ies
se ction
av ian
Ġexpress es
Ġr ags
Ġaspect s
AAC GC
Ġav ar
ser ious
ac cia
Ġke inen
cil iation
e il
GTG ATCC
onn et
200 4
ĠprÃ© f
ĠSic ily
Ġv re
satis fied
Ġcon os
Ġ189 1
ĠWell s
l ives
Ġa cht
æ ¶
ro of
ATG AGCC
TAG TAC
th ia
m ic
à° Ł
Ġ18 89
Ġins ight
re ach
ĠP AGE
Ġperson age
ĠSo cr
Ġpain fully
Ġsav ait
es poir
Ã©t abl
ĠP lymouth
Ġheav ier
ĠHar riet
ĠEmp ress
iv ia
p ad
Ġsp ears
ĠG ate
mer cial
Ġplan ets
y ar
ĠIn ternational
ĠE ducation
Ġadm on
Ġka uni
Ġhang s
ra u
Ġappro aches
ÏĦÎµ ÏĤ
a ume
iss ante
id ian
iz io
Ġdiplom atic
Ġb Ã¢t
Ġrul ing
Ġsin ner
ĠT E
spe ech
Ġbu iten
M ON
Ġ189 3
G TTGG
ot i
Ġvale t
Ġcamp agne
Ġaf ar
acher s
or re
ell s
ĠAch illes
TAA TGG
Ġr anges
Ġ18 83
Ġanni hil
Ġgener ously
Ġquar re
id den
ĠP ole
Ġaf oresaid
know ing
TTG AGCC
f lex
Ġasc ending
Ġcav ity
Ġ24 3
Ġn acht
it at
Ġvigor ously
t ous
Ġf ave
ATC TCAC
Ġkom t
è¡ £
ĠFort une
if en
the st
ĠP lease
j ur
AC AAAAC
Ġst ing
ATATG GC
ĠÅ Ĺ
Ġbrid le
Ġer g
expl an
M ir
Ġhon ored
ip el
Ġperf ume
mo ire
w aters
Ġsold ats
Go vernor
Ġcler ks
th ood
Ġexpl ains
AAG AG
Ġcalam ity
se vent
Ġk unde
Ġst ell
Ġun b
Ġ26 5
z io
ree ks
Ġlod gings
ĠTre asury
ĠCar los
ch ait
ĠDE AR
S END
my ster
ro pe
Ġer zÃ¤h
h s
Ġsp an
TTG TTTC
TGGCTC ATGCC
ĠD olly
Ġ24 6
Ġauthen tic
TAA TTTC
d rew
ĠLiber ty
z ung
Ġorigin ated
Ġhin aus
Ġlo af
Ġdet ained
Ġex asper
il ess
Ġm ouse
b irth
Ġembarrass ed
part ies
ĠC row
ment Ã¤
Ġimp ost
oss en
p urch
ĠT an
ĠE lla
Ġdis m
OV E
Ġsoot hing
GG TGG
t rying
oth s
Ġcons umm
ĠRich ards
Ġto y
Ġfran ch
Ġalt ijd
ref und
Ġman i
Ġmin usta
Ġcir const
C amp
Ġ18 86
Ġihm is
qu ets
Ġban ner
Ġembark ed
Ã© nek
Ġsal oon
Ġstro de
ĠPal estine
Ġlegisl ative
è ĸ
Ġveloc ity
Ġal to
Ġcrown s
Ġ25 6
loss en
Ġbu zz
ÑĤ Ð
and ise
Ġsano o
TAG AAAC
Ġs ings
Ġul k
Ġsch le
ĠPol ice
Fin ally
b in
Ġparl our
Ġdis astrous
stit utions
Ġvain ly
ĠSe Ã±or
Ġ25 5
comp uter
Ġcommon place
b rane
TGAA A
Ġv ines
v rouw
é Ĩ
Ġ18 87
ro le
AT AAGCC
ATT TGTC
Ġf ue
äº ĳ
num erous
Ġ18 14
E Book
ĠelÅĳ tt
Ġse wing
u jen
Ġout fit
Ġ24 9
Ġf oc
Ġan aly
AAC ATTC
k no
ves sels
ĠC OUN
att ract
Ġdev ised
ĠT am
Ġ18 59
ule in
ific ent
ĠV ed
Ġun its
ĠGe ld
Ġcamp o
Ġ18 88
Ġrob bers
Ġal ta
Ġum bre
Ġ18 47
Ġembarrass ment
Ġy elled
Ġav rebbe
f ug
j ourn
ad ministration
Ġmis fortunes
Ġal att
Ġvie le
Ġv ont
Ġworth less
le te
ĠG ert
ling ton
Ġmonarch y
G TTGC
de pend
10 9
Ġ24 7
ĠPres byter
ĠM arm
Ġsun rise
p hys
C TCTC
ĠkÃ¤t ensÃ¤
Ġ24 2
ĠAl most
g ins
Ġ23 9
Ġpatri ot
Ġcoast s
é¦ ĸ
im at
Ġstart s
d ism
ĠÃī s
s udden
Ġfug itive
Ġtar pe
F N
---------- +
Ġworsh ipped
ĠPro ofreading
AGG TTGC
do ctor
AGGAG TTTG
ĠAugust ine
Ġst ature
Ġgr otesque
Ġdesp atch
Ġrevolution ary
Ġste ht
Ġto morrow
ĠG ud
Ġatt orney
wer den
mach ine
Ġcl aws
Ġ25 7
Ġnot hin
ĠCh ronic
abs ence
Ġw issen
ir ons
Ġexpress ive
ĠXX II
Ġre els
Ġk Ã¼
ATG AGAA
Ġsk irm
Ġ24 4
ern ation
Ä ħ
Ġh Ã¡z
M uch
com o
Ġag li
Ġesc aping
Ġinsign ificant
Ġexpend iture
ĠS ound
Ġrequ iring
Ġl el
TAT AAAG
car rying
Ġglo ire
N G
ĠLes lie
B eg
Ġex cluded
if ferent
Ġstri ve
éĬ Ģ
L uc
ĠDie go
ĠCOMP ANY
bl ie
rie b
åĭ ķ
TTTT TAC
lo ving
sufficient ly
Ġmyst ic
B re
ither to
ou pe
v ist
ĠD ale
Ġyear ly
Ġsze ret
Ġentertain ing
prot ection
feel ings
Ġdiv in
Ġ190 8
å± ħ
ki Ã¤
ĠL loyd
Ġobl ige
Ġk ik
ĠBl anche
Ġgo ats
Ġma ahan
Ġspr ay
Ġag gress
aus ing
TAG TGG
Ġmed es
Ġpleas es
200 6
Ġbloss om
Ġtot ta
ĠL uis
Ġinterrupt ion
Ġred dish
b ones
10 5
Ġassoci ates
è ĵ
Ġ24 8
P RE
Ġste pping
AAG AATG
AGGC T
l iterature
Ġv Ã©
Ġshru b
ak as
og ene
Ġre cept
Ġn ieder
Ġsuper ficial
s ont
Ġr inn
ĠF lo
ĠR y
.) ;
v ine
Ġv oulez
Ġdig est
Ġb ild
Ġsk ulle
abs olutely
on os
TAA AATT
Ġkle in
ĠAl ps
em ple
Ġres ided
qu ito
Ġmor ale
ies a
Ġch alleng
ill Ã¤Ã¤n
st ay
ult ur
Ġl yr
ĠBl ick
ĠEr de
c ÃŃa
c um
TTC AG
Ġper pendicular
ATAT A
Ġ >
concern ing
ATG TGTG
ÏĦ Î¿Ïħ
ĠM az
Ġcompl iments
ck te
Ġjud ging
ĠConn ecticut
T hy
l od
Ġalleg iance
Ġl Ã©
Ġord ained
au den
sp ot
d ra
Ġsilm Ã¤t
AAAA TGG
Ġ200 8
Ã³ f
Ġappe als
rent s
ais uus
B oston
S everal
Ġz eker
ais uud
ĠMit tel
Ġt Ã¤hden
è ´
Ġrecon c
Ġmourn ful
if ier
Ġfin o
Ġun enforceability
ĠP ag
G es
ĠP ho
Ġend urance
che ll
Ġj unction
ATAA ATT
Ã« l
ar ck
Ġl igne
Ġwrong s
AAG ATGG
Ġsn uff
Ġconsec rated
Ġgen re
ĠM ong
su a
TER S
AGC AGCC
Ãª cher
IEL D
Ġres ume
Ġat om
ä¸į èĥ½
ĠT ony
ch al
olog ne
Ġdi o
hur st
Ġed ited
P AR
Ġoccup ations
leg s
un ce
ĠEu ropa
Ġrejo icing
ff er
Ġornament ed
ull o
Ġpubl ish
ĠTreat y
åĢ Ĵ
le vel
ĠM ath
Ġfra il
ĠH un
Ġchev aux
Ġbra very
Ġoccup ying
Ġmo eten
V oy
Ġpass a
Ġj ardin
k ut
ĠM ON
Ġdeli very
Ġbu en
necess ity
Ġintegr ity
Ġv art
Ġsuff rage
TAT ATGC
à± ĭ
prot ected
Ġsu unn
Ġh ielt
iz ard
Ġhard y
j i
Ġge vo
ather s
Ġconcept ions
I K
rel ation
emet ery
f est
m ast
ch anges
ĠMus ic
Ġarbit rary
Ġse igneur
Ġar ra
ic ations
ĠL U
TTTT GGG
Ġsl ide
ott anut
Ġbro od
dis cover
ien nes
Ġinde x
Ġadvoc ate
Ġp onder
ĠF est
å¾ ħ
Ġcondu ctor
ĠFra uen
val ier
ĠEls ie
Ġh ine
Ġrest er
AC ATATT
vo i
ĠRe yn
k is
æ¬ ¡
ĠS et
Ġdou bled
ĠD anish
Ġmicro sc
W ood
ĠCreat or
Ġtr uck
Ġpe ak
10 7
Ġweak er
Nat ural
Ġso v
d led
Ġ18 49
Ġun sere
Pe ople
ĠPrin ces
Ġ190 3
Ġso in
Ġcam el
è ı
ĠM iles
Ġtop ic
uks esta
Ġsuper stitious
ĠEx per
instr ument
Ġend lich
Î¸ Îµ
Ġs iksi
Ġ45 57
TC AAATT
TTG TG
TTTCACCATG TTGGCC
Ġcont end
Ġmu uten
break fast
G al
Ġg ren
ow e
Ġh oss
Ġs ly
ĠH AR
à° ª
Ã ľ
ĠConst ance
ATG AAGC
Ã¼ gel
Ġhall s
Ġch asse
Ġsl id
men o
ĠjÃ¤r j
Ġma ids
Ġm aps
Ġcat astrophe
Ġgond ol
k ien
Ġpract ise
ĠCec il
ore m
act ually
Ġsqu ir
æ¸ ħ
ĠSh ip
Ġsk illed
S us
ĠG riff
ÏĢ Îµ
are th
ĠH om
ra le
Ġch ang
---------- -+
se hen
ci en
Ġr aging
Ġsle w
ATC TGCC
uch te
at an
Ġik kun
C OM
ken nen
G TAAG
Ġdri ll
k iv
Ġ997 12
Ã¨ tres
exc itement
Ġorch ard
Ġp ela
great ly
Ġg iov
dist ant
Ġmein em
Ã¨v re
Ġtravers ed
app ar
ĠB ett
ĠMERCH ANT
Ġ18 58
et es
ä¸į å¾Ĺ
Ġtrans c
AGC TTTC
Ġci udad
Ġmaid ens
ĠP hys
Ġcam els
se er
iety sti
T ime
Ġsur faces
Ġcap ric
ri ans
Ġa pron
TGAA TAG
N un
f ail
j uk
å· ®
ĠTe il
en cour
P ost
ĠH undred
ĠS OU
Ġhistor ians
adv ance
AAG TG
qu ier
Ġst il
æĭ ľ
á º
Ġfor lorn
S to
lad ies
Ġma ht
ĠMay be
Ġod ds
G reen
Ġal ph
Ġcor al
iff ord
van ced
Ġch annels
24 0
ĠMc K
Ġgent il
ĠT rist
Ġme jor
TTGC TCTG
[...]
