{"<|PAD|>":0,"<|UNKNOWN|>":1,"<|START|>":2,"<|END|>":3,"<|SYSTEM|>":4,"<|USER|>":5,"<|ASSISTANT|>":6,"<|EOT|>":7,"<|INFOSTART|>":8,"<|INFOEND|>":9,"!":10,"\"":11,"#":12,"$":13,"%":14,"&":15,"'":16,"(":17,")":18,"*":19,"+":20,",":21,"-":22,".":23,"/":24,"0":25,"1":26,"2":27,"3":28,"4":29,"5":30,"6":31,"7":32,"8":33,"9":34,":":35,";":36,"<":37,"=":38,">":39,"?":40,"@":41,"A":42,"B":43,"C":44,"D":45,"E":46,"F":47,"G":48,"H":49,"I":50,"J":51,"K":52,"L":53,"M":54,"N":55,"O":56,"P":57,"Q":58,"R":59,"S":60,"T":61,"U":62,"V":63,"W":64,"X":65,"Y":66,"Z":67,"[":68,"\\":69,"]":70,"^":71,"_":72,"`":73,"a":74,"b":75,"c":76,"d":77,"e":78,"f":79,"g":80,"h":81,"i":82,"j":83,"k":84,"l":85,"m":86,"n":87,"o":88,"p":89,"q":90,"r":91,"s":92,"t":93,"u":94,"v":95,"w":96,"x":97,"y":98,"z":99,"{":100,"|":101,"}":102,"~":103,"¡":104,"¢":105,"£":106,"¤":107,"¥":108,"¦":109,"§":110,"¨":111,"©":112,"ª":113,"«":114,"¬":115,"®":116,"¯":117,"°":118,"±":119,"²":120,"³":121,"´":122,"µ":123,"¶":124,"·":125,"¸":126,"¹":127,"º":128,"»":129,"¼":130,"½":131,"¾":132,"¿":133,"À":134,"Á":135,"Â":136,"Ã":137,"Ä":138,"Å":139,"Æ":140,"Ç":141,"È":142,"É":143,"Ê":144,"Ë":145,"Ì":146,"Í":147,"Î":148,"Ï":149,"Ð":150,"Ñ":151,"Ò":152,"Ó":153,"Ô":154,"Õ":155,"Ö":156,"×":157,"Ø":158,"Ù":159,"Ú":160,"Û":161,"Ü":162,"Ý":163,"Þ":164,"ß":165,"à":166,"á":167,"â":168,"ã":169,"ä":170,"å":171,"æ":172,"ç":173,"è":174,"é":175,"ê":176,"ë":177,"ì":178,"í":179,"î":180,"ï":181,"ð":182,"ñ":183,"ò":184,"ó":185,"ô":186,"õ":187,"ö":188,"÷":189,"ø":190,"ù":191,"ú":192,"û":193,"ü":194,"ý":195,"þ":196,"ÿ":197,"Ā":198,"ā":199,"Ă":200,"ă":201,"Ą":202,"ą":203,"Ć":204,"ć":205,"Ĉ":206,"ĉ":207,"Ċ":208,"ċ":209,"Č":210,"č":211,"Ď":212,"ď":213,"Đ":214,"đ":215,"Ē":216,"ē":217,"Ĕ":218,"ĕ":219,"Ė":220,"ė":221,"Ę":222,"ę":223,"Ě":224,"ě":225,"Ĝ":226,"ĝ":227,"Ğ":228,"ğ":229,"Ġ":230,"ġ":231,"Ģ":232,"ģ":233,"Ĥ":234,"ĥ":235,"Ħ":236,"ħ":237,"Ĩ":238,"ĩ":239,"Ī":240,"ī":241,"Ĭ":242,"ĭ":243,"Į":244,"į":245,"İ":246,"ı":247,"Ĳ":248,"ĳ":249,"Ĵ":250,"ĵ":251,"Ķ":252,"ķ":253,"ĸ":254,"Ĺ":255,"ĺ":256,"Ļ":257,"ļ":258,"Ľ":259,"ľ":260,"Ŀ":261,"ŀ":262,"Ł":263,"ł":264,"Ń":265,"Ġt":266,"he":267,"Ġa":268,"in":269,"ĠĠ":270,"Ġthe":271,"re":272,"Ġo":273,"Ġs":274,"NN":275,"er":276,"en":277,"Ġw":278,"on":279,"nd":280,"is":281,"it":282,"at":283,"TT":284,"AA":285,"ou":286,"es":287,"Ġd":288,"Ġb":289,"Ġm":290,"Ġc":291,"ed":292,"Ġh":293,"an":294,"Ġof":295,"Ġf":296,"or":297,"Ġp":298,"ar":299,"NNNN":300,"ll":301,"ĠĠĠĠ":302,"Ġl":303,"as":304,"Ġto":305,"Ġand":306,"ing":307,"Ġin":308,"TG":309,"AG":310,"Ġn":311,"CC":312,"Ġth":313,"om":314,"ic":315,"Ġe":316,"le":317,"al":318,"Ġhe":319,"ut":320,"st":321,"ent":322,"Ġg":323,"ad":324,"ot":325,"ion":326,"âĢ":327,"Ġbe":328,"se":329,"TC":330,"NNNNNNNN":331,"ve":332,"ĠI":333,"im":334,"AC":335,"et":336,"ro":337,"id":338,"Ġu":339,"ly":340,"ac":341,"Ġre":342,"ur":343,"ir":344,"Ã¤":345,"Ġv":346,"ld":347,"ig":348,"ow":349,"Ġde":350,"ĠT":351,"Ġwh":352,"ĠĠĠĠĠĠĠĠ":353,"Ġon":354,"Ġy":355,"GG":356,"am":357,"Ġthat":358,"Ġwas":359,"ch":360,"ith":361,"qu":362,"ay":363,"ce":364,"Ġit":365,"ĠS":366,"Ġfor":367,"and":368,"il":369,"--":370,"Ġis":371,"Ġas":372,"ĠA":373,"ver":374,"AT":375,"ht":376,"Ġk":377,"ATT":378,"Ġwith":379,"ct":380,"Ġwe":381,"Ã©":382,"ri":383,"ĠM":384,"Ġst":385,"her":386,"Ġhis":387,"ter":388,"Ġan":389,"ill":390,"ie":391,"Ġyou":392,"us":393,"un":394,"ain":395,"Ġse":396,"ĠC":397,"all":398,"te":399,"ol":400,"th":401,"NNNNNNNNNNNNNNNN":402,"ĠH":403,"ich":404,"Ġr":405,"os":406,"ĠB":407,"ag":408,"Ġnot":409,"Ġat":410,"if":411,"est":412,"ul":413,"ATG":414,"ess":415,"ation":416,"el":417,"ĠP":418,"Ġha":419,"od":420,"ak":421,"em":422,"Ġcon":423,"ĠĠĠ":424,"Ġhad":425,"ĠThe":426,"res":427,"Ġj":428,"ant":429,"ould":430,"ab":431,"Ġqu":432,"Ġsu":433,"Ġor":434,"GC":435,"pp":436,"red":437,"Ġby":438,"ist":439,"rom":440,"the":441,"ore":442,"ĠG":443,"Ġ1":444,"ight":445,"TAA":446,"âĢĻ":447,"our":448,"Ġher":449,"Ġme":450,"Ġsh":451,"ĠL":452,"ous":453,"um":454,"ers":455,"ĠW":456,"Ġle":457,"Ġso":458,"Ġcom":459,"end":460,"Ġne":461,"to":462,"ap":463,"Ġwhich":464,"ard":465,"iv":466,"ĠD":467,"Ġall":468,"ect":469,"ĠF":470,"Ġun":471,"ĠE":472,"Ġsa":473,"Ġ_":474,"TCC":475,"Ġfrom":476,"ACC":477,"ust":478,"Ġhim":479,"Ġhave":480,"Ġex":481,"ok":482,"AAAA":483,"op":484,"oug":485,"hen":486,"art":487,"Ġthis":488,"Ġal":489,"Ġla":490,"ra":491,"ell":492,"Ġen":493,"Ġbut":494,"AGG":495,"ast":496,"ate":497,"âĢľ":498,"Ġch":499,"Ġ\"":500,"ĠR":501,"âĢĿ":502,"Ġare":503,"ge":504,"AGC":505,"out":506,"ATC":507,"ĠĠĠĠĠĠĠĠĠĠĠĠĠĠĠĠ":508,"ik":509,"ort":510,"TTC":511,"Ġdo":512,"Ġwere":513,"'s":514,"nt":515,"ind":516,"ome":517,"ĠN":518,"ive":519,"Ġup":520,"Ġthey":521,"Ġwor":522,"Ġshe":523,"ong":524,"ne":525,"ber":526,"Ġpro":527,"Ġman":528,"Ġno":529,"Ġwho":530,"Ġmy":531,"ies":532,"ĠO":533,"ound":534,"AAG":535,"av":536,"Ġsp":537,"ost":538,"ure":539,"ame":540,"TTTT":541,"ĠJ":542,"au":543,"ans":544,"Ġone":545,"ci":546,"Ġpl":547,"ine":548,"TGC":549,"Ġgo":550,"ity":551,"TGG":552,"Ġtheir":553,"Ġab":554,"ff":555,"itt":556,"ment":557,"de":558,"Ġlo":559,"NNNNNNNNNNNNNNNNNNNNNNNNNNNNNNNN":560,"AAC":561,"The":562,"are":563,"ass":564,"Ġtr":565,".\"":566,"sel":567,"Ġthem":568,"Ġ(":569,"one":570,"..":571,"pl":572,"ough":573,"TTG":574,"reat":575,"ĠÃ":576,"ck":577,"Ġar":578,"ace":579,"ire":580,"ther":581,"pt":582,"Ġbeen":583,"ide":584,"Ġet":585,"ance":586,"Ã¤n":587,"TAG":588,"ry":589,"ear":590,"cc":591,"Ġsaid":592,"ose":593,"able":594,"Ġwould":595,"Ġout":596,"Ġ2":597,"Ġthere":598,"ia":599,"Ġdes":600,"Ġver":601,"ish":602,"Ġwill":603,"TAC":604,"ĠHe":605,"ud":606,"Ġpr":607,"ks":608,"per":609,"Ġund":610,"ond":611,"hed":612,"Ġag":613,"of":614,"Ġany":615,"ord":616,"ence":617,"now":618,"be":619,"ake":620,"ue":621,"ven":622,"ice":623,"ait":624,"li":625,"age":626,"we":627,"Ġper":628,"ime":629,"me":630,"Ġim":631,"ack":632,",\"":633,"wn":634,"oll":635,"Ġwhen":636,"iss":637,"ite":638,"ens":639,"Ã¡":640,"ang":641,"ions":642,"ren":643,"CCC":644,"ade":645,"bl":646,"Ġother":647,"Ġfe":648,"Ġcan":649,"Ġro":650,"ĠK":651,"Ġad":652,"Ġus":653,"Ġam":654,"ep":655,"ĠV":656,"ally":657,"ib":658,"ary":659,"Ġmore":660,"Ã¶":661,"self":662,"ĠâĢľ":663,"Ġdis":664,"Ġgr":665,"Ġhas":666,"lo":667,"ree":668,"Ġque":669,"ach":670,"act":671,"ike":672,"ated":673,"Ġif":674,"Ġz":675,"ress":676,"tain":677,"Ġbr":678,"TATT":679,"ount":680,"ĠĠĠĠĠ":681,"Ġinto":682,"Ġsome":683,"ĠIt":684,"ull":685,"ile":686,"Ġtw":687,"uch":688,"here":689,"ays":690,"ais":691,"ru":692,"cl":693,"ject":694,"fore":695,"int":696,"ng":697,"âĢĶ":698,"urn":699,"fter":700,"ons":701,"TGGG":702,"ĠTh":703,"other":704,"Ġcl":705,"ip":706,"Ġapp":707,"Ġthan":708,"oy":709,"Ġits":710,"Ġpo":711,"for":712,"Ġknow":713,"che":714,"Ġpart":715,"ta":716,"ied":717,"ï¼":718,"ings":719,"TAT":720,"og":721,"Ġcould":722,"ty":723,"Ġour":724,"Ġyour":725,"so":726,"own":727,"Ġpe":728,"Ġtime":729,"Ġpre":730,"ink":731,"00":732,"----":733,"Ġwhat":734,"pe":735,"Ġvery":736,"Ġever":737,"_,":738,"ious":739,"ont":740,"ought":741,"ood":742,"man":743,"Ġover":744,"ĠÎ":745,"Ġgreat":746,"ign":747,"ick":748,"Ġabout":749,"AGAA":750,"hing":751,"ug":752,"Ġ3":753,"Ã¨":754,"ittle":755,"ĠCh":756,"Ġoff":757,"Ġmay":758,"NNNNNNNNNNNNNNNNNNNNNNNNNNNNNNNNNNNNNNNNNNNNNNNN":759,"ved":760,"NNNNNNNNNNNNNNNNNNNNNNNNNNNNNNNNNNNNNNNNNNNNNNNNNN":761,"ark":762,"ian":763,"ave":764,"Ġupon":765,"Ġcomp":766,"ild":767,"Ġonly":768,"oss":769,"und":770,"iz":771,"ĠIn":772,"ij":773,"ĠY":774,"ise":775,"ĠÃł":776,"ke":777,"Ġ|":778,"ife":779,"wh":780,".âĢĿ":781,"ft":782,"Ġpar":783,"ĠSt":784,"Ġlike":785,"Ġdid":786,"Ġnow":787,"ĠĠĠĠĠĠ":788,"Ġthen":789,"ier":790,"mer":791,"irst":792,"ath":793,"ations":794,"ather":795,"fe":796,"ï¼Į":797,"'t":798,"Ġwork":799,"ĠMr":800,"Ġshould":801,"Ã¼":802,"Ġagain":803,"Ġja":804,"Ġtwo":805,"Ġco":806,"AGGG":807,"ces":808,"Ġsee":809,"AGGC":810,"Ġafter":811,"Ġrem":812,"orn":813,"Ġhand":814,"Ġlittle":815,"ãĢ":816,"ĠU":817,"Ġmade":818,"Ġi":819,"ful":820,"ward":821,"Ġcont":822,"Ġmen":823,"ition":824,"ĠAnd":825,"TTTC":826,"Ġres":827,"Ġles":828,"Ġbl":829,"AGCC":830,"ater":831,"pr":832,"ors":833,"Ġunder":834,"ness":835,"Ġmust":836,"._":837,"ult":838,"Ġent":839,"Ġlong":840,"Ġthese":841,"ATAA":842,"ten":843,"ĠBut":844,"uten":845,"Ġacc":846,"Ġfl":847,"Ġsuch":848,"ran":849,"ory":850,"Ġte":851,"?\"":852,"not":853,"ER":854,"ĠÃ©":855,"aan":856,"Ġhow":857,"rib":858,"TGTG":859,"sh":860,"ien":861,"Ġder":862,"row":863,"ase":864,"Ġlook":865,"Ġsc":866,"Ġbefore":867,"Ġbo":868,"du":869,"Ġes":870,"berg":871,"Ġdie":872,"ove":873,"TTGG":874,"Ġil":875,"way":876,"les":877,"Ġob":878,"ĠPro":879,"Ġgood":880,"Ġmuch":881,"ett":882,"land":883,"air":884,"Ġdown":885,"Ġfirst":886,"ener":887,"Ġ18":888,"AAGG":889,"TCTC":890,"Ġcons":891,"rit":892,"com":893,"TCCC":894,"Ġwhere":895,"ATTC":896,"ical":897,"rough":898,"ict":899,"Ġer":900,"Ġsm":901,"ai":902,"tt":903,"Ġimp":904,"Î±":905,",âĢĿ":906,"Ġser":907,"ung":908,"Ġmost":909,"Ġbet":910,"Ġcomm":911,"ACAC":912,"Ġ*":913,"Ġche":914,"Ġown":915,"que":916,"Ġdi":917,"den":918,"Ġpu":919,"Ġold":920,"utenberg":921,"hat":922,"that":923,"TATG":924,"Ġ4":925,"ss":926,"ced":927,"ears":928,"old":929,"Ġsi":930,"ail":931,"ÏĦ":932,"Ġel":933,"Ġdist":934,"TTTG":935,"Ġsur":936,"Ġvo":937,"ex":938,"Ġop":939,"Ġevery":940,"Ġpass":941,"ady":942,"ement":943,"TTCC":944,"Î½":945,"Ġeven":946,"oth":947,"Ġest":948,"ily":949,"Ġem":950,"ves":951,"ah":952,"Ġke":953,"ms":954,"led":955,"aut":956,"ever":957,"Ġwell":958,"Ġday":959,"Ġspe":960,"ouse":961,"Ã³":962,"Ġpres":963,"Î¿":964,"Ġexp":965,"ale":966,"Ġau":967,"att":968,"Ġqui":969,"AGAG":970,"ates":971,"Ġbec":972,"Ġway":973,"ins":974,"Ġcome":975,"Ġdon":976,"ause":977,"Ġsay":978,"up":979,"ction":980,"ried":981,"Ġ'":982,"Ġmin":983,"con":984,"Ġter":985,"Ġdu":986,"ial":987,"Ġatt":988,"io":989,"Ġcar":990,"Ġthrough":991,"ible":992,"Ġthose":993,"Ġnever":994,"ret":995,"Ġden":996,"Ġrep":997,"app":998,"Ġcame":999,"Ġbeing":1000,"ATGG":1001,"arm":1002,"AGTG":1003,"AAAC":1004,"Ġback":1005,"su":1006,"ving":1007,"his":1008,"Ġgl":1009,"Ġmany":1010,"with":1011,"amp":1012,"Ġfound":1013,"Ġlife":1014,"ents":1015,"der":1016,"Ġbel":1017,"ople":1018,"!\"":1019,"atter":1020,"ual":1021,"its":1022,"Ġcall":1023,"ui":1024,"Ġmar":1025,"ner":1026,"ble":1027,"Ġear":1028,"Ġsl":1029,"Ġseem":1030,"less":1031,"Ġmight":1032,"Ġmake":1033,"ĠĠĠĠĠĠĠ":1034,"ared":1035,"ĠProject":1036,"igh":1037,"ACCC":1038,"ew":1039,"Ġlet":1040,"Ġey":1041,"Ġjust":1042,"TGCC":1043,"eg":1044,"AGAC":1045,"ollow":1046,"Ġcour":1047,"Ġbeg":1048,"Ġhere":1049,"cess":1050,"men":1051,"Ġwithout":1052,"Ġsame":1053,"Ġ5":1054,"Ġret":1055,"oh":1056,"Î¹":1057,"...":1058,"ern":1059,"Ġthink":1060,"med":1061,"si":1062,"ATCC":1063,"hy":1064,"ATTG":1065,"Ġac":1066,"alk":1067,".,":1068,"ott":1069,"Ġreg":1070,"ower":1071,"Ġshall":1072,"Ġhimself":1073,"Ġmo":1074,"ished":1075,"Ġtoo":1076,"Ġsub":1077,"ertain":1078,"omet":1079,"no":1080,"lle":1081,"ĠÂ":1082,"ĠGutenberg":1083,"HE":1084,"Ġthought":1085,"ĠShe":1086,"ĠhÃ¤n":1087,"co":1088,"ĠAr":1089,"ited":1090,"Ã©s":1091,"Ġsec":1092,"Ġpers":1093,"cept":1094,"ATGC":1095,"Ġson":1096,"ÃŃ":1097,"Ġend":1098,"vent":1099,"ä¸":1100,"lect":1101,"az":1102,"It":1103,"ient":1104,"Ġmon":1105,"Ġcount":1106,"Ġlast":1107,"TGAA":1108,"ATAC":1109,"Ġdel":1110,"TTAA":1111,"Ġsin":1112,"He":1113,"Ġind":1114,"vers":1115,"Ġsupp":1116,"ened":1117,"Ã¤Ã¤":1118,"Ġnat":1119,"Ġalso":1120,"aking":1121,"get":1122,"Ġnew":1123,"Ġav":1124,"ĠWe":1125,"riend":1126,"was":1127,"rest":1128,"arge":1129,"TGGC":1130,"Ġword":1131,"Ġce":1132,"ph":1133,"ĠĠĠĠĠĠĠĠĠĠĠĠĠĠĠĠĠĠĠĠĠĠĠĠĠĠĠĠĠĠĠĠ":1134,"TCAC":1135,"ular":1136,"Ġma":1137,"Ġplace":1138,"ann":1139,"Ġrel":1140,"Ġri":1141,"ted":1142,"Ġright":1143,"ple":1144,"Ãª":1145,"ene":1146,"Ġfr":1147,"Ġaway":1148,"Ġdif":1149,"ux":1150,"ob":1151,"),":1152,"Ġhead":1153,"Ġpeople":1154,"ÃŁ":1155,"Ġinst":1156,"Ġwar":1157,"ute":1158,"Ġstr":1159,"ĠThey":1160,"vel":1161,"min":1162,"Ġstill":1163,"ON":1164,"une":1165,"ts":1166,"oman":1167,"Ġwent":1168,"Ġfollow":1169,"ille":1170,"Ġ6":1171,"Îµ":1172,"icht":1173,"TTGC":1174,"Ġ[":1175,"Ġwhile":1176,"rent":1177,"Ġmet":1178,"Ġturn":1179,"ures":1180,"uth":1181,"âĢ°":1182,"als":1183,"Ġyears":1184,"âĶ":1185,"TAAG":1186,"Ġtake":1187,"Ġask":1188,"ron":1189,"ser":1190,"imes":1191,"pect":1192,"Ġwr":1193,"EN":1194,"br":1195,"TCTG":1196,"Ġsch":1197,"ĠThis":1198,"II":1199,"GGG":1200,"most":1201,"gr":1202,"IN":1203,"Ġposs":1204,"Ġfar":1205,"TATC":1206,"Ġget":1207,"ĠSe":1208,"fl":1209,"tem":1210,"AR":1211,"ĠEng":1212,"ered":1213,"iet":1214,"tr":1215,"In":1216,"GGC":1217,"pro":1218,"ters":1219,"Ġgu":1220,"Ġdem":1221,"ived":1222,"ka":1223,"Ġact":1224,"ĠYou":1225,"AAAG":1226,"ither":1227,"ants":1228,"ently":1229,"TAAC":1230,"ween":1231,"Ġput":1232,"Ġgiv":1233,"ways":1234,"ief":1235,"ody":1236,"AN":1237,"Ġform":1238,"Ġeyes":1239,"iin":1240,"_.":1241,"la":1242,"Ġrec":1243,"Ġyoung":1244,"elle":1245,"rist":1246,"by":1247,"Ġrest":1248,"Ġthree":1249,"Ġfriend":1250,"urch":1251,"Ġsy":1252,"Ġvan":1253,"Ġda":1254,"Ġinte":1255,"Ġje":1256,"tm":1257,"Ã¤Ã¤n":1258,"ãĢĤ":1259,"Ġsent":1260,"any":1261,"Ġgener":1262,"my":1263,"Ġcap":1264,"ĠIf":1265,"ote":1266,"Ġmind":1267,"ĠâĢ":1268,"ĠUn":1269,"Ġpour":1270,"aken":1271,"ĠThere":1272,"Ġocc":1273,"ution":1274,"rem":1275,"ook":1276,"Ġeff":1277,"ĠGod":1278,"alf":1279,"Ġchild":1280,"ense":1281,"ny":1282,"pos":1283,"Ġed":1284,"Ġein":1285,"elt":1286,"ĠĠĠĠĠĠĠĠĠĠĠĠĠĠĠĠĠĠĠĠĠĠĠĠ":1287,"Ġhouse":1288,"GCC":1289,"oot":1290,"thing":1291,"Ġleft":1292,"Ġvol":1293,"Ġfind":1294,"ars":1295,"ES":1296,"Ġadd":1297,"Ãł":1298,"Ġ--":1299,"TTAC":1300,"Ġ19":1301,"Ġfew":1302,"Â»":1303,"cy":1304,"ank":1305,"form":1306,"Ġdans":1307,"Ġyet":1308,"Ġthough":1309,"ps":1310,"Ġge":1311,"Ġvie":1312,"Ġtell":1313,"ments":1314,"Ġanother":1315,"AAGC":1316,"Ġsou":1317,"xt":1318,"Ġple":1319,"Ġpas":1320,"vo":1321,"Ġagainst":1322,"ets":1323,"ross":1324,"hes":1325,"ze":1326,"Ġnight":1327,"gy":1328,"par":1329,"Ġeach":1330,"Ġint":1331,"Ġsomet":1332,"TAGC":1333,"urs":1334,"va":1335,"Ġref":1336,"Ġune":1337,"Ġgive":1338,"Ġworld":1339,"ning":1340,"ub":1341,"Ġonce":1342,"Ġheart":1343,"Ġlight":1344,"blic":1345,"ating":1346,"na":1347,"Ġface":1348,"Ġconf":1349,"aug":1350,"Ġpoint":1351,"Ġku":1352,"ĠMar":1353,"ĠDe":1354,"itu":1355,"vid":1356,"ool":1357,"ATAT":1358,"And":1359,"Ġread":1360,"--------":1361,"rown":1362,"Ġfull":1363,"Ã©e":1364,"vern":1365,"TACC":1366,"Ġnear":1367,"aps":1368,"rew":1369,"new":1370,"Ġext":1371,"oment":1372,"But":1373,"Ġaff":1374,"Ġinter":1375,"Ġcol":1376,"Ġchar":1377,"ches":1378,"ours":1379,"Ġ8":1380,"Ġbetween":1381,"Ġ-":1382,"äº":1383,"AACC":1384,"ÏĤ":1385,"ert":1386,"uring":1387,"Ġwant":1388,"OR":1389,"Ïģ":1390,"?âĢĿ":1391,"ĠAl":1392,"gg":1393,"ages":1394,"Ġuse":1395,"ines":1396,"ired":1397,"Ġkind":1398,"Ġsaw":1399,"Ġbu":1400,"ĠLe":1401,"ope":1402,"Ġcertain":1403,"tÃ¤":1404,"ities":1405,"aj":1406,"ird":1407,"unt":1408,"Ġsmall":1409,"Ġass":1410,"iness":1411,"Ġwater":1412,"Ġtook":1413,"ider":1414,"Ġlove":1415,"Ġreturn":1416,"ched":1417,"irl":1418,"ason":1419,"Ġsil":1420,"ific":1421,"ĠAs":1422,"Ġcop":1423,"Ġve":1424,"Ġnor":1425,"use":1426,").":1427,"Ġ7":1428,"ĠAn":1429,"Ġname":1430,"Ġoli":1431,"Ġnothing":1432,"Ġins":1433,"Ġsw":1434,"Ġdet":1435,"po":1436,"AATG":1437,"TAGG":1438,"Ġthings":1439,"read":1440,"Ġside":1441,"Ġcor":1442,"Ġfam":1443,"ken":1444,"let":1445,"Ġset":1446,"aa":1447,"aus":1448,"Ġnum":1449,"oun":1450,"Ã©t":1451,"which":1452,"Ġdou":1453,"alt":1454,"Ġans":1455,"Ġ0":1456,"Ġcountry":1457,".--":1458,"Ġcalled":1459,"Ġlaw":1460,"Ġvis":1461,"selves":1462,"You":1463,"Ġalways":1464,"aw":1465,"Ġ17":1466,"Ġdire":1467,"Ġhum":1468,"Ġrece":1469,"ano":1470,"ined":1471,"ection":1472,"ĠTHE":1473,"Ġperson":1474,"part":1475,"ix":1476,"aim":1477,"Ġboth":1478,"aster":1479,"Ġcr":1480,"Ġpur":1481,"Ġmoment":1482,"Ġhapp":1483,"uss":1484,"AGTC":1485,"ustr":1486,"ained":1487,"ains":1488,"Ġpresent":1489,"Ġdays":1490,"you":1491,"Ġmit":1492,"iter":1493,"Ġtem":1494,"aught":1495,"ĠQ":1496,"chen":1497,".]":1498,"ats":1499,"ĠFor":1500,"Ġland":1501,"Ġinc":1502,"Ġih":1503,"Ġart":1504,"Ġwhole":1505,"ĠRe":1506,"Ġsk":1507,"Ġcle":1508,"ield":1509,"ament":1510,"Ġfa":1511,"Ġtu":1512,"lish":1513,"Ġfather":1514,"Ġamong":1515,"Ïĥ":1516,"Ġste":1517,"Ġfact":1518,"Ġsat":1519,"TA":1520,"but":1521,"Ġvar":1522,"eng":1523,"Ġbest":1524,"....":1525,"ĠHis":1526,"ette":1527,"Ġquest":1528,"ĠOF":1529,"ĠOn":1530,"omen":1531,"ison":1532,"Ġfin":1533,"wor":1534,"Ġfeel":1535,"ho":1536,"Ġhome":1537,"ĠZ":1538,"Ġsoon":1539,"Ġseen":1540,"ably":1541,"Ġvi":1542,"ism":1543,"ying":1544,"ohn":1545,"Ġdoor":1546,"AATT":1547,"TGAC":1548,"rie":1549,"Ġhands":1550,"ATATT":1551,"Ġtra":1552,"Ġmil":1553,"ling":1554,"rap":1555,"ina":1556,"Ġshow":1557,"do":1558,"ÏĢ":1559,"18":1560,"Ġgot":1561,"Ġprin":1562,"ged":1563,"wards":1564,"aid":1565,"pped":1566,"Ġbecause":1567,"Ġhalf":1568,"</":1569,"vol":1570,"Ġfell":1571,"aint":1572,"ives":1573,"Ġ9":1574,"Ġworks":1575,"ĠTo":1576,"oud":1577,"ately":1578,"Ġsim":1579,"fic":1580,"Ġboy":1581,"Ġlarge":1582,"arn":1583,"ton":1584,"Ġthing":1585,"Ġcur":1586,"Ġcare":1587,"Ġhel":1588,"ative":1589,"Ġdone":1590,"Ġtold":1591,"Ġcourse":1592,"Ġhaving":1593,"stand":1594,"ised":1595,"gether":1596,"Ġwhom":1597,"Ġcent":1598,"Ġstand":1599,"Ġless":1600,"Ġlooked":1601,"AAAAC":1602,"ended":1603,"Ġgoing":1604,"Ġmu":1605,"Ã¤t":1606,"Ġasked":1607,"Ã¨re":1608,"Ġ15":1609,"TTTTC":1610,"Ïħ":1611,"val":1612,"Ġpol":1613,"Ġhard":1614,"Ġunt":1615,"Ġplus":1616,"Ġzu":1617,"Ġroom":1618,"Ġ16":1619,"ully":1620,"Ġpower":1621,"ĠBe":1622,"Ġserv":1623,"ident":1624,"Ġhet":1625,"ention":1626,"ering":1627,"ĠNo":1628,"osed":1629,"lla":1630,"Ġli":1631,"ĠPr":1632,"Ġseemed":1633,"akes":1634,"ĠSo":1635,"gen":1636,"ek":1637,"Ġgirl":1638,"AATC":1639,"IS":1640,"ission":1641,"Ġbro":1642,"ĠInd":1643,"Ġdr":1644,"atch":1645,"TGTC":1646,"ben":1647,"yr":1648,"ys":1649,"ange":1650,"Ġheard":1651,"Ġwind":1652,"cri":1653,"Ġhigh":1654,"had":1655,"Ġdoes":1656,"Ġfour":1657,"âĶĢ":1658,"Ġdisc":1659,"ja":1660,"ĠMrs":1661,"ury":1662,"cial":1663,"very":1664,"ĠÏĦ":1665,"tern":1666,"Ġmod":1667,"ĠdÃ©":1668,"Ġmatter":1669,"els":1670,"ians":1671,"Ġcontin":1672,"ane":1673,"bt":1674,"fect":1675,"Ġbetter":1676,"Ġhowever":1677,"Ġru":1678,"Ġsie":1679,"Ġknew":1680,"ole":1681,"ma":1682,"Ġbelie":1683,"TGAG":1684,"Ġkeep":1685,"ĠChrist":1686,"AAAAG":1687,"pre":1688,"Ġwoman":1689,"Ġelect":1690,"ream":1691,"Ġadv":1692,"ceed":1693,"day":1694,"ATAG":1695,"Ġgiven":1696,"hr":1697,"Ġpri":1698,"Ġ=":1699,"Ġhor":1700,"ery":1701,"ki":1702,"Ġval":1703,"Ġfore":1704,"oney":1705,"utta":1706,"Ġalmost":1707,"tre":1708,"ĠWhen":1709,"Ġprom":1710,"Ġmother":1711,"arr":1712,"Ġdec":1713,"haps":1714,",--":1715,"Ġuntil":1716,".)":1717,"aces":1718,"Ġsuff":1719,"Ġtaken":1720,"ually":1721,"bre":1722,"ased":1723,"Ġsol":1724,"Ġpor":1725,"omm":1726,"TTTAA":1727,"ances":1728,"Ġbre":1729,"Ã§":1730,"ides":1731,"itÃ¤":1732,"Ġopp":1733,"'ll":1734,"Ġ10":1735,"hil":1736,"Ġnon":1737,"kin":1738,"Ġopen":1739,"Ġenough":1740,"Ġinterest":1741,"sp":1742,"ĠHer":1743,"ĠAt":1744,"Ġdas":1745,"orning":1746,"enn":1747,"ric":1748,"ĠX":1749,"cul":1750,"go":1751,"fort":1752,"âĶĢâĶĢ":1753,"Ġhon":1754,"!âĢĿ":1755,"Ġquite":1756,"Ġused":1757,"Ġneed":1758,"Ġgave":1759,"ĠThen":1760,"ured":1761,"inen":1762,"meric":1763,"itten":1764,"oi":1765,"ĠĠĠĠĠĠĠĠĠ":1766,"ony":1767,"undred":1768,"ister":1769,"Ġave":1770,"fully":1771,"ached":1772,"Ġol":1773,"ils":1774,"Åĳ":1775,"eth":1776,"Ġdiffe":1777,"Ġbus":1778,"Ġinde":1779,"Ġwords":1780,"Ġyear":1781,"ois":1782,"ronic":1783,"ax":1784,"ger":1785,"Ġcannot":1786,"Ġdev":1787,"Ġconst":1788,"Ġdeath":1789,"za":1790,"ility":1791,"outh":1792,"Ġprodu":1793,"Ġfall":1794,"lic":1795,"Ġjo":1796,"him":1797,"Î»":1798,"Ġbeaut":1799,"No":1800,"Ġbeh":1801,"ĠSp":1802,"TTATT":1803,"yt":1804,"ĠÃ©t":1805,"Ġmer":1806,"ges":1807,"ressed":1808,"Ã©r":1809,"We":1810,"Ġothers":1811,"Ġsomething":1812,"Ġbes":1813,"oke":1814,"Ã¤m":1815,"Ġ12":1816,"ock":1817,"ĠJohn":1818,"Ġbrought":1819,"Ġhold":1820,"ards":1821,"aced":1822,"Ġreal":1823,"vin":1824,"ĠNew":1825,"Ġlui":1826,"Ġsecond":1827,"ows":1828,"ected":1829,"==":1830,"Ġide":1831,"ni":1832,"rop":1833,"TTTTG":1834,"Ġgrand":1835,"Ġ.":1836,"ĠLord":1837,"uc":1838,"raw":1839,"Ã¦":1840,"Ġten":1841,"Ġwhite":1842,"Ġsince":1843,"ato":1844,"Ġill":1845,"irit":1846,"tered":1847,"ash":1848,"orm":1849,"Ġpublic":1850,"Ġbook":1851,"Â«":1852,"Ġfeet":1853,"from":1854,"AAATT":1855,"Ġwhose":1856,"Î·":1857,"Ġorder":1858,"ized":1859,"19":1860,"Ġoffic":1861,"Ġleg":1862,"port":1863,"rence":1864,"Ġtrans":1865,"ste":1866,"acter":1867,"ĠThat":1868,"ames":1869,"Ġsign":1870,"irc":1871,"wer":1872,"Ġrequ":1873,"à°":1874,"ĠSch":1875,"10":1876,"org":1877,"Ġhelp":1878,"Ġheav":1879,"AL":1880,"ature":1881,"iment":1882,"CH":1883,"Ġtill":1884,"Ġmed":1885,"IT":1886,"ural":1887,"15":1888,"Ġport":1889,"Ġtou":1890,"ĠIs":1891,"Ġround":1892,"This":1893,"ĠâĢĺ":1894,"Ġmem":1895,"ĠFr":1896,"ius":1897,"RE":1898,"Ġtri":1899,"ĠPar":1900,"onder":1901,"ha":1902,"itions":1903,"åħ":1904,"ec":1905,"rench":1906,"ACAG":1907,"uk":1908,"fer":1909,"What":1910,"Ġrepl":1911,"Ġnext":1912,"Ġturned":1913,"aik":1914,"Ġcase":1915,"alle":1916,"ety":1917,"Ġtrou":1918,"ues":1919,"AATAA":1920,"ivid":1921,"rs":1922,"AP":1923,"ista":1924,"TCAG":1925,"Ġmean":1926,"ready":1927,"Ġmorning":1928,"Ġwhe":1929,"Ġsun":1930,"Ġho":1931,"Ġadm":1932,"Ġdep":1933,"where":1934,"Ġrun":1935,"ips":1936,"ado":1937,"anger":1938,"Ġcond":1939,"Ġoften":1940,"Ġprof":1941,"Ġnecess":1942,"12":1943,"Ġvon":1944,"nen":1945,"Ġvous":1946,"Ġair":1947,"ĠGe":1948,"iam":1949,"TTTCC":1950,"There":1951,"ä¹":1952,"16":1953,"str":1954,"Ġmeans":1955,"Ġrather":1956,"ĠMiss":1957,"Ġdark":1958,"Ġfire":1959,"ĠBr":1960,"Ġbegan":1961,"17":1962,"Ġfree":1963,"ster":1964,"Ġhundred":1965,"Ġhy":1966,"ĠEnglish":1967,"Ġabove":1968,"Ġcoll":1969,"Ġhear":1970,"Ch":1971,"Ġthemselves":1972,"Ġir":1973,"Ã¢":1974,"Ġwithin":1975,"ccess":1976,"000":1977,"Ġpap":1978,"Ġking":1979,"Ġlos":1980,"Ġfelt":1981,"itted":1982,"Ġexpl":1983,"TER":1984,"llustr":1985,"fin":1986,"enty":1987,"Ġmag":1988,"ls":1989,"ĠÃ¡":1990,"Ġfort":1991,"Ġeen":1992,"ists":1993,"mp":1994,"sc":1995,"ĠAmeric":1996,"Ġblo":1997,"Ġstate":1998,"Ġ&":1999,"oc":2000,"clud":2001,"ĠGer":2002,"ante":2003,"Ġpos":2004,"Ġsing":2005,"resent":2006,"Ġsure":2007,"Ġtre":2008,"Ġ<":2009,"olog":2010,"ata":2011,"She":2012,"ĠWhat":2013,"Ġsel":2014,"arch":2015,"illed":2016,"ACTC":2017,"reg":2018,"veral":2019,"have":2020,"ua":2021,"Ġknown":2022,"Ġmain":2023,"ĠAll":2024,"sem":2025,"Ġplay":2026,"Ġalong":2027,"ivat":2028,"Ġstrong":2029,"Ġtrue":2030,"Ġmoney":2031,"Ġhu":2032,"Ġ14":2033,"Ġgent":2034,"Ġsix":2035,"Ġequ":2036,"vi":2037,"Ã¨s":2038,"Ġaz":2039,"Ġpat":2040,"Ġtogether":2041,"ND":2042,"ribut":2043,"Ġhat":2044,"Ġpal":2045,"Ġthus":2046,"'d":2047,"Ġfur":2048,"Ġsubject":2049,"they":2050,"though":2051,"Ġpoor":2052,"Ġconsider":2053,"Ġtalk":2054,"acht":2055,"igin":2056,"Ġshort":2057,"iving":2058,"ãģ":2059,"well":2060,"Ġreason":2061,"Ġbody":2062,"OU":2063,"iel":2064,"ape":2065,"Ġty":2066,"Ġvoice":2067,"Ġnumber":2068,"Ġimport":2069,"Ġsays":2070,"Ġconc":2071,"14":2072,"Ġut":2073,"TTAG":2074,"AAATG":2075,"Ġstood":2076,"Ġlu":2077,"Î¯":2078,"Ġtown":2079,"ACG":2080,"what":2081,"Ã¹":2082,"vis":2083,"Ġlay":2084,"Ġmis":2085,"ita":2086,"ACTG":2087,"asure":2088,"Ġbed":2089,"TGGGC":2090,"Ġ13":2091,"Ġabs":2092,"Ġred":2093,"ĠKing":2094,"owed":2095,"Ġground":2096,"Ġnicht":2097,"Ġnature":2098,"ĠCon":2099,"**":2100,"ior":2101,"ĠGr":2102,"this":2103,"aar":2104,"Ġduring":2105,"icular":2106,"Ġagre":2107,"Ġappear":2108,".'":2109,"omp":2110,"uthor":2111,"Ġcas":2112,"Ġzij":2113,"13":2114,"iden":2115,"Ġenc":2116,"ium":2117,"Ġclose":2118,"vernment":2119,"Ġwrit":2120,"were":2121,"Ġgre":2122,"Illustr":2123,"Ġsich":2124,"aged":2125,"Ġgeneral":2126,"LE":2127,"ige":2128,"Ġeas":2129,"ko":2130,"ience":2131,"Ġchildren":2132,"she":2133,"utt":2134,"Ġele":2135,"Ġei":2136,"Ġdest":2137,"Ġwife":2138,"Ġpassed":2139,"Ġtout":2140,"ousand":2141,"Ġobser":2142,"Ġbar":2143,"aient":2144,"eneral":2145,"ots":2146,"ring":2147,"mon":2148,"Ġlead":2149,"Ġmeet":2150,"Ġfre":2151,"dis":2152,"Ġpay":2153,"Ġstart":2154,"Ġheld":2155,"Ġtimes":2156,"ued":2157,"des":2158,"Ġanything":2159,"anc":2160,"Ġlaug":2161,"Ġquestion":2162,"Ã¤r":2163,"Ġnous":2164,"Ġarri":2165,"AAAT":2166,"bert":2167,"Ġseveral":2168,"side":2169,"inter":2170,"Illustration":2171,"ĠrÃ©":2172,"Ġsum":2173,"Oh":2174,"oundation":2175,"asion":2176,"AGGCC":2177,"ices":2178,"gl":2179,"Ġmus":2180,"ĠStates":2181,"__":2182,"ĠBy":2183,"Ġspeak":2184,"Ġsle":2185,"son":2186,"Ġmyself":2187,"mo":2188,"Ã©n":2189,"isi":2190,"Ġprinci":2191,"ando":2192,"Ġterms":2193,"Ġfig":2194,"iful":2195,"Ġdesc":2196,"aves":2197,"Ġhist":2198,"Ġview":2199,"Ġaw":2200,"zen":2201,"Ġcal":2202,"ĠettÃ¤":2203,"ley":2204,"Ġavec":2205,"cons":2206,"Ġdirect":2207,"iers":2208,"åı":2209,"Ġwalk":2210,"bo":2211,"ics":2212,"Ġwait":2213,"Ġfut":2214,"Ã¼r":2215,"pose":2216,"bers":2217,"Ġsea":2218,"Ġdoubt":2219,"Ġord":2220,"ä»":2221,"raph":2222,"Ġproper":2223,"Ġauf":2224,"ĠSir":2225,"there":2226,"jo":2227,"range":2228,"Ġarm":2229,"Ġleast":2230,"ĠNor":2231,"Ġsort":2232,"Ã¶r":2233,"Ã¥":2234,"aving":2235,"Ġlie":2236,"their":2237,"ĠCl":2238,"rave":2239,"Ġalready":2240,"Th":2241,"aff":2242,"Ġom":2243,"Ġelectronic":2244,"Ġaut":2245,"off":2246,"Ġclear":2247,"Ġeffect":2248,"Ġalone":2249,"Ġhope":2250,"yn":2251,"Ġcharacter":2252,"Î¼":2253,"Ġbelieve":2254,"iar":2255,"like":2256,"Ġsud":2257,"Ġmid":2258,"ald":2259,"Ġstud":2260,"ii":2261,"ĠFrench":2262,"Ġeng":2263,"Ġregard":2264,"night":2265,"Ġist":2266,"Ġswe":2267,"ĠLa":2268,"IC":2269,"Ġitself":2270,"Ġeither":2271,"IL":2272,"ume":2273,"Ġsus":2274,"ression":2275,"over":2276,"å¤":2277,"Ġmais":2278,"Ġobject":2279,"ACTT":2280,"ATTTC":2281,"Ġ20":2282,"ality":2283,"ĠEngland":2284,"Ġdifferent":2285,"Ġhuman":2286,"Ã´":2287,"That":2288,"Î¬":2289,"Ġbur":2290,"ACAA":2291,"TGGCC":2292,"Ġdeep":2293,"Ġtro":2294,"ada":2295,"GAG":2296,"Ġsal":2297,"Ġdear":2298,"ATCTC":2299,"Ġdri":2300,"wo":2301,"Ġstru":2302,"Ġcirc":2303,"ĠHow":2304,"ĠWill":2305,"Ġinv":2306,"ize":2307,"iled":2308,"Ġmor":2309,"Ġsuccess":2310,"bed":2311,"RO":2312,"Ġblack":2313,"Ġpossess":2314,"Ġou":2315,"Ġcity":2316,"them":2317,"Ġcommon":2318,"ĠSh":2319,"sch":2320,"GTG":2321,"arent":2322,"ones":2323,"Ã¤h":2324,"eared":2325,"ĠâĢĶ":2326,"ilt":2327,"Ġsen":2328,"Ġdead":2329,"Ġearth":2330,"Ġcommand":2331,"Ġreceived":2332,"tempt":2333,"Ġherself":2334,"ee":2335,"Ġgone":2336,"Ġwomen":2337,"Ġaus":2338,"Ġwood":2339,"iously":2340,"gu":2341,"Ġkun":2342,"ĠWh":2343,"Yes":2344,"Ġsudden":2345,"lem":2346,"Ġfollowing":2347,"van":2348,"alth":2349,"Ġauthor":2350,"medi":2351,"ÏĮ":2352,"Ġsold":2353,"lt":2354,"ational":2355,"Ġses":2356,"ĠUnited":2357,"tained":2358,"ĠFoundation":2359,"Ġspirit":2360,"Ã¡s":2361,"Ġdiv":2362,"Ġsound":2363,"Ġlas":2364,"Ġenem":2365,"ording":2366,"cont":2367,"cle":2368,"ination":2369,"Ġaccount":2370,"Ġletter":2371,"claim":2372,"Ġperhaps":2373,"Ġev":2374,"ĠFran":2375,"cher":2376,"je":2377,"ĠAd":2378,"Ġhab":2379,"Ġfav":2380,"Ġforth":2381,"Ġbecame":2382,"Ġbring":2383,"Ġrespect":2384,"ified":2385,"Ġprot":2386,"æľ":2387,"ney":2388,"Ġline":2389,"Ġflo":2390,"Ġals":2391,"het":2392,"ler":2393,"bs":2394,"cript":2395,"itude":2396,"Ġdiffic":2397,"Ġpossible":2398,"ere":2399,"Ġexc":2400,"fact":2401,"aring":2402,"TGTAA":2403,"ploy":2404,"Ġaf":2405,"ending":2406,"ham":2407,"head":2408,"ATGCC":2409,"Ġprob":2410,"ĠDr":2411,"Îº":2412,"igen":2413,"Ġorigin":2414,"onn":2415,"Ġthousand":2416,"Ã±":2417,"Ġgentle":2418,"Ġmount":2419,"attle":2420,"ĠOr":2421,"Ġcried":2422,"Ġindeed":2423,"af":2424,"Ġanim":2425,"Ã¶n":2426,"under":2427,"Ġmot":2428,"Ġbecome":2429,"ries":2430,"Ġlim":2431,"Ġye":2432,"Ġesc":2433,"Ġgrow":2434,"Ġhour":2435,"Ġleave":2436,"Ġtherefore":2437,"cent":2438,"know":2439,"Ġaround":2440,"Ġcause":2441,"flu":2442,"cient":2443,"oe":2444,"pper":2445,"To":2446,"Ġfive":2447,"ĠJe":2448,"wered":2449,"'m":2450,"TCTT":2451,"ĠEd":2452,"Ġexper":2453,"por":2454,"iod":2455,"inted":2456,"isten":2457,"uck":2458,"TATTC":2459,"Ġdro":2460,"Ġpost":2461,"ĠBl":2462,"Ġcomple":2463,"ĠWith":2464,"Ġbien":2465,"Ġdom":2466,"will":2467,"ana":2468,"Ġ(_":2469,"Ġbrother":2470,"50":2471,"Ġremem":2472,"ĠIl":2473,"Ġrais":2474,"band":2475,"pit":2476,"Ġdef":2477,"eter":2478,"lich":2479,"Ġreplied":2480,"Ġlive":2481,"llÃ¤":2482,"inn":2483,"Ġfear":2484,"Ġfair":2485,"uro":2486,"Ġwall":2487,"ĠSc":2488,"Ġlater":2489,"As":2490,"On":2491,"St":2492,"Ġthou":2493,"ince":2494,"oup":2495,"If":2496,"ths":2497,"20":2498,"Ġmanner":2499,"Ġchief":2500,"Ġbehind":2501,"EL":2502,"Ġmark":2503,"Î¿Ïħ":2504,"Ïī":2505,"Ġelle":2506,"Ġwish":2507,"Ġpain":2508,"Ġuna":2509,"ED":2510,"Mr":2511,"Ġfine":2512,"reet":2513,"Ġroad":2514,"body":2515,"Ġpret":2516,"anged":2517,"Ġdit":2518,"used":2519,"Ġexcept":2520,"Ġpast":2521,"airs":2522,"Ġmere":2523,"alla":2524,"erv":2525,"Ġgold":2526,"Ġfriends":2527,"ask":2528,"Ġfamily":2529,"Pro":2530,"Ġcontr":2531,"ork":2532,"irt":2533,"ING":2534,"Ġlost":2535,"ided":2536,"AAAAAAAA":2537,"ising":2538,"ĠCol":2539,"ĠDo":2540,"Ã®":2541,"ondon":2542,"ä¸į":2543,"éģ":2544,"ella":2545,"De":2546,"ĠCar":2547,"Ġni":2548,"illa":2549,"dle":2550,",'":2551,"Ġunderstand":2552,"They":2553,"Ġann":2554,"ATTTT":2555,"Ġmal":2556,"Ġthy":2557,"Ġmaking":2558,"ATATG":2559,"ques":2560,"Ġbusiness":2561,"ino":2562,"Ġparticular":2563,"irm":2564,"Ġfront":2565,"Ġich":2566,"Ġwhether":2567,"âĶĤ":2568,"ctor":2569,"Ġtruth":2570,"gan":2571,"Ġable":2572,"ÃŃa":2573,"owers":2574,"Ġvast":2575,"Ġsett":2576,"orts":2577,"sequ":2578,"Ġrelig":2579,"would":2580,"ava":2581,"Ġcomme":2582,"Ġkept":2583,"Ġdat":2584,"Ġperm":2585,"ship":2586,"Ġpract":2587,"ĠChar":2588,"Ġnu":2589,"utes":2590,"Ġdecl":2591,"cious":2592,"Ġjud":2593,"ught":2594,"TGTT":2595,"Ġbegin":2596,"Ġvers":2597,"formation":2598,"Well":2599,"APTER":2600,".[":2601,"ĠQu":2602,"TAAAA":2603,"ios":2604,"Ġresult":2605,"Ġevid":2606,"Ġlang":2607,"Ã²":2608,"Ġtreat":2609,"Ġjok":2610,"ĠPl":2611,"An":2612,"itÃ©":2613,"room":2614,"Ġschool":2615,"ĠGo":2616,"Ġang":2617,"Ġlow":2618,"Ġwhy":2619,"When":2620,"Ġmi":2621,"ĠAb":2622,"Ġsuper":2623,"Ġappro":2624,"yl":2625,"AGTT":2626,"Ġniin":2627,"ledge":2628,"Ġpie":2629,"Ġpop":2630,"inct":2631,"ATTCC":2632,"atic":2633,"aul":2634,"set":2635,"rel":2636,"col":2637,"Ġant":2638,"Ġanswered":2639,"Ġsir":2640,"Ġlearn":2641,"orrow":2642,"Ġcoming":2643,"Ġhur":2644,"Ġwon":2645,"Ġforce":2646,"Ġearly":2647,"Ġlab":2648,"urg":2649,"Ġspec":2650,"Ġgen":2651,"ounded":2652,"Ġcut":2653,"ush":2654,"isen":2655,"Ġseems":2656,"Ġsac":2657,"Ġjour":2658,"ift":2659,"ops":2660,"cks":2661,"Ã£":2662,"ĠGerman":2663,"Ġdemand":2664,"ora":2665,"soci":2666,"Ġcost":2667,"nder":2668,"ĠPer":2669,"ĠOne":2670,"Ġmove":2671,"cially":2672,"pond":2673,"Ġpi":2674,"ĠBrit":2675,"Ġsz":2676,"Ã¤y":2677,"Ġvisit":2678,"ĠAm":2679,"ĠCap":2680,"Ġstory":2681,"ĠÎº":2682,"'ve":2683,"inary":2684,"Ġreally":2685,"Ġstri":2686,"ump":2687,"Ġinf":2688,"TTTTTTTT":2689,"TCCCC":2690,"ura":2691,"Ġwild":2692,"Then":2693,"vÃ¤":2694,"antly":2695,"Ġtrad":2696,"teen":2697,"Ġfoot":2698,"Ġcreat":2699,"Ġelse":2700,"ator":2701,"TTCTC":2702,"Ġtable":2703,"Ġcamp":2704,"stem":2705,"ĠMy":2706,"Ġexist":2707,"ĠTr":2708,"GGCC":2709,"Ãªme":2710,"Ġbit":2711,"AS":2712,"AM":2713,"ĠFrance":2714,"ĠÂ«":2715,"come":2716,"Ġlady":2717,"zt":2718,"Ġagreement":2719,"Ġcette":2720,"Ġsto":2721,"ksi":2722,"ACCCC":2723,"usion":2724,"Ġhorse":2725,"Book":2726,"orge":2727,"Ġquick":2728,"ros":2729,"Ġtowards":2730,"ĠÎµ":2731,"dom":2732,"ĠhÃ¤nen":2733,"rer":2734,"Ġclass":2735,"Ã¡n":2736,"AGGAG":2737,"roy":2738,"then":2739,"Ġwel":2740,"Ġbad":2741,"ION":2742,"ique":2743,"Ġbene":2744,"Ġtwenty":2745,"Ġemploy":2746,"ĠĠĠĠĠĠĠĠĠĠĠ":2747,"acc":2748,"AAGCC":2749,"Ġsight":2750,"Ġparty":2751,"Ġriver":2752,"Ġlooking":2753,"30":2754,"asi":2755,"Ã©g":2756,"Ġtend":2757,"Ġcompl":2758,"Ġmiles":2759,"Ġvill":2760,"Ġsoul":2761,");":2762,"Ġwonder":2763,"Ġmur":2764,"Ġstat":2765,"itting":2766,"Ġdut":2767,"Ġage":2768,"got":2769,"kk":2770,"ATTAC":2771,"ĠEr":2772,"Ġposition":2773,"ACCTC":2774,"bar":2775,"aughter":2776,"comm":2777,"iterary":2778,"å®":2779,"Ġprop":2780,"å¾":2781,"Ġfollowed":2782,"ani":2783,"25":2784,"Ġidea":2785,"light":2786,"ĠArch":2787,"amb":2788,"hand":2789,"Ã£o":2790,"uff":2791,"Ġcold":2792,"aux":2793,"Ġarms":2794,"usband":2795,"tel":2796,"ument":2797,"Ġperfect":2798,"Ġavait":2799,"reng":2800,"iff":2801,"Ġkuin":2802,"Ġtal":2803,"assa":2804,"yond":2805,"Ġnecessary":2806,"Ġnearly":2807,"Ġcross":2808,"overed":2809,"ãĢĢ":2810,"Ġcarried":2811,"ples":2812,"Ġacross":2813,"ĠEn":2814,"cell":2815,"Ġlad":2816,"Ġhar":2817,"ogn":2818,"Ġfurther":2819,"Ar":2820,"Ġbeautiful":2821,"Ġreturned":2822,"who":2823,"note":2824,"TCAA":2825,"ĠSee":2826,"Ġinclud":2827,"more":2828,"dered":2829,"oul":2830,"ATGGC":2831,"Ġperiod":2832,"Ã©es":2833,"Ġready":2834,"AGGGC":2835,"24":2836,"when":2837,"Ã³n":2838,"Ġaccept":2839,"amed":2840,"Ġwat":2841,"eder":2842,"Ġblood":2843,"Ġbig":2844,"pu":2845,"Ġpen":2846,"sa":2847,"Ġsem":2848,"TGGGG":2849,"ĠOf":2850,"ĠLondon":2851,"ĠNow":2852,"Ġoccasion":2853,"work":2854,"Ġremark":2855,"Ġdraw":2856,"å°":2857,"mar":2858,"Ġloc":2859,"comp":2860,"At":2861,"erc":2862,"bled":2863,"how":2864,"Ġcarry":2865,"Ġimmedi":2866,"Ã»":2867,"Ġ25":2868,"ende":2869,"ĠRo":2870,"ength":2871,"gar":2872,"unk":2873,"Ġevening":2874,"Ġentire":2875,"Ġsense":2876,"ä½":2877,"een":2878,"Ġ24":2879,"ically":2880,"eb":2881,"ATTGC":2882,"ĠâĶĤ":2883,"idge":2884,"ule":2885,"iver":2886,"yright":2887,"can":2888,"Ġfaith":2889,"Ġ...":2890,"iles":2891,"Ġcaus":2892,"ises":2893,"ĠEx":2894,"pecially":2895,"Ġmir":2896,"Ġ30":2897,"icient":2898,"urope":2899,"Ġworth":2900,"Ġpit":2901,"hys":2902,"Ġlaws":2903,"Ġmist":2904,"Ġta":2905,"Ġchurch":2906,"Ġstep":2907,"ously":2908,"ividual":2909,"Ġacqu":2910,"ested":2911,"THE":2912,"Ġfif":2913,"GGGC":2914,"Ġpict":2915,"ione":2916,"Ġpurpose":2917,"itation":2918,"Ġpet":2919,"Ġquar":2920,"ä¸Ģ":2921,"hab":2922,"Ġbuild":2923,"ager":2924,"mes":2925,"----------------":2926,"ored":2927,"look":2928,"23":2929,"Î±Î¹":2930,"Ġsens":2931,"ustom":2932,"Ġreached":2933,"Ġsometimes":2934,"æĺ":2935,"Ġcast":2936,"rodu":2937,"resh":2938,"Ġran":2939,"Ġpriv":2940,"27":2941,"26":2942,"imp":2943,"Ġdies":2944,"Le":2945,"ĠDu":2946,"acy":2947,"Ġanswer":2948,"Ġhom":2949,"TGGAG":2950,"ito":2951,"ATCAC":2952,"Ġled":2953,"Ġopin":2954,"cia":2955,"Ġsatis":2956,"Ġthee":2957,"ipp":2958,"oon":2959,"sec":2960,"Ãº":2961,"asta":2962,"some":2963,"Ġsecret":2964,"ires":2965,"lock":2966,"ĠNot":2967,"ĠThese":2968,"Ġnatural":2969,"Ġfail":2970,"vere":2971,"Ġhours":2972,"Ġum":2973,"28":2974,"velop":2975,"riage":2976,"been":2977,"ossible":2978,"ACCAC":2979,"ĠGeneral":2980,"Ġeight":2981,"Ġremain":2982,"imm":2983,"car":2984,"Ġpaid":2985,"ĠÃ©tait":2986,"Ġfight":2987,"Ġhill":2988,"GTC":2989,"Ġpolit":2990,"Ġoccup":2991,"Ġquiet":2992,"Ġmad":2993,"Ġrepresent":2994,"Ġimag":2995,"29":2996,"AAGGC":2997,"rill":2998,"ky":2999,"tell":3000,"rupt":3001,"Ġpeace":3002,"TTCCC":3003,"Ġdeter":3004,"ingly":3005,"TTTAG":3006,"For":3007,"ĠMan":3008,"AGAAG":3009,"hel":3010,"Ġdanger":3011,"aren":3012,"ero":3013,"Ġquel":3014,"stÃ¤":3015,"face":3016,"ku":3017,"ories":3018,"ATAAAA":3019,"ico":3020,"Ġfield":3021,"ruct":3022,"Ġfem":3023,"Ġeye":3024,"Ġchange":3025,"ging":3026,"Ġcou":3027,"OL":3028,"Ġstrange":3029,"cht":3030,"Al":3031,"ï¼ļ":3032,"ivers":3033,"Ġik":3034,"GGGG":3035,"ivil":3036,"ĠFl":3037,"Ġlatter":3038,"ogy":3039,"ĠÏĢ":3040,"ĠÂ»":3041,"Ġcre":3042,"Ġlonger":3043,"ĠMay":3044,"Ġservice":3045,"ĠâĢĻ":3046,"ä¹ĭ":3047,"Ã¤l":3048,"Ġsleep":3049,"oo":3050,"Ġinflu":3051,"ayed":3052,"Ġattempt":3053,"zz":3054,"Ġtot":3055,"ÎŃ":3056,"Ġsqu":3057,"TTGCC":3058,"Ġship":3059,"TTGGC":3060,"Ġslow":3061,"Ġwritten":3062,"dist":3063,"ining":3064,"Ġgro":3065,"Ġlate":3066,"Ġmill":3067,"Ġhistory":3068,"Ġsupport":3069,"Ġintell":3070,"TH":3071,"Ġsurpr":3072,"Ġ23":3073,"Ġappeared":3074,"ĠAND":3075,"Ġcharge":3076,"ror":3077,"after":3078,"inc":3079,"Ġrap":3080,"Ġven":3081,"Ġfat":3082,"Ġmat":3083,"ĠVer":3084,"ĠAmerican":3085,"etting":3086,"bel":3087,"Gutenberg":3088,"ords":3089,"ables":3090,"AGATG":3091,"Ġze":3092,"ral":3093,"Ġrose":3094,"Ġhusband":3095,"Ġformer":3096,"ĠMe":3097,"Ġconcern":3098,"Ġhot":3099,"ounds":3100,"Ġcontinued":3101,"âĢĺ":3102,"Ġadded":3103,"ĠMad":3104,"Ġwatch":3105,"Ġces":3106,"ias":3107,"Ġcopy":3108,"ference":3109,"Ġpaper":3110,"Ġconn":3111,"èĢ":3112,"ĠParis":3113,"Ġbelow":3114,"Ġforward":3115,"Ã¡r":3116,"ades":3117,"bles":3118,"Ġcorn":3119,"Ã¡t":3120,"SE":3121,"Ġfast":3122,"ĠII":3123,"ision":3124,"Ġ26":3125,"aching":3126,"ract":3127,"âĢĵ":3128,"Ġhair":3129,"irty":3130,"ĠHen":3131,"ĠBar":3132,"joy":3133,"asp":3134,"Ġdeg":3135,"Ġplaced":3136,"Ġtaking":3137,"Ġgard":3138,"house":3139,"Ġdied":3140,"Ġarr":3141,"So":3142,"Ġfait":3143,"TTTGC":3144,"ĠHar":3145,"Ġmaster":3146,"How":3147,"ansa":3148,"Ġaux":3149,"Ġought":3150,"ww":3151,"My":3152,"Ġjoka":3153,"Ġincre":3154,"ica":3155,"äºº":3156,"itte":3157,"IV":3158,"Ġlength":3159,"Ġself":3160,"ital":3161,"ä¾":3162,"ĠNe":3163,"Ġbreak":3164,"Ġassoci":3165,"Ġprison":3166,"itary":3167,"just":3168,"CHAPTER":3169,"AAAGC":3170,"Ġglad":3171,"Ġsugg":3172,"sy":3173,"ĠÎ±":3174,"oir":3175,"hern":3176,"agraph":3177,"Ġsystem":3178,"unity":3179,"Ġbeyond":3180,"Ġvain":3181,"Ġarmy":3182,"ATCCC":3183,"Ġscar":3184,"====":3185,"vat":3186,"Ġhig":3187,"ites":3188,"Ġplain":3189,"Ġbird":3190,"Ġimportant":3191,"ĠAug":3192,"Ġcondu":3193,"Ġfellow":3194,"âĶĢâĶĢâĶĢâĶĢ":3195,"Ġ27":3196,"ĠÃ¼":3197,"Ġcourt":3198,"ATAAC":3199,"--\"":3200,"rect":3201,"Ġhij":3202,"ighb":3203,"era":3204,"Ġdidn":3205,"ĠEm":3206,"cience":3207,"11":3208,".âĢĻ":3209,"ĠMin":3210,"Ġplan":3211,"Ġ28":3212,"ĠPhil":3213,"oly":3214,"ENT":3215,"isted":3216,"AAATC":3217,"Ġna":3218,"CT":3219,"Ġestab":3220,"40":3221,"Ġaccording":3222,"hood":3223,"ixed":3224,"ends":3225,"gin":3226,"Ġprobably":3227,"Ġtoward":3228,"umst":3229,"ander":3230,"Ġsoft":3231,"AGAAC":3232,"Ġparts":3233,"Ïį":3234,"Ġsweet":3235,"pal":3236,"ĠĠĠĠĠĠĠĠĠĠ":3237,"ACTCC":3238,"stit":3239,"ĠeBook":3240,"III":3241,"'re":3242,"iten":3243,"Ġsein":3244,"ests":3245,"ford":3246,".=":3247,"ĠDon":3248,"ushed":3249,"Ġdeal":3250,"Ġspoke":3251,"ey":3252,"Ġliving":3253,"king":3254,"ootnote":3255,"ciety":3256,"nes":3257,"AATTC":3258,"formed":3259,"into":3260,"åį":3261,"Ġdog":3262,"ĠdaÃŁ":3263,"nde":3264,"Ġpara":3265,"Ġx":3266,"Ġproceed":3267,"ban":3268,"UT":3269,"Ġvarious":3270,"Ġenemy":3271,"TATTG":3272,"Ġstreng":3273,"wise":3274,"Ġzijn":3275,"cour":3276,"Ġast":3277,"ACTGC":3278,"ĠWilliam":3279,"Ġpleas":3280,"åĲ":3281,"Ġdream":3282,"pers":3283,"acks":3284,"Footnote":3285,"ĠGu":3286,"essa":3287,"æŃ":3288,"unn":3289,"ively":3290,"Ġprep":3291,"AAAGG":3292,"Ġlaid":3293,"see":3294,"Ġniet":3295,"Ġleur":3296,"Ġmention":3297,"Ġsuddenly":3298,"aud":3299,"ĠEurope":3300,"Ġsn":3301,"issa":3302,"Ġtop":3303,"aste":3304,"ĠCo":3305,"claimed":3306,"ĠYork":3307,"TGAGG":3308,"Ġwit":3309,"ingu":3310,"Ġcry":3311,"amm":3312,"ido":3313,"uly":3314,"Ġknowledge":3315,"Ġva":3316,"Ġfle":3317,"Ġcomplete":3318,"Ġboys":3319,"Ġviol":3320,"Ġfeeling":3321,"ĠÂ©":3322,"Ġprev":3323,"ATATC":3324,"Ġsano":3325,"icense":3326,"Ġpun":3327,"ribed":3328,"ĠQue":3329,"Ġfuture":3330,"ente":3331,"Ġobl":3332,"ences":3333,"kÃ¤":3334,"All":3335,"Ġcomes":3336,"vert":3337,"anced":3338,"Ã©l":3339,"ĠAfter":3340,"RI":3341,"iling":3342,"vie":3343,"Ġwer":3344,"oli":3345,"Ġcopyright":3346,"Ġbright":3347,"Ġbreat":3348,"ĠComm":3349,"ete":3350,"Ġjoy":3351,"vell":3352,"Ġdistance":3353,"US":3354,"Ġju":3355,"oin":3356,"Ġdam":3357,"Î¿Î½":3358,"Ġorgan":3359,"ATAAG":3360,"Ġnone":3361,"hod":3362,"uns":3363,"Ġindividual":3364,"Ġsans":3365,"ouses":3366,"oured":3367,"Ġhop":3368,"ales":3369,"ĠĠĠĠĠĠĠĠĠĠĠĠĠ":3370,"Ġbelong":3371,"Ġmakes":3372,"ĠSte":3373,"Ġfu":3374,"Ġago":3375,"Ġspr":3376,"Ġpray":3377,"Ã°":3378,"Ġeine":3379,"Ġap":3380,"ession":3381,"ĠDie":3382,"ACATT":3383,"Ġsuppose":3384,"CCCC":3385,"Ġcontain":3386,"Ġexam":3387,"Ġalthough":3388,"seen":3389,"Ġeverything":3390,"time":3391,"has":3392,"arp":3393,"Ġoffice":3394,"ellow":3395,"Ġbound":3396,"Ġhappy":3397,"Ġid":3398,"Ġwie":3399,"Ġcru":3400,"=,":3401,"road":3402,"ĠIN":3403,"Ġ29":3404,"AGAGC":3405,"80":3406,"Ġremember":3407,"ĠFrom":3408,"inner":3409,"37":3410,"Ġparagraph":3411,"osop":3412,"Ġprovid":3413,"Ġves":3414,"Ġespecially":3415,"esta":3416,"cil":3417,"Ġcomb":3418,"Ġfac":3419,"ĠItal":3420,"Ġwide":3421,"ari":3422,"rief":3423,"TTGGG":3424,"60":3425,"ilar":3426,"Ġdesp":3427,"äºĨ":3428,"pass":3429,"lÃ¤":3430,"åŃ":3431,"TCG":3432,"Ġkaik":3433,"ancy":3434,"Why":3435,"rict":3436,"TTTAC":3437,"illÃ¤":3438,"ela":3439,"Ġattention":3440,"æĪ":3441,"Ġgreater":3442,"Î³":3443,"Now":3444,"Ġaction":3445,"Ġslight":3446,"Ġpretty":3447,"Ġii":3448,"Ġnur":3449,"Ġdoing":3450,"rowd":3451,"ara":3452,"ĠkÃ¤":3453,"ATGGG":3454,"ati":3455,"ĠnÃ¤":3456,"Ġdifficult":3457,"right":3458,"Ġdue":3459,"Ġdaughter":3460,"Ġrid":3461,"amente":3462,"Ġgod":3463,"mit":3464,"long":3465,"Ġnem":3466,"enth":3467,"Ġlangu":3468,"bet":3469,"rible":3470,"atever":3471,"about":3472,"Ġsad":3473,"iety":3474,"OM":3475,"35":3476,"Ġtrees":3477,"TCTCC":3478,"ĠOh":3479,"Ġentered":3480,"Ġgovernment":3481,"Ġagree":3482,"agen":3483,"Ġoper":3484,"Ġess":3485,"Ġpoet":3486,"ca":3487,"Ġsaying":3488,"Ġole":3489,"AGGGG":3490,"aded":3491,"could":3492,"posed":3493,"ruction":3494,"ĠBritish":3495,"ulation":3496,"aterial":3497,"eds":3498,"Ġinqu":3499,"aten":3500,"ĠSome":3501,"39":3502,"ici":3503,"Ġmouth":3504,"Ġopened":3505,"ĠChurch":3506,"orses":3507,"acher":3508,"Ġ+":3509,"Ġchap":3510,"lands":3511,".</":3512,"iant":3513,"aine":3514,"ĠChristian":3515,"iance":3516,"AGAAAA":3517,"upon":3518,"don":3519,"Ġcu":3520,"pir":3521,"Not":3522,"47":3523,"pic":3524,"Ġdelight":3525,"Ġmass":3526,"Ġminutes":3527,"len":3528,"TCTTC":3529,"UR":3530,"hor":3531,"éĢ":3532,"AGTAA":3533,"unic":3534,"Ġrich":3535,"Ġfood":3536,"Ġmie":3537,"ida":3538,"ech":3539,"Ġprim":3540,"Ġcab":3541,"Ġ$":3542,"çļ":3543,"Ġrend":3544,"á½":3545,"AGAGG":3546,"TATCC":3547,"49":3548,"cer":3549,"ih":3550,"Ġaccess":3551,"Ġbear":3552,"Ġsitu":3553,"ĠCH":3554,"Ġfit":3555,"aven":3556,"Ġstra":3557,"Ġvu":3558,"ĠTH":3559,"ris":3560,"Ã©d":3561,"Ġpot":3562,"again":3563,"ĠWest":3564,"._,":3565,"cely":3566,"45":3567,"Ġprov":3568,"Ġattack":3569,"rav":3570,"Ġtried":3571,"Ġcompany":3572,"great":3573,"36":3574,"onel":3575,"reek":3576,"LI":3577,"ATTTG":3578,"certain":3579,"lying":3580,"erve":3581,"ĠCan":3582,"yal":3583,"Ġdra":3584,"Ġvict":3585,"ivÃ¤t":3586,"ĠLet":3587,"Ġdistribut":3588,"Ġjot":3589,"anto":3590,"AD":3591,"Ġrepe":3592,"otion":3593,"idered":3594,"ATAGC":3595,"ĠCaptain":3596,"Ġnorth":3597,"38":3598,"hold":3599,"Ġwanted":3600,"Ġoppos":3601,"Ġwarm":3602,"ãĢĮ":3603,"Ġqual":3604,"ishing":3605,"ena":3606,"lin":3607,"gress":3608,"Ġmeg":3609,"Ġlar":3610,"Ġbattle":3611,"Ġheavy":3612,"Ġhast":3613,"TCCTG":3614,"ãĢį":3615,"Ïĩ":3616,"Ġgreen":3617,"Ġlived":3618,"mber":3619,"Ġcompan":3620,"Ġneither":3621,"Ġoccur":3622,"48":3623,"Ġclaim":3624,"anted":3625,"Ġera":3626,"Ġmes":3627,"ĠHere":3628,"Ġblue":3629,"ele":3630,"ĠhÃ¤":3631,"ĠlÃ¤":3632,"Ġopinion":3633,"itable":3634,"iction":3635,"Ġpersons":3636,"ĠCor":3637,"eks":3638,"Ġchance":3639,"Ġsor":3640,"Ġmine":3641,"Ġfer":3642,"oit":3643,"spe":3644,"ching":3645,"Ġcoun":3646,"Ġdisapp":3647,"Ġduty":3648,"ĠpÃ¤Ã¤":3649,"ini":3650,"Ġmutta":3651,"lie":3652,"Ġtax":3653,"unte":3654,"ĠoÃ¹":3655,"agn":3656,"ĠMary":3657,"Ġnote":3658,"Ġneighb":3659,"Ġcho":3660,"ĠArchive":3661,"bb":3662,"Ġfaire":3663,"Ġboat":3664,"ĠĠĠĠĠĠĠĠĠĠĠĠ":3665,"sm":3666,"uis":3667,"Ġdetermin":3668,"Ġsimple":3669,"ned":3670,"ĠGeorge":3671,"ĠBer":3672,"cover":3673,"Ġcertainly":3674,"Ġmonths":3675,"Ġphys":3676,"46":3677,"Ġvor":3678,"agg":3679,"onne":3680,"hem":3681,"Ġdevelop":3682,"Ġfrequ":3683,"Ġdella":3684,"yd":3685,"OO":3686,"Ġenjoy":3687,"Ġguard":3688,"oted":3689,"Ġanx":3690,"should":3691,"Ġrecogn":3692,"Ġihm":3693,"olute":3694,"occ":3695,"uous":3696,"mi":3697,"Ġdonations":3698,"Ġnom":3699,"Ġfamil":3700,"endant":3701,"cceed":3702,"è¦":3703,"Ġsave":3704,"ouv":3705,"Ġmort":3706,"raid":3707,"ĠTom":3708,"esty":3709,"aled":3710,"Ġthr":3711,"ĠWas":3712,"Be":3713,"def":3714,"bling":3715,"Ġetc":3716,"En":3717,"Do":3718,"Ġur":3719,"uf":3720,"BER":3721,"Ġsepar":3722,"Mar":3723,"Âł":3724,"vered":3725,"Ġpress":3726,"TATGC":3727,"imate":3728,"ĠÎ¼":3729,"cked":3730,"Ġweek":3731,"TTT":3732,"ama":3733,"iqu":3734,"Ġplaces":3735,"asse":3736,"uv":3737,"ĠMon":3738,"Ġod":3739,"alled":3740,"Ġgenerally":3741,"Ġfun":3742,"TTTGG":3743,"Ġaan":3744,"Ġthick":3745,"ede":3746,"owing":3747,"Ġdispl":3748,"Ġsan":3749,"even":3750,"Ġmaj":3751,"AGCCC":3752,"imin":3753,"Ġfigure":3754,"Ġwindow":3755,"hib":3756,"Ġcondition":3757,"while":3758,"Ġconce":3759,"TGAAG":3760,"asti":3761,"Ġdepart":3762,"icked":3763,"Ġsingle":3764,"char":3765,"ĠmÃªme":3766,"Ġdress":3767,"Î®":3768,"ude":3769,"Ġreport":3770,"Ġburn":3771,"Ġremained":3772,"åĪ":3773,"Ã©tait":3774,"isk":3775,"AAACC":3776,"Ġbeginning":3777,"arrow":3778,"Ġsufficient":3779,"Ġexact":3780,"Ġthird":3781,",âĢĻ":3782,"TGTAG":3783,"Ġdistrib":3784,"Ġrapid":3785,"Ġhogy":3786,"Ġpure":3787,"ĠLiterary":3788,"åľ":3789,"Ġtry":3790,"Ġsont":3791,"Ġobtain":3792,"sÃ¤":3793,"Ġeasy":3794,"Î¸":3795,"Ġko":3796,"Ġges":3797,"olly":3798,"Ġcrowd":3799,"Ġtree":3800,"ĠĊ":3801,"idence":3802,"Ġwrong":3803,"position":3804,"ibr":3805,"Ġcircumst":3806,"Ġdeux":3807,"before":3808,"Ġstrength":3809,"Ġprocess":3810,"Ġtrouble":3811,"Ġneg":3812,"Ġ11":3813,"aying":3814,"Ġoutside":3815,"Ġcentury":3816,"anut":3817,"Ġhall":3818,"AGATT":3819,"Ġstone":3820,"osa":3821,"éģĵ":3822,"TCATT":3823,"ĠCom":3824,"EM":3825,"Qu":3826,"Ġcomfort":3827,"than":3828,"ensa":3829,"ead":3830,"hip":3831,"La":3832,"Ġinfluence":3833,"isc":3834,"ĠMaj":3835,"rend":3836,"known":3837,"Ġexpect":3838,"ĠĠĠĠĠĠĠĠĠĠĠĠĠĠ":3839,"your":3840,"22":3841,"ĠHÃ¤n":3842,"Ġdesire":3843,"Ġcivil":3844,"AGTTC":3845,"Ġbott":3846,"Wh":3847,"Ġsouth":3848,"ĠÃ©s":3849,"ĠNorth":3850,"aped":3851,"Ġmethod":3852,"____":3853,"Ġtrain":3854,"Ġauch":3855,"ĠĠĠĠĠĠĠĠĠĠĠĠĠĠĠ":3856,"AATAG":3857,"sur":3858,"TTTATT":3859,"Ġvoor":3860,"del":3861,"ification":3862,"line":3863,"ba":3864,"leg":3865,"57":3866,"rif":3867,"iti":3868,"cription":3869,"dy":3870,"Ġsilence":3871,"Ġfee":3872,"ACATG":3873,"anch":3874,"Ġsend":3875,"Ġpleasure":3876,"Ġmiss":3877,"rait":3878,"ening":3879,"Ġtrust":3880,"AAA":3881,"Ġos":3882,"ria":3883,"ĠLady":3884,"Ġeasily":3885,"AATAC":3886,"inte":3887,"aval":3888,"Ġconsequ":3889,"Ġsom":3890,"icate":3891,"Ġfran":3892,"ĠPres":3893,"mal":3894,"ases":3895,"bes":3896,"ĠEl":3897,"TGCCC":3898,"_;":3899,".Â»":3900,"Ġcases":3901,"aries":3902,"istÃ¤":3903,"rÃ©":3904,"Ġliber":3905,"Ġconvers":3906,"Ġremo":3907,"Ġmess":3908,"ns":3909,"ĠLou":3910,"esti":3911,"lied":3912,"endo":3913,"Ġlines":3914,"Ġfresh":3915,"place":3916,"iced":3917,"rid":3918,"kaan":3919,"pet":3920,"stood":3921,"Ġhardly":3922,"Ġexclaimed":3923,"together":3924,"nyt":3925,"elled":3926,"through":3927,"Î´":3928,"Ġegy":3929,"ulty":3930,"Ġancient":3931,"uks":3932,"ĠSouth":3933,"TGTGG":3934,"Ġbeauty":3935,"ĠSie":3936,"burg":3937,"Ġprevent":3938,"bro":3939,"ingen":3940,"cor":3941,"Ġalt":3942,"Ġfru":3943,"Ġoll":3944,"da":3945,"Ġletters":3946,"Ġweak":3947,"Ġign":3948,"ĠMa":3949,"orough":3950,"ĠState":3951,"ym":3952,"59":3953,"Ġbooks":3954,"Ġnach":3955,"Ġspl":3956,"inks":3957,"ĠHenry":3958,"ker":3959,"bec":3960,"AAGGG":3961,"Ġbroken":3962,"Ġmusic":3963,"Ġformed":3964,"Ġaj":3965,"Ġhorses":3966,"itive":3967,"nal":3968,"ĠWhy":3969,"ville":3970,"Ġstanding":3971,"eff":3972,"antage":3973,"ĠIndian":3974,"Ġnotice":3975,"Ã¼ck":3976,"Project":3977,"Ġsafe":3978,"Ġhung":3979,"little":3980,"pend":3981,"umb":3982,"Ġeduc":3983,"IG":3984,"ĠAnt":3985,"Ġalle":3986,"cond":3987,"Ġhappened":3988,"ĠCharles":3989,"Ġimpossible":3990,"uted":3991,"Ġvillage":3992,"istr":3993,"TCTTG":3994,"emark":3995,"Ġimmediately":3996,".âĢĶ":3997,"Ġlips":3998,"0000":3999,"Ġgrave":4000,"Ġtrem":4001,"Ġfilled":4002,"Ġenter":4003,"Ġconduct":4004,"Ġuns":4005,"æĺ¯":4006,"ague":4007,"reen":4008,"Ġ186":4009,"lex":4010,"ACAGC":4011,"TCAGG":4012,"sten":4013,"TGTGC":4014,"ï¼ļãĢĮ":4015,"aba":4016,"pon":4017,"ify":4018,"Ġvessel":4019,"ĠST":4020,"Ġwrote":4021,"Ġdirection":4022,"Ġharm":4023,"Ġappearance":4024,"una":4025,"Ġincl":4026,"AATGC":4027,"TTAAAA":4028,"ample":4029,"reme":4030,"TCTGC":4031,"ĠTe":4032,"AACCC":4033,"elij":4034,"ext":4035,"Ġmeant":4036,"uit":4037,"ACTTC":4038,"Ġsister":4039,"only":4040,"Ġoblig":4041,"TCCCAGC":4042,"pping":4043,"noon":4044,"rep":4045,"Ġkn":4046,"ules":4047,"Ġfing":4048,"ashion":4049,"Ġborn":4050,"Ġgentleman":4051,"Ġhen":4052,"anz":4053,"istic":4054,"wood":4055,"Ġsucceed":4056,"Ġmut":4057,"apt":4058,"Ġstarted":4059,"Ġmodern":4060,"Ġstates":4061,"ori":4062,"Ġbecom":4063,"Ġdar":4064,"Ġwis":4065,"Ġspring":4066,"ores":4067,"Ġfurn":4068,"ischen":4069,"Ġintrodu":4070,"Ġrock":4071,"æĸ":4072,"Ã´t":4073,"Ġaber":4074,"ization":4075,"Ġwriting":4076,"Ġsit":4077,"Ġcit":4078,"ability":4079,"Ġmaterial":4080,"arer":4081,"Ġinstead":4082,"olle":4083,"quest":4084,"Ġclot":4085,"TGATT":4086,"Is":4087,"IR":4088,"aks":4089,"70":4090,"Ġnoble":4091,"Ġyouth":4092,"oles":4093,"Ġphil":4094,"ĠminÃ¤":4095,"osp":4096,"ungen":4097,"Ġheaven":4098,"Ġcovered":4099,"ÏĨ":4100,"Ġaddition":4101,"elve":4102,"ails":4103,"ĠPe":4104,"Ġmiddle":4105,"Ġraised":4106,"TTAAG":4107,"Ġtit":4108,"TCAGC":4109,"essed":4110,"Ġmerely":4111,"çļĦ":4112,"Ġstream":4113,"ĠHouse":4114,"ublic":4115,"Ġfool":4116,"ATACC":4117,"Ġoriginal":4118,"culiar":4119,"Ġarrived":4120,"Ġdrew":4121,"hÃ¤n":4122,"Ġban":4123,"oint":4124,"Ġlist":4125,"Ġglass":4126,"Ġball":4127,"With":4128,"every":4129,"AGTGG":4130,"cing":4131,"sz":4132,"war":4133,"han":4134,"ĠÃ¼ber":4135,"Ġcro":4136,"æľī":4137,"ishop":4138,"Ġentirely":4139,"TGTTC":4140,"Î±Î½":4141,"Ġlik":4142,"Ġvent":4143,"volution":4144,"Ġpresence":4145,"hest":4146,"Ġslowly":4147,"Ġmoved":4148,"sub":4149,"Ã¤mÃ¤":4150,"ras":4151,"vation":4152,"Ġexpress":4153,"ttÃ¤":4154,"Ġgirls":4155,"ntÃ¤":4156,"ĠRoman":4157,"Ġcaught":4158,"ding":4159,"Ġfal":4160,"Ġafterwards":4161,"Ġcontro":4162,"oses":4163,"TTTAT":4164,"gent":4165,"TGATG":4166,"Ġdesign":4167,"erous":4168,"Ġnyt":4169,"Ġsmile":4170,":--":4171,"Ġrace":4172,"hered":4173,"omas":4174,"Ġusual":4175,"ements":4176,"Ã¬":4177,"ĠEt":4178,"Ġglo":4179,"ĠAmerica":4180,"istance":4181,"Ġstay":4182,"ares":4183,"Un":4184,"Ġkir":4185,"Ġcrit":4186,"Ġvalue":4187,"Ġgiving":4188,"Ġstreet":4189,"çĶ":4190,"\",":4191,"OT":4192,"ĠWell":4193,"Ġvirt":4194,"ĠEs":4195,"Ġhost":4196,"arily":4197,"Ġknows":4198,"_)":4199,"eur":4200,"Ġlower":4201,"finite":4202,"Ġpiece":4203,"two":4204,"ono":4205,"Ġroll":4206,"Ġsimilar":4207,"åĢ":4208,"Ġcapt":4209,"TTAAC":4210,"Ġboard":4211,"TGAGC":4212,"Ġsharp":4213,"cs":4214,"Ġassociated":4215,"ĠJes":4216,"56":4217,"Ġdestroy":4218,"met":4219,"Ġgaz":4220,"Ġwhis":4221,"Ġyourself":4222,"Ġbroad":4223,"Ġopport":4224,"ibly":4225,"ĠÎ´":4226,"ĠCount":4227,"à±":4228,"Ġyes":4229,"ĠĠĠĠĠĠĠĠĠĠĠĠĠĠĠĠĠĠ":4230,"Ġmach":4231,"Ġsomewhat":4232,"Ġimm":4233,"field":4234,"Ġpubl":4235,"ox":4236,"Ġproduced":4237,"ĠSu":4238,"Ġcred":4239,"Ġmagn":4240,"Ġiron":4241,"ĠLu":4242,"Ġtest":4243,"tes":4244,"cis":4245,"Ġwalked":4246,"ache":4247,"ĠIII":4248,"mÃ¤":4249,"ĠGl":4250,"AATCC":4251,"Ġstraight":4252,"alley":4253,"ATAGG":4254,"Ġtous":4255,"Ġamount":4256,"ĠJames":4257,"aft":4258,"ĠPaul":4259,"âĢķ":4260,"uls":4261,"aire":4262,"Ġbill":4263,"Ġsav":4264,"Ġrequire":4265,"Ġadmir":4266,"Ġstruck":4267,"iments":4268,"Ġpeu":4269,"ese":4270,"Ġnoch":4271,"TTATG":4272,"abb":4273,"Ġbell":4274,"die":4275,"èĩ":4276,"Ġmel":4277,"mb":4278,"ĠâĢĵ":4279,"æī":4280,"Ġoch":4281,"Ġgall":4282,"Ġgetting":4283,"AATTTT":4284,"58":4285,"Ġbank":4286,"ointed":4287,"Ġpull":4288,"Ġlanguage":4289,"Ġfavour":4290,"Ġthinking":4291,"Ġafraid":4292,"èª":4293,"Il":4294,"Ġ189":4295,"Ġlearned":4296,"Ġconsidered":4297,"said":4298,"Ġnews":4299,"TAGGC":4300,"Ġfond":4301,"Ġspecial":4302,"TAGCC":4303,"Ġpens":4304,"count":4305,"nat":4306,"Ġcomo":4307,"Ġhal":4308,"Ġbuilt":4309,"lij":4310,"ola":4311,"rance":4312,"Ġ200":4313,"Ġdont":4314,"Ġresol":4315,"Ġthirty":4316,"Ġdrink":4317,"Ġseven":4318,"ĠCal":4319,"Ġprovide":4320,"Ġquickly":4321,"eness":4322,"Ġhem":4323,"Åĵ":4324,"ANT":4325,"Ġappears":4326,"Ġph":4327,"fr":4328,"nest":4329,"TCAAG":4330,"Ġcustom":4331,"ĠĠĠĠĠĠĠĠĠĠĠĠĠĠĠĠĠ":4332,"Ġofficers":4333,"AGACC":4334,"Ġartic":4335,"TGTTG":4336,"ä¾Ĩ":4337,"Ġki":4338,"ande":4339,"Ġcat":4340,"Ġgew":4341,"bered":4342,"ĠAugust":4343,"ode":4344,"Ġ50":4345,"Ã¶s":4346,"ĠTO":4347,"ieur":4348,"fall":4349,"olic":4350,"TCTAA":4351,"Ġproperty":4352,"ĠAng":4353,"oro":4354,"His":4355,"cr":4356,"Ġsick":4357,"Ã¡l":4358,"Ġforms":4359,"Ġfol":4360,"ception":4361,"Ġvoy":4362,"ATA":4363,"Ġaccomp":4364,"Ġsnow":4365,"ĠThus":4366,"ossa":4367,"ender":4368,"Ġlaughed":4369,"Ãī":4370,"ID":4371,"ona":4372,"Ġchair":4373,"AATTG":4374,"umber":4375,"Ġinformation":4376,"ĠWar":4377,"AATGG":4378,"Ġfirm":4379,"igne":4380,"TACCC":4381,"inÃ¤":4382,"respond":4383,"umed":4384,"essor":4385,"such":4386,"Ġobserved":4387,"enden":4388,"ili":4389,"AGTGC":4390,"duced":4391,"TATGG":4392,"33":4393,"Ġfro":4394,"ĠSam":4395,"ology":4396,"ĠCour":4397,"Ġgi":4398,"Ġimpro":4399,"ĠRome":4400,"Ġstopped":4401,"view":4402,"Ġexcell":4403,"Ġsummer":4404,"Ġamb":4405,"Ġkilled":4406,"var":4407,"TGAAC":4408,"Ġdry":4409,"æĽ":4410,"happ":4411,"ids":4412,"Ġwhatever":4413,"idÃ¤n":4414,"Ġollut":4415,"Ġgreatest":4416,"Ġgar":4417,"AGATC":4418,"Ġmarried":4419,"Ġexpression":4420,"Ġdiscovered":4421,"fast":4422,"Ġallowed":4423,"quis":4424,"Ġconv":4425,"Ġloved":4426,"Ġhun":4427,"Ġshown":4428,"Ġsand":4429,"ĠtÃ¤":4430,"ĠSm":4431,"ĠfÃ¼r":4432,"TTTTCC":4433,"ams":4434,"ST":4435,"Ġshowed":4436,"ĠÃ¨":4437,"uer":4438,"Ġnation":4439,"ĠRuss":4440,"Ġgrew":4441,"kind":4442,"vey":4443,"Ġincluding":4444,"made":4445,"Ġpath":4446,"ĠSE":4447,"iste":4448,"ĠGreat":4449,"Ġevil":4450,"asc":4451,"Ġwrite":4452,"ĠXX":4453,"Ïİ":4454,"Ġemb":4455,"ĠLes":4456,"TTATC":4457,"Ġgives":4458,"oes":4459,"ceived":4460,"ev":4461,"opp":4462,"IM":4463,"ima":4464,"Ġconsiderable":4465,"Ġleaving":4466,"Ġpra":4467,"Ġstudy":4468,"ĠJack":4469,"One":4470,"Ġsong":4471,"Ġapparent":4472,"back":4473,"Ġexperience":4474,"After":4475,"å¥":4476,"Ġshad":4477,"isse":4478,"vous":4479,"ĠAg":4480,"lement":4481,"AAGAC":4482,"ĠRoy":4483,"itor":4484,"Ġunless":4485,"Ġtor":4486,"87":4487,"agy":4488,"ishment":4489,"Ġwalls":4490,"taa":4491,"dem":4492,"Ġlord":4493,"Ġwid":4494,"Ġthoughts":4495,"akin":4496,"ef":4497,"Ġcloud":4498,"Ġband":4499,"AGTGGC":4500,"Ġforest":4501,"Ġleaves":4502,"TCATC":4503,"Ġdoll":4504,"Ġfloor":4505,"Ġdinner":4506,"Ġgovern":4507,"........":4508,"onsieur":4509,"Ġwinter":4510,"hal":4511,"ded":4512,"Ġpassion":4513,"ply":4514,"Ġhealth":4515,"Ġusually":4516,"Ġreceive":4517,"Of":4518,"Ġscene":4519,"Ġbas":4520,"tti":4521,"ĠDav":4522,"Ġmission":4523,"Ġseeing":4524,"illy":4525,"Ġfavor":4526,"Ġmembers":4527,"Ġphilosop":4528,"Ġsurface":4529,"Ġencore":4530,"uli":4531,"kÃ¶":4532,"Ġker":4533,"Ġlot":4534,"Ġspot":4535,"iger":4536,"ĠpiÃ¹":4537,"ograph":4538,"law":4539,"Ġshot":4540,"ĠÏĥ":4541,"Ġhouses":4542,"post":4543,"hu":4544,"hum":4545,"pÃ¤":4546,"Ġsociety":4547,"Ġpicture":4548,"these":4549,"Ġcult":4550,"Ġnarrow":4551,"clock":4552,"ibility":4553,"Ġloss":4554,"Ġpassage":4555,"worth":4556,"habit":4557,"Ġdurch":4558,"ĠJan":4559,"Ġreligion":4560,"Ġtroops":4561,"Ġont":4562,"may":4563,"Ġgoes":4564,"Ġtur":4565,"].":4566,"Ġlives":4567,"44":4568,"Ġexpected":4569,"mas":4570,"Ġtemper":4571,"arl":4572,"Ġgrace":4573,"Ġreach":4574,"Ġunto":4575,"Ġdistingu":4576,"ATTTTC":4577,"irth":4578,"ĠRep":4579,"Ġforgot":4580,"Ã©p":4581,"ĠÃ¶":4582,"Ġhonour":4583,"Ġpeculiar":4584,"ssÃ¤":4585,"Ah":4586,"iding":4587,"Ġhero":4588,"Ġ{":4589,"good":4590,"sl":4591,"ulla":4592,"olo":4593,"ĠQueen":4594,"21":4595,"Ġmas":4596,"Ġperform":4597,"uments":4598,"inst":4599,"yle":4600,"Ġment":4601,"agon":4602,"Ġstre":4603,"AAATAA":4604,"89":4605,"Ġutter":4606,"eni":4607,"ainen":4608,"Ġstrugg":4609,"Ġforeign":4610,"ĠRich":4611,"lected":4612,"å¿":4613,"aper":4614,"Ġchanged":4615,"UL":4616,"itz":4617,"Her":4618,"Ġtone":4619,"erved":4620,"ieder":4621,"ATTGG":4622,"ĠVol":4623,"heart":4624,"Ã»t":4625,"ye":4626,"exp":4627,"Ġrequired":4628,"Ġsupposed":4629,"Ġentre":4630,"oren":4631,"order":4632,"Ġdrawn":4633,"must":4634,"Ġcaptain":4635,"ĠZe":4636,"antic":4637,"Ġarg":4638,"ĠYet":4639,"ocr":4640,"ergy":4641,"GAC":4642,"Ġble":4643,"By":4644,"Ġshout":4645,"AGTAG":4646,"Ãªtre":4647,"Ġkat":4648,"first":4649,"ĠÃª":4650,"Ġgroup":4651,"Ġspecies":4652,"Ġsurr":4653,"76":4654,"bu":4655,"ĠSw":4656,"dif":4657,"ensÃ¤":4658,"Ġminute":4659,"Ġtears":4660,"illes":4661,"Ġthrow":4662,"Ġscarcely":4663,"Ġcoast":4664,"Ġnames":4665,"ĠGovernment":4666,"Ġrail":4667,"rec":4668,"iner":4669,"Je":4670,"fortun":4671,"Ġcopies":4672,"æĹ":4673,"TGAGGC":4674,"anging":4675,"Ġdecided":4676,"down":4677,"ala":4678,"Ġallow":4679,"Ġ40":4680,"gypt":4681,"much":4682,"200":4683,"Ġisland":4684,"Ġanimal":4685,"ented":4686,"aksi":4687,"41":4688,"Ġdiscuss":4689,"ATTTAA":4690,"TCAGCC":4691,"ĠComp":4692,"Ġbreath":4693,"Ġwaiting":4694,"Ġsocial":4695,"vention":4696,"Ġ190":4697,"Ã©c":4698,"ACT":4699,"Ġpros":4700,"rey":4701,"Ġconcl":4702,"Ã¡g":4703,"Ġka":4704,"esc":4705,"Ġmij":4706,"Ġjourney":4707,"TCATG":4708,"Ġexec":4709,"Ġrain":4710,"ternal":4711,"Ġmarked":4712,"ĠOR":4713,"TCACC":4714,"iny":4715,"Ġdoct":4716,"Don":4717,"ival":4718,"ĠJa":4719,"Ġeat":4720,"Ġplease":4721,"ĠPrince":4722,"Ġprovided":4723,"ago":4724,"oria":4725,"prÃ¨s":4726,"Ġdate":4727,"Ġhath":4728,"Ġprivate":4729,"Ġtrib":4730,"AAAGAA":4731,"Ġwest":4732,"Ġequal":4733,"ulle":4734,"Ġkne":4735,"ĠTur":4736,"Ġafternoon":4737,"pes":4738,"Ġbeside":4739,"ĠLouis":4740,"Ġcover":4741,"Ġsoldiers":4742,"ency":4743,"anges":4744,"-+":4745,"Ġwir":4746,"Ġefforts":4747,"GCCC":4748,"Eng":4749,"Ġcircumstances":4750,"Ġquant":4751,"ĠIndians":4752,"Se":4753,"Ġarch":4754,"Ġsatisf":4755,".;":4756,"oken":4757,"Ġhabit":4758,"Ġdistinct":4759,"Ġspread":4760,"Ġexistence":4761,"Ġbroke":4762,"Ġtakes":4763,"Ãªte":4764,"Ġofficial":4765,"Ġnos":4766,"Ġspace":4767,"Ġmoral":4768,"raz":4769,"ikÃ¤":4770,"elles":4771,"wing":4772,"Ġdescribed":4773,"Ġfifty":4774,"gment":4775,"ACTAC":4776,"TGTCC":4777,"âĢĶâĢĶ":4778,"ĠPRO":4779,"without":4780,"ems":4781,"ACTAA":4782,"Ġflowers":4783,"Ġell":4784,"estern":4785,"Ġdisp":4786,"ospit":4787,"ãĤ":4788,"himself":4789,"omb":4790,"erk":4791,"Ġdeclared":4792,"umph":4793,"peror":4794,"Ġtouch":4795,"Ġconstit":4796,"father":4797,"uts":4798,"96":4799,"Ġpersonal":4800,"Ġeager":4801,"å·":4802,"Ġimper":4803,"ãĢģ":4804,"ĠÎºÎ±Î¹":4805,"cho":4806,"TTAGC":4807,"Ġvir":4808,"Ġbox":4809,"ĠĠĠĠĠĠĠĠĠĠĠĠĠĠĠĠĠĠĠ":4810,"ĠmÃ¡s":4811,"Ġdiss":4812,"cket":4813,"ĠReg":4814,"aily":4815,"hti":4816,"pected":4817,"ĠâĢŀ":4818,"thought":4819,"AGA":4820,"ĠBo":4821,"Ġplant":4822,"Ġtap":4823,"ouve":4824,"Ġsky":4825,"Ġextreme":4826,"Ġexerc":4827,"voir":4828,"idenote":4829,"usta":4830,"Ġheat":4831,"ĠTheir":4832,"Ġrare":4833,"AATAT":4834,"ting":4835,"Ġfra":4836,"Ġsour":4837,"atte":4838,"Ġhan":4839,"ĠWhere":4840,"Ġpossession":4841,"ctions":4842,"Ġlikely":4843,"ĠÃ¤":4844,"Ġfixed":4845,"Ġaddress":4846,"77":4847,"Ġsymp":4848,"Ġsitting":4849,"Ġroyal":4850,"ĠÃ©tÃ©":4851,"//":4852,"Ġgarden":4853,"ĠsitÃ¤":4854,"Ġgrad":4855,"Ġexample":4856,"Ġevidence":4857,"Ġauthority":4858,"Ġpolitical":4859,"eless":4860,"Ġbuilding":4861,"Sidenote":4862,"Ġremoved":4863,"Ġpermission":4864,"Ġpursu":4865,"Ġeffort":4866,"ĠLicense":4867,"Let":4868,"Ġdoctor":4869,"ĠJew":4870,"éĤ":4871,"Ġshore":4872,"Ġadop":4873,"Ġones":4874,"somet":4875,"Ġterrible":4876,"oute":4877,"amen":4878,"sk":4879,"Ġdread":4880,"attered":4881,"mir":4882,"43":4883,"55":4884,"Ġescape":4885,"Ġextra":4886,"oor":4887,"ounced":4888,"AGTTG":4889,"ĠMor":4890,"Ġmonth":4891,"åŃĲ":4892,"Ġsearch":4893,"Ġmountain":4894,"imo":4895,"Ġrule":4896,"://":4897,"anish":4898,"Ġuit":4899,"eping":4900,"atur":4901,"Ġmeeting":4902,"lished":4903,"supp":4904,"Ġcharm":4905,"AND":4906,"Ġforget":4907,"raft":4908,"Ġsanoi":4909,"ĠÎ¿":4910,"Ġhigher":4911,"Ġsimply":4912,"Ġabsolute":4913,"bly":4914,"!...":4915,"Ġkiss":4916,"Ġgli":4917,"Ġprepared":4918,"Ġmarriage":4919,"Mrs":4920,"Pr":4921,"90":4922,"ĠRed":4923,"ACAAC":4924,"inent":4925,"ĠPal":4926,"Ġsail":4927,"iksi":4928,"elf":4929,"Ġsides":4930,"Ġsituation":4931,"tu":4932,"chief":4933,"asing":4934,"hÃ¤":4935,"CE":4936,"Ġnamed":4937,"did":4938,"Ġstar":4939,"Ġtender":4940,"isters":4941,"ĠÏĦÎ·":4942,"Ġren":4943,"Ġpassing":4944,"Ġinteresting":4945,"uri":4946,"Ġreligious":4947,"Ġofficer":4948,"Ġrise":4949,"lier":4950,"might":4951,"Ġkill":4952,"Ġdegree":4953,"TAAGC":4954,"fit":4955,"pi":4956,"ĠFrank":4957,"Ġbod":4958,"elen":4959,"osing":4960,"Ġsilent":4961,"Ġog":4962,"Ġpale":4963,"86":4964,"Ġindic":4965,"Ġgame":4966,"Ġspeech":4967,"ĠRE":4968,"Ġmentioned":4969,"atis":4970,"Ġdetermined":4971,"TCTGG":4972,"Ġsli":4973,"erson":4974,"Ġreading":4975,"Ġinstant":4976,"Ġmoi":4977,"Ġproved":4978,"hd":4979,"Ġconditions":4980,"Ġprogress":4981,"TTGGCC":4982,"Ġneck":4983,"ĠDes":4984,"Ġheight":4985,"Ġanyone":4986,"Ġorders":4987,"Ġmoon":4988,"TAAGG":4989,"Ġot":4990,"water":4991,"ĠIr":4992,"ĠVir":4993,"Ġprincipal":4994,"Ġbread":4995,"Ġoffered":4996,"Ġdan":4997,"acle":4998,"Ġstop":4999,"Ġopportunity":5000,"ĠAf":5001,"ÎµÎ¹":5002,"Ġvot":5003,"ACATC":5004,"Ġnative":5005,"Ġ21":5006,"Ġtrying":5007,"Ġstock":5008,"Ġrunning":5009,"Ġcup":5010,"ĠPeter":5011,"ading":5012,"Ġben":5013,"ĠMutta":5014,"ĠEvery":5015,"ram":5016,"èĪ":5017,"pret":5018,"emed":5019,"Ġhier":5020,"Ġrepeated":5021,"Ġappre":5022,"pres":5023,"iva":5024,"ĠJer":5025,"Ġspeaking":5026,"oms":5027,"Ġtrademark":5028,"Ġsilver":5029,"Ġcorner":5030,"Ġmilitary":5031,"ĠDE":5032,"ĠPort":5033,"atin":5034,"Ġclosed":5035,"Ġlisten":5036,"Ġcs":5037,"osen":5038,"Ġparent":5039,"Ġapart":5040,"quer":5041,"morrow":5042,"pri":5043,"æķ":5044,"Ġrate":5045,"Ġsize":5046,"retched":5047,"Ġregular":5048,"ĠThomas":5049,"Ġ22":5050,"Ġils":5051,"icks":5052,"Ġsche":5053,"Ġusing":5054,"ECT":5055,"Ġalla":5056,"Ġwise":5057,"çĦ":5058,"umm":5059,"ula":5060,"Ġspir":5061,"Ġobtained":5062,"Ġcham":5063,"Ġbow":5064,"Ġ36":5065,"plic":5066,"pen":5067,"TGTTTT":5068,"inal":5069,"Ġreve":5070,"bid":5071,"four":5072,"conom":5073,"Ġcapital":5074,"Ġbelieved":5075,"Ġpleasant":5076,"being":5077,"pons":5078,"Ġcompar":5079,"ACAGG":5080,"Ã¨res":5081,"este":5082,"Ġpoints":5083,"Ġtrade":5084,"ez":5085,"AGTCC":5086,"ĠYOU":5087,"Ġprovin":5088,"ieu":5089,"Ġsubst":5090,"aci":5091,"TGATC":5092,"Ġolisi":5093,"Ġpel":5094,"hin":5095,"Ġanimals":5096,"ä¹Ł":5097,"Ġreply":5098,"Ġric":5099,"Ġjustice":5100,"ustri":5101,"uel":5102,"Ġfier":5103,"Ġpage":5104,"Ġweight":5105,"ieve":5106,"Ġcourage":5107,"TAGGG":5108,"Ġwished":5109,"Ġbrown":5110,"ART":5111,"Ġstation":5112,"Ġbeneath":5113,"Ġinj":5114,"ifted":5115,"Ġyellow":5116,"Ġbirds":5117,"Sh":5118,"Ġcaused":5119,"Ġsang":5120,"never":5121,"cur":5122,"ACACC":5123,"ĠCong":5124,"Pl":5125,"Ġextent":5126,"Ġdeli":5127,"Ã¼n":5128,"ĠMart":5129,"Con":5130,"97":5131,"Î¿ÏĤ":5132,"Ġbitter":5133,"Ã¨rent":5134,"Ġhatte":5135,"Ġhonor":5136,"Ġtwelve":5137,"ĠFather":5138,"Ġintellig":5139,"Ġaik":5140,"Ġignor":5141,"Ġserious":5142,"Ġapplic":5143,"From":5144,"Ġsuggest":5145,"Ġattract":5146,"Ġsig":5147,"ancing":5148,"Ġfinally":5149,"?'":5150,"åĽ":5151,"Ġleurs":5152,"Ġprepar":5153,"Ġgrass":5154,"unut":5155,"gutenberg":5156,"TCAAC":5157,"Ġmotion":5158,"isp":5159,"ATATAA":5160,"ĠRom":5161,"88":5162,"uses":5163,"kt":5164,"Ġconversation":5165,"Ġdifficulty":5166,"ompl":5167,"Ġfish":5168,"Ġsteps":5169,"istory":5170,"bon":5171,"Ġspent":5172,"Ġtall":5173,"Ã¼h":5174,"sti":5175,"âĢŀ":5176,"Ġcolor":5177,"Ġordinary":5178,"Ġcand":5179,"rank":5180,"Ġring":5181,"bey":5182,"ailed":5183,"fle":5184,"Ġpopular":5185,"ĠJud":5186,"Ġcrown":5187,"ĠNap":5188,"pered":5189,"Ġoh":5190,"ĠAN":5191,"ĠEven":5192,"Ġfashion":5193,"åİ":5194,"Ġlaugh":5195,"Re":5196,"Ġphr":5197,"Per":5198,"ados":5199,"ACAAG":5200,"Ġsurprise":5201,"TGAAAA":5202,"Ġnumerous":5203,"uct":5204,"Ġaim":5205,"Ġportion":5206,"Ġwitness":5207,"pril":5208,"Ġinstance":5209,"Ġemp":5210,"Ġthank":5211,"amme":5212,"Ġsell":5213,"TGACC":5214,"Ġcalm":5215,"Ġmatters":5216,"andon":5217,"ĠFOR":5218,"di":5219,"rine":5220,"Ġliter":5221,"Ġbal":5222,"verse":5223,"ĠMont":5224,"Ġaqu":5225,"IST":5226,"five":5227,"Ġgun":5228,"Ġworking":5229,"ĠIm":5230,"Ġimportance":5231,"Ġsatisfact":5232,"å¹":5233,"çĽ":5234,"Ġfil":5235,"ensive":5236,"TGTAC":5237,"aker":5238,"ĠOur":5239,"ĠJesus":5240,"portion":5241,"aked":5242,"ĠSen":5243,"Ġordered":5244,"Ã³l":5245,"75":5246,"olt":5247,"ĠSi":5248,"estÃ¤":5249,"Ġaussi":5250,"Ġoffer":5251,"ä»¥":5252,"ĠpÃ¤":5253,"ĠJune":5254,"auf":5255,"ga":5256,"Ġmedium":5257,"aret":5258,"jen":5259,"wr":5260,"ĠWho":5261,"Ġsteam":5262,"Ġvig":5263,"those":5264,"ĠSan":5265,"ĠMais":5266,"Ġturning":5267,"Ġways":5268,"ellÃ¤":5269,"Ex":5270,"Â·":5271,"Ã¼l":5272,"Ġprove":5273,"ATION":5274,"ĠDuke":5275,"Ġintellect":5276,"Ġrefund":5277,"Ġpa":5278,"Ġmovement":5279,"Ġspeed":5280,"TAACC":5281,"orne":5282,"Ġmarch":5283,"gest":5284,"ĠJust":5285,"Ġperfectly":5286,"Ġeinen":5287,"Ġsplend":5288,"TTACC":5289,"ĠeBooks":5290,"orious":5291,"ially":5292,"34":5293,"Ġfortune":5294,"Ġclean":5295,"Ġavo":5296,"people":5297,"iring":5298,"ĠMc":5299,"zo":5300,"Ġgle":5301,"ĠMarch":5302,"iÃ¨re":5303,"ĠWor":5304,"Ġtar":5305,"igned":5306,"ACTTG":5307,"Ġenv":5308,"Ġaccompl":5309,"Or":5310,"Ġships":5311,"Ġlying":5312,"Ġsous":5313,"TAATTTT":5314,"ESS":5315,"bell":5316,"inci":5317,"ACAAAA":5318,"Ġfruit":5319,"TCTTTT":5320,"ĠBel":5321,"ÎµÎ½":5322,"ET":5323,"Ġvolunte":5324,"Ġwealth":5325,"ĠGes":5326,"Ġsag":5327,"AY":5328,"ĠMen":5329,"Ġspite":5330,"AATATT":5331,"Ġjon":5332,"Ġattend":5333,"Ġrecord":5334,"TTAGG":5335,"Ġzich":5336,"ĠMal":5337,"Ġkau":5338,"ATTATT":5339,"essÃ¤":5340,"Ġopposite":5341,"Ġesp":5342,"standing":5343,"ä»ĸ":5344,"Ġmemory":5345,"hington":5346,"ĠOct":5347,"Ġwo":5348,"uen":5349,"Ġproof":5350,"Ġcommer":5351,"action":5352,"Ġforty":5353,"Ġcorrect":5354,"Ġdomain":5355,"ĠEgypt":5356,"Ġpieces":5357,"æĪĳ":5358,"serv":5359,"Ġolivat":5360,"Ġadvantage":5361,"esse":5362,"Ġeast":5363,"atures":5364,"Ġbrave":5365,"Ġfarm":5366,"ĠSal":5367,"nek":5368,"ĠIV":5369,"erable":5370,"Ġseat":5371,"itter":5372,"TCTAC":5373,"rat":5374,"Ġmeaning":5375,"ĠOld":5376,"ulf":5377,"Ġcurious":5378,"outhern":5379,"Ġtut":5380,"Ġillustr":5381,"Ġsua":5382,"found":5383,"ĠJuly":5384,"Ġident":5385,"heid":5386,"ãĢĤãĢį":5387,"Ġshare":5388,"hw":5389,"Î±ÏĦ":5390,"Ġladies":5391,"Here":5392,"ĠĠĠĠĠĠĠĠĠĠĠĠĠĠĠĠĠĠĠĠĠĠĠĠĠ":5393,"Ġupper":5394,"Ġbon":5395,"ĠkÃ¶":5396,"Ġweeks":5397,"Ġourselves":5398,"umes":5399,",âĢĶ":5400,"Ġheads":5401,"99":5402,"Ġtant":5403,"ners":5404,"Ġkans":5405,"!--":5406,"Ġconcerning":5407,"Ġprince":5408,"Ġfully":5409,"ĠPh":5410,"GTGG":5411,"Ġgreatly":5412,"Ġengaged":5413,"Ġtod":5414,"uary":5415,"Ġstro":5416,"Ġcommunic":5417,"ĠCourt":5418,"ĠĠĠĠĠĠĠĠĠĠĠĠĠĠĠĠĠĠĠĠĠĠĠĠĠĠĠĠĠ":5419,"Ġdign":5420,",[":5421,"utions":5422,"jud":5423,"Ġrefer":5424,"taient":5425,"Ġcolour":5426,"Ġfill":5427,"Ġaccepted":5428,"ĠIts":5429,"Ġfallen":5430,"Ġunderstood":5431,"Ġstage":5432,"ĠĠĠĠĠĠĠĠĠĠĠĠĠĠĠĠĠĠĠĠĠ":5433,"ÏīÎ½":5434,"Ġfacts":5435,"Ġconscious":5436,"Ġdim":5437,"rant":5438,"ische":5439,"Ġquestions":5440,"Ġlooks":5441,"çŁ":5442,"iting":5443,"Ġparticularly":5444,"Ġunivers":5445,"ĠTer":5446,"Ġmeasure":5447,"Ġtemps":5448,"atre":5449,"Ġegg":5450,"Ġjam":5451,"Ġtong":5452,"Ġaid":5453,"Ġbab":5454,"Tr":5455,"ĠĠĠĠĠĠĠĠĠĠĠĠĠĠĠĠĠĠĠĠ":5456,"agement":5457,"],":5458,"child":5459,"Ġmountains":5460,"Ġpeut":5461,"Ġstyle":5462,"Ġcher":5463,"å¤§":5464,"icy":5465,"Ġdistributing":5466,"Ġphysical":5467,"ĠĠĠĠĠĠĠĠĠĠĠĠĠĠĠĠĠĠĠĠĠĠĠ":5468,"Ġemployed":5469,"AB":5470,"liament":5471,"ira":5472,"Ġdise":5473,"rences":5474,"ĠPresident":5475,"uto":5476,"Ġintended":5477,"Ã«":5478,"vet":5479,"keit":5480,"Ġstir":5481,"sen":5482,"ĠvielÃ¤":5483,"Ġpp":5484,"aining":5485,"Ġagreed":5486,"Ġhistor":5487,"aches":5488,"dire":5489,"Ġfrequently":5490,"UN":5491,"eper":5492,"çľ":5493,"umn":5494,"ceive":5495,"osta":5496,"ATTTTG":5497,"stone":5498,"tw":5499,"Ġsam":5500,"Ġproduce":5501,"Ġfright":5502,"Ġseason":5503,"TGTATT":5504,"ators":5505,"ĠChe":5506,"Ġbei":5507,"chi":5508,"asons":5509,"ipe":5510,"isl":5511,"ĠÎ½":5512,"Ġwonderful":5513,"astic":5514,"Ġende":5515,"Ġowner":5516,"fessor":5517,"Ġappe":5518,"Am":5519,"cts":5520,"Ġears":5521,"Ġnel":5522,"Ġremains":5523,"hens":5524,"Ġwouldn":5525,"Ġthreat":5526,"ĠFig":5527,"ĠPat":5528,"Ġthrew":5529,"ĠRobert":5530,"Ġprovis":5531,"Ġky":5532,"å¦":5533,"edom":5534,"çĤ":5535,"31":5536,"Ġdeb":5537,"Ġpublished":5538,"Ġkeeping":5539,"uÃŁ":5540,"Ġproud":5541,"follow":5542,"elijk":5543,"Ġblind":5544,"orthern":5545,"Ġtravell":5546,"against":5547,"32":5548,"friend":5549,"Ġbottom":5550,"Ã©m":5551,"Ġserve":5552,"Ġdifference":5553,"66":5554,"Ġpleased":5555,"ĠVan":5556,"Ġwine":5557,"éĽ":5558,"arse":5559,"Ġain":5560,"ommes":5561,"Ġsake":5562,"cal":5563,"Ġclim":5564,"Ġideas":5565,"Ġexcl":5566,"Ġfalse":5567,"anne":5568,"Ġtalking":5569,"Ġsympath":5570,"Ġthin":5571,"mind":5572,"Ġbij":5573,"Ġcarefully":5574,"***":5575,"lly":5576,"Ġdrawing":5577,"ols":5578,"looking":5579,"three":5580,"rose":5581,"Ġmult":5582,"ential":5583,"ĠFort":5584,"Ġkok":5585,"ello":5586,"Ġthorough":5587,"ĠBur":5588,"lichen":5589,"42":5590,"ĠMil":5591,"Ġthrown":5592,"ĠRoyal":5593,"athered":5594,"ACCATG":5595,"ĠScot":5596,"ĠDer":5597,"Ġtaste":5598,"cop":5599,"ray":5600,"oked":5601,"Ġrad":5602,"book":5603,"Ġpare":5604,"Ġpy":5605,"mark":5606,"OW":5607,"ourn":5608,"ferent":5609,"Ġexcellent":5610,"ĠDick":5611,"acing":5612,"ĠAh":5613,"abs":5614,"Äģ":5615,"sell":5616,"Ġcorrespond":5617,"Ġbrill":5618,"Ġexactly":5619,"Ġassem":5620,"Ġaud":5621,"Ġbold":5622,"many":5623,"jours":5624,"Ġworse":5625,"Ġsmiled":5626,"Ġexplan":5627,"iÃŁ":5628,"Ã¯":5629,"å¾Ĺ":5630,"Ġzur":5631,"Ġforced":5632,"Ġpromise":5633,"suff":5634,"Ġhaar":5635,"ĠÏĦÎ¿Ïħ":5636,"kes":5637,"Ġfamiliar":5638,"Ġsecure":5639,"ĠDan":5640,"atta":5641,"ĠLaw":5642,"conf":5643,"Ġtrop":5644,"because":5645,"ref":5646,"non":5647,"ulous":5648,"lemn":5649,"AGTAC":5650,"BERG":5651,"ĠGreek":5652,"asts":5653,"ĠColonel":5654,"mother":5655,"mente":5656,"ĠXV":5657,"yer":5658,"AAT":5659,"Î¿Ïį":5660,"Ġproble":5661,"Ġweather":5662,"Ġaffairs":5663,"oseph":5664,"lev":5665,"give":5666,"utter":5667,"Ġtim":5668,"Ġfinished":5669,"lor":5670,"éĸ":5671,"Ġmurm":5672,"ground":5673,"Ġsorrow":5674,"Ġfrag":5675,"Ġcott":5676,"Ġoccupied":5677,"Ġdistribution":5678,"Ġdirectly":5679,"Christ":5680,"TAATAA":5681,"igt":5682,"elect":5683,"Ġbirth":5684,"Ġcheer":5685,"AGAAGG":5686,"Ġspoken":5687,"Ġshook":5688,"dr":5689,"Ġiv":5690,"pg":5691,"Ġhid":5692,"ket":5693,"ĠLie":5694,"Ġhills":5695,"Ġrough":5696,"necess":5697,"ĠSuch":5698,"Ġcontem":5699,"etr":5700,"omin":5701,"chant":5702,"lebr":5703,"ober":5704,"Ġisn":5705,"gli":5706,"ERS":5707,"Ġcool":5708,"Ġprec":5709,"ads":5710,"ĠMadame":5711,"Ġbless":5712,"Ġsquare":5713,"Ġquarter":5714,"ĠBen":5715,"Ġtype":5716,"usted":5717,"ä¸Ĭ":5718,"Ġcontent":5719,"Ġpan":5720,"Ġadvance":5721,"Ġvel":5722,"aved":5723,"cribe":5724,"Ġscience":5725,"!'":5726,"Ġdarkness":5727,"Ġsul":5728,"Ġbrief":5729,"Ġvic":5730,"Ġlog":5731,"utenant":5732,"life":5733,"Ġbare":5734,"Ġcouldn":5735,"Ġpack":5736,"ĠHim":5737,"Ġpowers":5738,"Ġinno":5739,"Ġlies":5740,"Ġmanif":5741,"isch":5742,"laf":5743,"ael":5744,">,":5745,"OS":5746,"Ġcurrent":5747,"eed":5748,"Ġedge":5749,"JECT":5750,"Ġmarry":5751,"urally":5752,"ĠAlex":5753,"ĠÃªtre":5754,"Ġbull":5755,"imme":5756,"ĠlÃł":5757,"wind":5758,"OOK":5759,"Ġvolt":5760,"key":5761,"Ġ----":5762,"oa":5763,"course":5764,"omme":5765,"Ġcel":5766,"èªª":5767,"See":5768,"eren":5769,"Ġcell":5770,"Ġdig":5771,"Ġfaint":5772,"Ġdiscover":5773,"Ġpresented":5774,"Ġoder":5775,"ĠMed":5776,"Ġmajor":5777,"85":5778,"rows":5779,"ĠBes":5780,"Ġhappiness":5781,"cles":5782,"Ġpictures":5783,"Ġeiner":5784,"Ġpractice":5785,"antes":5786,"Go":5787,"Ġpron":5788,"Ġloud":5789,"uta":5790,"habitants":5791,"God":5792,"Ġlean":5793,"ordinary":5794,"ACTGG":5795,"iem":5796,"Ġfamous":5797,"Ġholding":5798,"atives":5799,"Ġdouble":5800,"called":5801,"turn":5802,"Ġihn":5803,"bus":5804,"Ġevents":5805,"--_":5806,"avait":5807,"Ġnational":5808,"Ġsorry":5809,"Ġlabor":5810,"Ġrelations":5811,"ĠĠĠĠĠĠĠĠĠĠĠĠĠĠĠĠĠĠĠĠĠĠ":5812,"atus":5813,"fa":5814,"çĤº":5815,"Ġtied":5816,"IES":5817,"ĠSer":5818,"Ġsettled":5819,"ahr":5820,"èģ":5821,"last":5822,"Ġprem":5823,"Ġpossessed":5824,"atory":5825,"take":5826,"asures":5827,"Ġleading":5828,"cap":5829,"hi":5830,"LA":5831,"Ġprotect":5832,"Ġclearly":5833,"nÃ¤":5834,"ENBERG":5835,"ĠApril":5836,"lder":5837,"ibrary":5838,"Ġhighest":5839,"Ġendeav":5840,"ĠĠĠĠĠĠĠĠĠĠĠĠĠĠĠĠĠĠĠĠĠĠĠĠĠĠĠĠ":5841,"Ġexped":5842,"ĠStreet":5843,"add":5844,"unch":5845,"AGTTTT":5846,"think":5847,"Ġopening":5848,"Ġpopulation":5849,"Ġevent":5850,"Ġearnest":5851,"Ġwatched":5852,"angers":5853,"Ġwear":5854,"enses":5855,"ĠGermany":5856,"Ġcitiz":5857,"Ġrecon":5858,"Ġcompos":5859,"bur":5860,"emp":5861,"sw":5862,"Ġeinem":5863,"alous":5864,"Ġwerden":5865,"cies":5866,"Ġfel":5867,"ardon":5868,"ĠEast":5869,"========":5870,"Ġmyst":5871,"acity":5872,"shall":5873,"May":5874,"Ġsuo":5875,"Ġrow":5876,"Ġestablished":5877,"ĠhÃ¤ntÃ¤":5878,"Ġclothes":5879,"onies":5880,"Ġcatch":5881,"Ġsword":5882,"Ġregarded":5883,"ĠĠĠĠĠĠĠĠĠĠĠĠĠĠĠĠĠĠĠĠĠĠĠĠĠĠ":5884,"ĠMac":5885,"aur":5886,"country":5887,"Ġcentre":5888,"Ġgate":5889,"Ġforces":5890,"Ġaffection":5891,"otte":5892,"AGAAGC":5893,"ĠLand":5894,"TCTAG":5895,"Ġlarger":5896,"ĠAfric":5897,"Where":5898,"Ġwounded":5899,"ĠCont":5900,"Ġsuperior":5901,"Ġterm":5902,"Ġremarkable":5903,"uge":5904,"Ġinn":5905,"mat":5906,"Ġdefect":5907,"prom":5908,"Ġca":5909,"och":5910,"Ġgrande":5911,"uries":5912,"leep":5913,"Ġanxious":5914,"Ġburst":5915,"lar":5916,"Ġhes":5917,"Ġinstr":5918,"è¨":5919,"Ġcomply":5920,"Ġ35":5921,"Ġcalcul":5922,"interest":5923,"ador":5924,"olf":5925,"ints":5926,"las":5927,"Ġgrat":5928,"Ã¶l":5929,"Ġhonest":5930,"ogen":5931,"Ġsucceeded":5932,"ĠĠĠĠĠĠĠĠĠĠĠĠĠĠĠĠĠĠĠĠĠĠĠĠĠĠĠ":5933,"Ġfate":5934,"rees":5935,"gel":5936,"Ġprinted":5937,"Ind":5938,"isher":5939,"These":5940,"amil":5941,"stitution":5942,"Ġkaikki":5943,"heit":5944,"Ġbesides":5945,"ĠEli":5946,"Ġcontact":5947,"ĠGUT":5948,"ota":5949,"Ġrev":5950,"Ġitse":5951,"ĠArt":5952,"iform":5953,"79":5954,"å¯":5955,"Ġdistant":5956,"esh":5957,"conscious":5958,"Ġrob":5959,"ommen":5960,"Ġadvent":5961,"Ġroof":5962,"Ġdivid":5963,"Ġindepend":5964,"enced":5965,"Ġsought":5966,"Ġdistrict":5967,"olit":5968,"astern":5969,"Ġglance":5970,"hus":5971,"itÃł":5972,"TTCAC":5973,"ĠSpanish":5974,"Ġtele":5975,"covery":5976,"ses":5977,"mist":5978,"qui":5979,"Ġshell":5980,"ograp":5981,"oper":5982,"Ġjudge":5983,"ĠmitÃ¤":5984,"ĠGUTENBERG":5985,"Ġrising":5986,"ological":5987,"utation":5988,"Ġrien":5989,"ĠnÃ©":5990,"ption":5991,"Ġens":5992,"ivity":5993,"Ġbecomes":5994,"yi":5995,"TTA":5996,"Ġwoods":5997,"ĠVen":5998,"Ġempt":5999,"Ġglory":6000,"Ġworked":6001,"estig":6002,"AAAAGC":6003,"Ġihr":6004,"ĠHall":6005,"Ġblow":6006,"Ġobliged":6007,"Ġ60":6008,"Ġpointed":6009,"rig":6010,"Ġsevent":6011,"Ġtoute":6012,"Ġthro":6013,"Ġshut":6014,"Ġcruel":6015,"llen":6016,"èĢĮ":6017,"wa":6018,"ov":6019,"acious":6020,"Ġdir":6021,"Ġsind":6022,"ITY":6023,"ĠMany":6024,"ĠSaint":6025,"itement":6026,"pa":6027,"asant":6028,"ufact":6029,"Ġbase":6030,"Ġvolume":6031,"izing":6032,"Me":6033,"Ġdropped":6034,"change":6035,"Ġinches":6036,"Ġresem":6037,"Ġdwell":6038,"ĠPROJECT":6039,"Ġcam":6040,"åľ¨":6041,"Ġseries":6042,"Ġkingdom":6043,"iber":6044,"ti":6045,"Ġmich":6046,"net":6047,"Ġtravel":6048,"Ġyield":6049,"Ġaston":6050,"ĠYes":6051,"ulated":6052,"bted":6053,"Will":6054,"Ġstorm":6055,"Ġworthy":6056,"Ġchose":6057,"host":6058,"TGA":6059,"rier":6060,"Ġflat":6061,"eptem":6062,"los":6063,"è¡":6064,"ousin":6065,"Ġep":6066,"Ġdoch":6067,"kun":6068,"Ġlose":6069,"ARD":6070,"Ġeste":6071,"Ġrom":6072,"Ġdaily":6073,"ĠdÃ©s":6074,"AAAACC":6075,"ĠSmith":6076,"Ġimmediate":6077,"Ġotherwise":6078,"Ġnine":6079,"Ã¤nsÃ¤":6080,"Par":6081,"Ġcir":6082,"Ġshel":6083,"agne":6084,"ushing":6085,"www":6086,"Ġkul":6087,"TGTCTC":6088,"auv":6089,"arest":6090,"Ġlev":6091,"Ġvalley":6092,"ĠCath":6093,"Ġspect":6094,"poss":6095,"Ġiii":6096,"bst":6097,"Ġsuffer":6098,"ags":6099,"theless":6100,"cean":6101,"hon":6102,"Ġtitle":6103,"Ġdollars":6104,"Ġasc":6105,"Ġerr":6106,"mis":6107,"uin":6108,"ds":6109,"ĠCity":6110,"Ġestablish":6111,"Ġreven":6112,"Ġaccord":6113,"unday":6114,"ĠMer":6115,"Ġwin":6116,"TGT":6117,"AGGCTGG":6118,"Ġservant":6119,"ĠWal":6120,"olla":6121,"cture":6122,"Ġprice":6123,"hend":6124,"sent":6125,"Â°":6126,"Ġliberty":6127,"TCACTGC":6128,"bour":6129,"Ġserved":6130,"Ġdistur":6131,"ainted":6132,"AACAC":6133,"âĢ°âĢ°":6134,"arther":6135,"itti":6136,"Ġwaters":6137,"Î±ÏĤ":6138,"Ġguess":6139,"eptember":6140,"Ġwenn":6141,"Ġlat":6142,"Ġnice":6143,"Ġappointed":6144,"Ġpred":6145,"Ġcollection":6146,"Ġtriumph":6147,"Ġsite":6148,"ĠĠĠĠĠĠĠĠĠĠĠĠĠĠĠĠĠĠĠĠĠĠĠĠĠĠĠĠĠĠĠ":6149,"Ġrub":6150,"ferred":6151,"å¸":6152,"æĻ":6153,"eling":6154,"Ġtea":6155,"ï¼Ł":6156,"Ġjos":6157,"Ġice":6158,"Ġfancy":6159,"estic":6160,"Sch":6161,"Ġthroughout":6162,"ĠCr":6163,"anied":6164,"ĠMag":6165,"Ġbran":6166,"mond":6167,"ĠDavid":6168,"ĠSpain":6169,"Ġstreets":6170,"Ġtransl":6171,"amaan":6172,"uu":6173,"AGGAGG":6174,"ĠVirgin":6175,"Ġphrase":6176,"Ġrefused":6177,"Ġzoo":6178,"voc":6179,"Ġguns":6180,"chan":6181,"Ġsalt":6182,"Ġfollows":6183,"Ġmighty":6184,"Ġpride":6185,"Ġwa":6186,"ĠWashington":6187,"Ġfeelings":6188,"ĠMich":6189,"Ad":6190,"UM":6191,"XX":6192,"pur":6193,"mans":6194,"Ġcountries":6195,"Ġgrowing":6196,"Ġshows":6197,"Ġtoutes":6198,"nÃ©":6199,"Ġprinciple":6200,"ĠCe":6201,"nothing":6202,"Ġwaren":6203,"etty":6204,"Ġuncle":6205,"requ":6206,"Ġrank":6207,"Ġpromised":6208,"Ġactive":6209,"mense":6210,"Ġresults":6211,"iller":6212,"Ġsolemn":6213,"Ġexplained":6214,"Who":6215,"ĠMore":6216,"åĩ":6217,"TCT":6218,"Ġeducation":6219,"Ġhearts":6220,"åī":6221,"Ġfault":6222,"Ġtask":6223,"ATATTC":6224,"ĠIndia":6225,"Ġsoldier":6226,"works":6227,"Ġcard":6228,"78":6229,"åİ»":6230,"Ġaltogether":6231,"pie":6232,"egen":6233,"Ġlocal":6234,"Ġshape":6235,"Ġpreced":6236,"Ġtun":6237,"Ġplayed":6238,"Ġviv":6239,"prit":6240,"aise":6241,"lim":6242,"still":6243,"ĠRiver":6244,"Ġbreast":6245,"quel":6246,"TGTAT":6247,"Ġger":6248,"itated":6249,"Ġdivine":6250,"Ġsentence":6251,"Ġsuggested":6252,"ÏĥÏĦ":6253,"uh":6254,"Ġdust":6255,"Ġpowerful":6256,"away":6257,"usqu":6258,"ACACACAC":6259,"Ġdos":6260,"Ġseek":6261,"Ġsole":6262,"Ġpil":6263,"ĠHigh":6264,"ministr":6265,"AGAGAA":6266,"Ġconven":6267,"aling":6268,"another":6269,"Ġfaces":6270,"Ġsevere":6271,"Ġcabin":6272,"Ġprevious":6273,"ĠCast":6274,"Ġgra":6275,"Ġmont":6276,"Ġmachine":6277,"Ġalarm":6278,"isesti":6279,"erd":6280,"Ġpropri":6281,"ĠVal":6282,"insi":6283,"Ġaver":6284,"Ġaside":6285,"Ġfailed":6286,"cember":6287,"ĠRichard":6288,"ä¸ĭ":6289,"ĠEdward":6290,"ĠprÃ©":6291,"Ġsuspic":6292,"Ġcow":6293,"Ġcreated":6294,"auc":6295,"Ġdell":6296,"uable":6297,"orted":6298,"things":6299,"anim":6300,"Ġgel":6301,"orous":6302,"apan":6303,"Ġexplanation":6304,"quar":6305,"Ġincluded":6306,"Ġshadow":6307,"Ġnations":6308,"Ġdare":6309,"Ġfingers":6310,"flict":6311,"Ġevidently":6312,"Ġactually":6313,"Ġwand":6314,"half":6315,"Ġexhib":6316,"rog":6317,"Ġequally":6318,"Ġincreased":6319,"Ã®tre":6320,"Ġpair":6321,"ĠWhile":6322,"Ġlegs":6323,"Ġ×":6324,"ections":6325,"ĠCam":6326,"inder":6327,"Ġloose":6328,"Ġrespons":6329,"unting":6330,"lee":6331,"Ġjudgment":6332,"abor":6333,"Ġ***":6334,"Ġforgotten":6335,"Miss":6336,"Ġlib":6337,"Ġinside":6338,"Ġfigures":6339,"rij":6340,"Ġinvol":6341,"Ġhtt":6342,"ouw":6343,"Ġpapers":6344,"avan":6345,"force":6346,"consider":6347,"Ġapparently":6348,"aph":6349,"appro":6350,"Ġsex":6351,"Ã¡k":6352,"TTCCCC":6353,"Ġkle":6354,"Ġrocks":6355,"Ġcontrary":6356,"ĠTwo":6357,"ĠvÃ¤":6358,"Ġcelebr":6359,"ittee":6360,"Ġskin":6361,"mine":6362,"ATTTCC":6363,"GTGC":6364,"Ġmale":6365,"ĠFred":6366,"bra":6367,"98":6368,"vil":6369,"Ġremarked":6370,"è¦ĭ":6371,"Ġnod":6372,"Ġinstruct":6373,"GAGG":6374,"á¼":6375,"Ġbodies":6376,"ĠtrÃ¨s":6377,"Ġ180":6378,"ensch":6379,"Ġjoined":6380,"Ġnoticed":6381,"iche":6382,"Ġexceed":6383,"Ġtent":6384,"ims":6385,"Ġshoulder":6386,"Ġafford":6387,"Ġach":6388,"Ġhospit":6389,"bury":6390,"acon":6391,"Ġgentlemen":6392,"Ġquand":6393,"wed":6394,"Ġholy":6395,"Ġmoins":6396,"udden":6397,"Ġbelief":6398,"ACGG":6399,"Ġrejo":6400,"adv":6401,"isting":6402,"TGGGATTAC":6403,"Ġfaut":6404,"Ġrapidly":6405,"Ġadvanced":6406,"Ãªt":6407,"ATTTTTT":6408,"_:":6409,"Ġpatient":6410,"uud":6411,"ilities":6412,"Ã¶t":6413,"Ġcos":6414,"came":6415,"Ġquietly":6416,"Ġnumbers":6417,"AV":6418,"ĠFre":6419,"abeth":6420,"Ġconfidence":6421,"ettre":6422,"cluded":6423,"AAAAGG":6424,"nor":6425,"ivan":6426,"Ġreck":6427,"iano":6428,"Ne":6429,"hether":6430,"Ġpounds":6431,"jÃ¤":6432,"ARR":6433,"dess":6434,"Ġded":6435,"ellen":6436,"Ġgolden":6437,"between":6438,"Ġlack":6439,"anta":6440,"Ġkno":6441,"mission":6442,"ĠFe":6443,"AAGAA":6444,"Ġtaught":6445,"oso":6446,"Ġentertain":6447,"Ġlevel":6448,"Ġcompanion":6449,"ovember":6450,"Ġremembered":6451,"Ġpurch":6452,"ĠJoseph":6453,"jon":6454,"Ġtired":6455,"Come":6456,"Ġconstant":6457,"Et":6458,"Ġpersu":6459,"Ġwird":6460,"liche":6461,"Ġsitten":6462,"ishes":6463,"ĠAnn":6464,"Ġcloth":6465,"Ġsoil":6466,"Ġknowing":6467,"eding":6468,"TCA":6469,"Ġoccurred":6470,"Ġgrown":6471,"âĢķâĢķ":6472,"Ġsupply":6473,"Ġdesired":6474,"TCGC":6475,"Ġvaan":6476,"Ġnaar":6477,"Ġstranger":6478,"Ġjotka":6479,"Ġtext":6480,"Ġrevol":6481,"Ġsacred":6482,"åħ¶":6483,"Ġabandon":6484,"Ġmaar":6485,"Ã©rie":6486,"Ġpuis":6487,"ĠWhite":6488,"Ġuseful":6489,"Ġclo":6490,"Ġcarrying":6491,"poses":6492,"Ã¤nyt":6493,"Ġinterrupt":6494,"Ġrelief":6495,"endent":6496,"Ġinstit":6497,"74":6498,"organ":6499,"Ġsed":6500,"usk":6501,"Ġpocket":6502,"ivered":6503,"alo":6504,"éł":6505,"zi":6506,"Ġneeded":6507,"utch":6508,"ĠJac":6509,"ĠBill":6510,"Ġ100":6511,"Ġsons":6512,"Ġdescription":6513,"ĠPers":6514,"Ġpriest":6515,"Ġcredit":6516,"Ġbent":6517,"Ġber":6518,"ĠĠĠĠĠĠĠĠĠĠĠĠĠĠĠĠĠĠĠĠĠĠĠĠĠĠĠĠĠĠ":6519,"Ġshoulders":6520,"Ġexpressed":6521,"Ġdonc":6522,"Ġstands":6523,"åĢĭ":6524,"ĠJul":6525,"Ġasser":6526,"elling":6527,"Ġtheory":6528,"ĠsiitÃ¤":6529,"TTCAAG":6530,"jour":6531,"ĠItaly":6532,"ped":6533,"TCTGCC":6534,"Ġteeth":6535,"rifice":6536,"âĶĢâĶĢâĶĢâĶĢâĶĢâĶĢâĶĢâĶĢ":6537,"aria":6538,"const":6539,"kaa":6540,"Ġnecessity":6541,"Ġtail":6542,"Ã®t":6543,"AAAGTGC":6544,"ĠCompany":6545,"Ġvolunteers":6546,"._--":6547,"Cl":6548,"board":6549,"oni":6550,"too":6551,"ĠGood":6552,"Ġcheck":6553,"roll":6554,"eten":6555,"Ġattached":6556,"Ġwilling":6557,"Ġspirits":6558,"ae":6559,"Ġdevelopment":6560,"Ġyht":6561,"inging":6562,"edy":6563,"Ġhomme":6564,"Ġtongue":6565,"rific":6566,"Ġwur":6567,"jet":6568,"ĠCON":6569,"TR":6570,"Ġsubjects":6571,"Ġlear":6572,"aires":6573,"same":6574,"ĠDel":6575,"Ġfix":6576,"zu":6577,"Ġpill":6578,"win":6579,"95":6580,"Ġvoi":6581,"Ġprinciples":6582,"fant":6583,"73":6584,"utting":6585,"Ġfreedom":6586,"Ġcook":6587,"AGT":6588,"sal":6589,"riff":6590,"Ġvariety":6591,"Ġmilk":6592,"arly":6593,"Ġflesh":6594,"Ġconvin":6595,"angen":6596,"ĠIrish":6597,"Ġlod":6598,"TTGCCC":6599,"Ġquelque":6600,"Ġbeat":6601,"giv":6602,"Ġapplied":6603,"Ġai":6604,"boy":6605,"ĠSy":6606,"Ġcela":6607,"Ġdeser":6608,"éĿ":6609,"Ġarrang":6610,"Ġnun":6611,"çķ":6612,"Ġdemanded":6613,"ĠMo":6614,"ĠSim":6615,"ila":6616,"Ġ31":6617,"almost":6618,"Ġtoujours":6619,"ension":6620,"Ġwaited":6621,"find":6622,"Ġcompletely":6623,"Ġjou":6624,"Ġpages":6625,"anci":6626,"Gr":6627,"Ġunknown":6628,"Ġnaturally":6629,"Ġdrive":6630,"vÃ©":6631,"vernor":6632,"éĻ":6633,"ĠDen":6634,"oring":6635,"Ġgest":6636,"Ġwaar":6637,"ĠÃī":6638,"ACGC":6639,"ington":6640,"power":6641,"enes":6642,"Ġcrossed":6643,"Ġgathered":6644,"ĠSpe":6645,"Ġsentiment":6646,"ĠFrancis":6647,"Ġwieder":6648,"page":6649,"ĠaprÃ¨s":6650,"Ġtul":6651,"Ġkos":6652,"something":6653,"Ġrights":6654,"took":6655,"sil":6656,"Ġadmitted":6657,"Ġeconom":6658,"Ġdriven":6659,"Ġobst":6660,"Ġwindows":6661,"mÃªme":6662,"ACA":6663,"Ġverd":6664,"Ġluck":6665,"Ġtum":6666,"Ġintr":6667,"Ġpick":6668,"Ġwriter":6669,"IE":6670,"ĠBlack":6671,"gt":6672,"miss":6673,".Â«":6674,"ibus":6675,"rying":6676,"Ġparties":6677,"ĠFirst":6678,"Ġnet":6679,"Sp":6680,"Ġseized":6681,"Ġbatt":6682,"Ġfly":6683,"stead":6684,"Ġenemies":6685,"itud":6686,"Ġsaved":6687,"ader":6688,"Ġsurprised":6689,"Good":6690,"Ġ45":6691,"AAAAATT":6692,"ĠpÃ¤iv":6693,"Ġgods":6694,"Ġtreatment":6695,"çİ":6696,"65":6697,"iset":6698,"ieved":6699,"Ġkor":6700,"ĠSon":6701,"ĠgÃ©n":6702,"hard":6703,"Ġdei":6704,"ĠDor":6705,"Ġride":6706,"present":6707,"Ġsuffered":6708,"earing":6709,"ĠsillÃ¤":6710,"Ġlegal":6711,"dig":6712,"Ã¸":6713,"usement":6714,"Ġnovel":6715,"Ġovat":6716,"Ġkann":6717,"mount":6718,"Ġcoat":6719,"Ġalive":6720,"oments":6721,"72":6722,"ĠSEE":6723,"Ġyards":6724,"Ġconsequence":6725,"isto":6726,"AGGAAG":6727,"Ġbew":6728,"Ġconnected":6729,"Ġtour":6730,"ĠÃº":6731,"Ġny":6732,"Ġtak":6733,"osi":6734,"ali":6735,"TGTGTGTG":6736,"pat":6737,"Ġrode":6738,"Ġhurt":6739,"ĠÃ©l":6740,"irs":6741,"Ġencour":6742,"æ°":6743,"iture":6744,"alog":6745,"Ġbore":6746,"Ġfois":6747,"Ġmember":6748,"Ġdistributed":6749,"Ġstones":6750,"trans":6751,"Ġorn":6752,"GAAC":6753,"Ġbis":6754,"ĠÅ":6755,"comple":6756,"?--":6757,"ÃŃt":6758,"Ġdiam":6759,"Ġnav":6760,"Ġhide":6761,"ĠJim":6762,"Ġped":6763,"Î¿Î¹":6764,"ILL":6765,"sim":6766,"Ġservants":6767,"Some":6768,"Ġparents":6769,"ributed":6770,"Ġhandsome":6771,"éĢĻ":6772,"Ġhang":6773,"cel":6774,"ĠMount":6775,"Ġinhabitants":6776,"Ġtotal":6777,"bor":6778,"far":6779,"Ġsmoke":6780,"Ġtwice":6781,"Ġlake":6782,"ĠFeb":6783,"ĠMex":6784,"Ġmile":6785,"Section":6786,"Ġcreature":6787,"Ġjamais":6788,"Ġmoving":6789,"Ġdistinguished":6790,"Ġimpression":6791,"rÃ¤":6792,"Ġfreely":6793,"Ġproc":6794,"John":6795,"ĠrÃ©s":6796,"ĠPart":6797,"igr":6798,"iana":6799,"ĠfÃ¶r":6800,"umin":6801,"agged":6802,"Ġshoot":6803,"ika":6804,"arks":6805,"Ge":6806,"Ġjet":6807,"Ġavail":6808,"abe":6809,"ĠPet":6810,"Ġbreakfast":6811,"Ġproportion":6812,"Ġfighting":6813,"electronic":6814,"utti":6815,"contin":6816,"Ġbrain":6817,"ilst":6818,"Ġpity":6819,"Ġtom":6820,"ĠPo":6821,"ĠHad":6822,"Ġassu":6823,"AGCG":6824,"Ġfemme":6825,"onds":6826,"ĠMark":6827,"coll":6828,"TCTTTC":6829,"Ġfinding":6830,"Ġsolic":6831,"Ġcoff":6832,"Ġperf":6833,"urd":6834,"Ġcontrol":6835,"Ġdisci":6836,"mann":6837,"Ġll":6838,"ĠKe":6839,"ÎµÏģ":6840,"ĠmÃ©":6841,"ĠHand":6842,"Ġsuit":6843,"Ġexem":6844,"Ġsuis":6845,"reland":6846,"Ġimpl":6847,"Ġtalked":6848,"TCCTGCC":6849,"vit":6850,"Ġdangerous":6851,"ĠElle":6852,"Ġfinal":6853,"ĠCongress":6854,"Ġengine":6855,"eli":6856,"Ġrig":6857,"Ġsurely":6858,"Ġneighbour":6859,"pglaf":6860,"Ġlands":6861,"make":6862,"Ġhappen":6863,"Ġwasn":6864,"Ġunter":6865,"æĢ":6866,"ĠJo":6867,"inger":6868,"Ġhurried":6869,"ĠOctober":6870,"import":6871,"Ġtouched":6872,"ĠBE":6873,"Ġfarther":6874,"Ġminds":6875,"Ġvaik":6876,"ĠMat":6877,"AAATTC":6878,"Ġtan":6879,"point":6880,"Ġwhispered":6881,"vas":6882,"Ġbusy":6883,"Ġduties":6884,"æĿ":6885,"ember":6886,"Î²":6887,"ĠApp":6888,"ikk":6889,"83":6890,"Ġfais":6891,"Ġissu":6892,"Ġangry":6893,"Ġreader":6894,"Ġliv":6895,"ooth":6896,"Â´":6897,"ĠGree":6898,"Ġinstinct":6899,"going":6900,"illoin":6901,"ĠHowever":6902,"Ġoil":6903,"Ġstars":6904,"ĠOff":6905,"ohl":6906,"ATATAC":6907,"Ġpaint":6908,"fig":6909,"ician":6910,"Ġtelling":6911,"thur":6912,"Ġtreated":6913,"Ġgather":6914,"Ġterrit":6915,"Ġmaintain":6916,"71":6917,"AAAATAA":6918,"Ja":6919,"terday":6920,"TTTGCC":6921,"cast":6922,"Ġsatisfied":6923,"icip":6924,"world":6925,"Ġreign":6926,"Ġpropos":6927,"Ġlimited":6928,"ĠSunday":6929,"onstr":6930,"Ġarrival":6931,"Ġcontinu":6932,"ĠEmperor":6933,"kins":6934,"Ġabsence":6935,"atively":6936,"å¼":6937,"gn":6938,"84":6939,"olen":6940,"Ġaware":6941,"Ġanc":6942,"ĠtÃ¤y":6943,"otta":6944,"low":6945,"Ġperman":6946,"Ġadditional":6947,"Ġproceeded":6948,"Ġpermitted":6949,"QU":6950,"TTCTTC":6951,"assen":6952,"lection":6953,"Ġstruggle":6954,"Ġà°":6955,"Ġclosely":6956,"ounding":6957,"TTTTGC":6958,"idad":6959,"arth":6960,"zabeth":6961,"AATTTC":6962,"Ġris":6963,"Ġincrease":6964,"Ġminister":6965,"Ġunf":6966,"Ġgran":6967,"åĳ":6968,"born":6969,"å±":6970,"Ġseine":6971,"âĦ":6972,"Ġdur":6973,"æŃ¤":6974,"held":6975,"Ġbearing":6976,"Ġflight":6977,"ettu":6978,"Ġfifteen":6979,"Ġtav":6980,"TTTGGG":6981,"ĠCoun":6982,"Ġkit":6983,"wick":6984,"ĠYour":6985,"Ġswift":6986,"General":6987,"Ġrak":6988,"AGCAC":6989,"Ġflower":6990,"Ġwatching":6991,"Ġerect":6992,"Ab":6993,"Ġimmense":6994,"TGAGAC":6995,"lu":6996,"Ġing":6997,"éĩ":6998,"Ġstated":6999,"Sir":7000,"ĠSeptember":7001,"say":7002,"Ġci":7003,"Ġknight":7004,"Ġconnection":7005,"nak":7006,"chÃ¨":7007,"Ġstore":7008,"Ġlocated":7009,"Ã©k":7010,"ioni":7011,"Ġheb":7012,"94":7013,"ĠÎ½Î±":7014,"Ġzum":7015,"real":7016,"Ġobjects":7017,"ä¸Ń":7018,"Ġcrime":7019,"Ġfortun":7020,"GE":7021,"Ġactual":7022,"Ġhighly":7023,"Ġproject":7024,"Ġvoyage":7025,"Ġcaval":7026,"irk":7027,"ĠÂ£":7028,"onde":7029,"inka":7030,"Ġsplendid":7031,"Ġquelques":7032,"using":7033,"Ġvotre":7034,"ĠRob":7035,"Ġspiritual":7036,"seless":7037,"uni":7038,"Ġpalace":7039,"Ġdivided":7040,"Ġfemale":7041,"lease":7042,"Ġcapable":7043,"alia":7044,"________":7045,"Ġrelation":7046,"Les":7047,"Ġcareful":7048,"acles":7049,"gs":7050,"AGGTC":7051,"autre":7052,"xim":7053,"ĠEst":7054,"uan":7055,"alls":7056,"AGGAGAA":7057,"ĠJos":7058,"Ġentrance":7059,"IA":7060,"ĠDiv":7061,"ĠDecember":7062,"Ġcarriage":7063,"oston":7064,"aisen":7065,"ribution":7066,"isin":7067,"Ġintellectual":7068,"Er":7069,"ums":7070,"fol":7071,"ĠBook":7072,"Ġcouple":7073,"Ġtruly":7074,"asy":7075,"ä½ł":7076,"82":7077,"ĠBob":7078,"TCCTC":7079,"Ġslave":7080,"ĠTHIS":7081,"Ġprayer":7082,"Ġteacher":7083,"Ger":7084,"Ġnog":7085,"Ġlit":7086,"urt":7087,"ÃŁen":7088,"Ġjoin":7089,"themselves":7090,"lies":7091,"reck":7092,"ario":7093,"Ġwants":7094,"Ġgradually":7095,"Ġbranches":7096,"Ġhaben":7097,"prison":7098,"ĠMaster":7099,"hn":7100,"Ġsaf":7101,"ĠCHAPTER":7102,"mus":7103,"Ġempty":7104,"Ġcorps":7105,"TAAAAC":7106,"bit":7107,"zte":7108,"ATAGAA":7109,"--------------------------------":7110,"Ġequip":7111,"Ġgem":7112,"Ġnotes":7113,"Ġ90":7114,"pot":7115,"Ġplate":7116,"Ġdomin":7117,"Ġaccident":7118,"TTTCCC":7119,"word":7120,"çĻ":7121,"mod":7122,"Ġguer":7123,"ĠprÃ©s":7124,"Ġmidst":7125,"Ġaccompanied":7126,"others":7127,"olid":7128,"kÃ¤Ã¤n":7129,"Ġbuy":7130,"Ġeu":7131,"AGTTTC":7132,"put":7133,"èµ":7134,"Ġavoir":7135,"inese":7136,"âĦ¢":7137,"While":7138,"Ġrequirements":7139,"reb":7140,"Ġlamp":7141,"Ġnotre":7142,"years":7143,"pour":7144,"Ġminun":7145,"Ġenthus":7146,"Ġmyster":7147,"Ġexplain":7148,"inity":7149,"AGCTC":7150,"Ġwond":7151,"mÃ¤n":7152,"Ġcontinue":7153,"Ġoike":7154,"Ġplants":7155,"Ġhuge":7156,"omy":7157,"Ġcontaining":7158,"Ġfund":7159,"aints":7160,"Ġrepresented":7161,"Ġwore":7162,"mitted":7163,"Ġsolid":7164,"Ġfog":7165,"door":7166,"Ġburning":7167,"six":7168,"asped":7169,"ieux":7170,"Ġnoise":7171,"aming":7172,"Ġputting":7173,"Ġdaar":7174,"acement":7175,"ĠBrown":7176,"Ġdeck":7177,"ttÃ¶":7178,"ĠjÃ¤":7179,"ĠCent":7180,"uz":7181,"Ġintroduced":7182,"Ġahead":7183,"omer":7184,"\"'":7185,"Ġcauses":7186,"ĠHill":7187,"Ġlovely":7188,"aused":7189,"Ġcomment":7190,"Ġdozen":7191,"kan":7192,"ĠItalian":7193,"dou":7194,"woman":7195,"Ã¡ny":7196,"vor":7197,"Ġhin":7198,"Ġprofession":7199,">(":7200,"Ġgray":7201,"HT":7202,"azione":7203,"TGTGGC":7204,"AAATAC":7205,"Ġexcited":7206,"ashed":7207,"Ġcerem":7208,"gi":7209,"Ġyours":7210,"Ġdiff":7211,"Ġdressed":7212,"oral":7213,"andy":7214,"Ġliterature":7215,"stra":7216,"ĠIsland":7217,"Ġton":7218,"Ġpossibly":7219,"Ġfields":7220,"Ã§a":7221,"Ġregion":7222,"aciÃ³n":7223,"Ġwithd":7224,"TAAAC":7225,"cknow":7226,"TAAATG":7227,"Ġproposed":7228,"ÎµÎ¯":7229,"ĠÏĦÎ¿":7230,"ijn":7231,"happy":7232,"ELL":7233,"Ġpolicy":7234,"ĠDem":7235,"teenth":7236,"Ġlieu":7237,"master":7238,"sett":7239,"ACTTTGGG":7240,"Ġhit":7241,"Ġwalking":7242,"cip":7243,"Ġdefe":7244,"Americ":7245,"Ġti":7246,"69":7247,"sey":7248,"esp":7249,"har":7250,"Ġgenius":7251,"vÃ¤n":7252,"Ġkinds":7253,"ĠPol":7254,"Ġjump":7255,"Ġretreat":7256,"ĠPerhaps":7257,"Col":7258,"ĠHon":7259,"Ġacquaint":7260,"Ġdisease":7261,"Ġcolle":7262,"TTTTGG":7263,"Ġgranted":7264,"._]":7265,"uno":7266,"ands":7267,"Ġgrowth":7268,"Ġinterested":7269,"Ġdelle":7270,"Åĳl":7271,"ston":7272,"Ġcomposed":7273,"Ġbegun":7274,"ucht":7275,"ITH":7276,"Ġuniform":7277,"Ġfalling":7278,"Ġends":7279,"jan":7280,"Ġpractical":7281,"cio":7282,"Ġshowing":7283,"iere":7284,"TATATT":7285,"Ġsurv":7286,"went":7287,"Ġmoments":7288,"Ġsyn":7289,"return":7290,"AGCCCC":7291,"Ġarrest":7292,"pring":7293,"Ġgained":7294,"Ġcultiv":7295,"Ġstick":7296,"ĠHug":7297,"Ġinterests":7298,"Ġadvice":7299,"ĠMajesty":7300,"Ġmanufact":7301,"also":7302,"Ġstories":7303,"Ġcontre":7304,"Ġamongst":7305,"Ġfeatures":7306,"ĠLake":7307,"Ġprisoners":7308,"54":7309,"Ġbridge":7310,"Ġook":7311,"Ġexperien":7312,"Ġpartly":7313,"ĠCons":7314,"Ġbra":7315,"ldom":7316,"Ġacknow":7317,"rich":7318,"ĠSil":7319,"Ġtale":7320,"anti":7321,"ĠBay":7322,"Ġhearing":7323,"Ġkas":7324,"Ġmillion":7325,"Ġkeen":7326,"Ġexcitement":7327,"ĠNovember":7328,"OP":7329,"Ġnose":7330,"ĠHoly":7331,"ĠHarry":7332,"ĠLife":7333,"Ġrange":7334,"TATAC":7335,"Ġquantity":7336,"uter":7337,"ĠCome":7338,"ĠVI":7339,"itect":7340,"ATATTG":7341,"adem":7342,"Ġcart":7343,"once":7344,"ĠConst":7345,"Ġrecomm":7346,"oration":7347,"ointment":7348,"Ġdivision":7349,"TTTATG":7350,"TGTGCC":7351,"cientific":7352,"Ġshame":7353,"Ġnearer":7354,"Ġearlier":7355,"TACTC":7356,"Ġquality":7357,"ĠUnivers":7358,"Ġpad":7359,"Ġdull":7360,"Nor":7361,"Ġlap":7362,"Ġjonka":7363,"Ġdistribute":7364,"Ġpolice":7365,"Å±":7366,"Ġkes":7367,"ustomed":7368,"Ġlifted":7369,"Ġxx":7370,"Ġvessels":7371,"Ġvirtue":7372,"GAA":7373,"Br":7374,"mm":7375,"Ã¼t":7376,"Ġcommitted":7377,"Ġbased":7378,"ĠNE":7379,"El":7380,"Ġwet":7381,"ĠSociety":7382,"Ġadmit":7383,"etta":7384,"Ġcircle":7385,"iron":7386,"Ġabund":7387,"AAGAAG":7388,"æĹ¥":7389,"pent":7390,"Î¹ÏĤ":7391,"53":7392,"taken":7393,"arte":7394,"64":7395,"Ġassured":7396,"sin":7397,"BOOK":7398,"Ġhither":7399,"Ġsympathy":7400,"Ġtempt":7401,"è©":7402,"Ġunable":7403,"ĠAc":7404,"ĠJapan":7405,"oused":7406,"ĠJanuary":7407,"ĠPrin":7408,"quet":7409,"aging":7410,"Ġburied":7411,"apa":7412,"ĠPor":7413,"Ġevident":7414,"Ġprompt":7415,"Ġchoose":7416,"Ġceased":7417,"Ġworst":7418,"Ġcord":7419,"pract":7420,"Ġstatement":7421,"Ġkys":7422,"Ã¤mÃ¤n":7423,"Ġunfortun":7424,"Ġskill":7425,"ĠAcc":7426,"Ġworship":7427,"always":7428,"81":7429,"Ġsatisfaction":7430,"Ġdrove":7431,"Ġcurios":7432,"ĠMass":7433,"ĠEmp":7434,"ĠMel":7435,"wart":7436,"Ġrepro":7437,"Ġmurder":7438,"Ġrules":7439,"Ġconcerned":7440,"Ġconsideration":7441,"Ġ[_":7442,"TATAA":7443,"Ġqueen":7444,"gener":7445,"Ġproblem":7446,"Die":7447,"Ġliked":7448,"Ġalter":7449,"Ġfairly":7450,"Ġrooms":7451,"67":7452,"angu":7453,"ruary":7454,"ĠPhilip":7455,"issÃ¤":7456,"Ġhaven":7457,"aign":7458,"ettÃ¤":7459,"Ġreported":7460,"Ġlaughing":7461,"Ġwed":7462,"Ġainsi":7463,"ederal":7464,"æĥ":7465,"ĠMajor":7466,"Ġfare":7467,"Ġimagine":7468,"Ġfest":7469,"Ġdesper":7470,"unning":7471,"Ġextr":7472,"Ġsuffering":7473,"Ġtorn":7474,"Ġwholly":7475,"ollen":7476,"Ġbutter":7477,"young":7478,"TTCTG":7479,"Ġsugar":7480,"Ġcalling":7481,"Ġfleet":7482,"ksen":7483,"ĠRev":7484,"Char":7485,"TTCTCC":7486,"riv":7487,"Ġrent":7488,"åĩº":7489,"ulate":7490,"acters":7491,"ĠUnd":7492,"dest":7493,"Ġliqu":7494,"Ġgain":7495,"Ġadopted":7496,"Ã¢t":7497,"ĠArab":7498,"GTCTC":7499,"Ġinvent":7500,"Ġdevil":7501,"Ġtells":7502,"Ġfaithful":7503,"urity":7504,"Ġintention":7505,"Ġcet":7506,"Ġslightly":7507,"SC":7508,"å®¶":7509,"expected":7510,"ĠGen":7511,"name":7512,"Ġcontract":7513,"rived":7514,"_).":7515,"Ġthoroughly":7516,"Ġpier":7517,"ATTTGC":7518,"ĠIch":7519,"Ġstern":7520,"Ġenergy":7521,"avi":7522,"anda":7523,"eft":7524,"Ġaffair":7525,"otes":7526,"Ġvaluable":7527,"Ġsuccessful":7528,"Ġpresently":7529,"Ġrul":7530,"Ġabsolutely":7531,"inction":7532,"case":7533,"Ġflour":7534,"93":7535,"Ã§Ã£o":7536,"Ġsmooth":7537,"ounce":7538,"Ġmond":7539,"Ġservices":7540,"IX":7541,"ĠHerr":7542,"Ġdeeply":7543,"Ġterror":7544,"crit":7545,"TGGAGTGC":7546,"Ġprotection":7547,"gain":7548,"open":7549,"expl":7550,"Ġsource":7551,"achen":7552,"Ġeggs":7553,"Ġshock":7554,"ĠIreland":7555,"prot":7556,"Ġhence":7557,"Ġseparate":7558,"Ġdoors":7559,"lde":7560,"Ġinformed":7561,"Aug":7562,"bing":7563,"Ġarticle":7564,"uddenly":7565,"Ġfought":7566,"uy":7567,"Ġclasses":7568,"Ġappreci":7569,"Ġlistened":7570,"Ġwings":7571,"Î±Ïģ":7572,"ĠLong":7573,"prise":7574,"dÃ©":7575,"free":7576,"AGCAGC":7577,"ugg":7578,"Ġpatri":7579,"uun":7580,"Ġdirected":7581,"Ġyeux":7582,"Ġconstitution":7583,"kl":7584,"Ġarranged":7585,"Ġamid":7586,"Ġ~":7587,"Ġanywhere":7588,"Can":7589,"enc":7590,"Ġindust":7591,"Ġsafety":7592,"Ġolen":7593,"Ġlibrary":7594,"Ã¡m":7595,"Ġfellows":7596,"Ġwhilst":7597,"ÏĦÎ¹":7598,"Î»Î»":7599,"Your":7600,"Ġregret":7601,"Ġgoods":7602,"Ġassist":7603,"Ġpou":7604,"TGATCC":7605,"ĠGrand":7606,"68":7607,"care":7608,"Ġwij":7609,"ĠNature":7610,"Ġwelcome":7611,"Ġvoir":7612,"TGGGGC":7613,"Ġpays":7614,"aton":7615,"etch":7616,"Ġvoul":7617,"rain":7618,"ĠProfessor":7619,"Bl":7620,"NE":7621,"aron":7622,"------":7623,"ATACAC":7624,"Ġlabour":7625,"Ġnerv":7626,"Ġcitizens":7627,"ĠnÃ£o":7628,"Ġprepare":7629,"Ġmeat":7630,"Ġett":7631,"Ġtermin":7632,"Ġmehr":7633,"ĠOnly":7634,"AGTCTC":7635,"TGTAATCCCAGC":7636,"yy":7637,"Ġsingular":7638,"west":7639,"Ġpulled":7640,"Ġchosen":7641,"circ":7642,"eden":7643,"ĠUnion":7644,"public":7645,"arden":7646,"ĠTu":7647,"Ġreasons":7648,"Ġindign":7649,"Ġapproach":7650,"ĠDid":7651,"ahd":7652,"Ġconsent":7653,"Ġhoped":7654,"New":7655,"GAAG":7656,"foot":7657,"ulse":7658,"rian":7659,"Ġspo":7660,"åıĪ":7661,"ĠScott":7662,"Ġweap":7663,"Ġbay":7664,"aat":7665,"dro":7666,"Ġseated":7667,"common":7668,"Ġwisdom":7669,"ĠkÃ¤y":7670,"Ġtrial":7671,"vious":7672,"fen":7673,"ĠNOT":7674,"Ġsupper":7675,"hetic":7676,"urent":7677,"EST":7678,"Ġimagination":7679,"Ġchapter":7680,"enance":7681,"ĠÃ³":7682,"Ġcities":7683,"zer":7684,"Ġolder":7685,"Just":7686,"Ã¤hÃ¤n":7687,"enger":7688,"Ġdrop":7689,"Ġautre":7690,"Ġcompliance":7691,"esen":7692,"Ġdestroyed":7693,"natural":7694,"ĠWood":7695,"Ġhopes":7696,"ĠMarg":7697,"Ġexercise":7698,"ĠMichael":7699,"person":7700,"success":7701,"AGGGGC":7702,"rei":7703,"ĠĠĠĠĠĠĠĠĠĠĠĠĠĠĠĠĠĠĠĠĠĠĠĠĠĠĠĠĠĠĠĠĠ":7704,"OD":7705,"fare":7706,"ATTTAC":7707,"Ġchanges":7708,"Ġdevoted":7709,"Ġchez":7710,"Ġcrew":7711,"adt":7712,"Ġmental":7713,"Ġexception":7714,"asted":7715,"Ġpag":7716,"Ġjusqu":7717,"Ġdying":7718,"Ġprisoner":7719,"Ġmaid":7720,"zza":7721,"inking":7722,"ipt":7723,"Ġdesert":7724,"TGGGGG":7725,"TATTCC":7726,"Ġsurrounded":7727,"Ġkindly":7728,"ilty":7729,"Â»,":7730,"Ġextraordinary":7731,"rim":7732,"Ġembr":7733,"Ġrear":7734,"Ġcastle":7735,"ferences":7736,"Ġguide":7737,"Ġsheep":7738,"Ġslaves":7739,"ĠProt":7740,"Ġelement":7741,"Ġprivile":7742,"èĳ":7743,"resses":7744,"52":7745,"TTTGGC":7746,"ĠÏĮ":7747,"mosp":7748,"63":7749,"*,":7750,"Ġvictory":7751,"AGATGG":7752,"Ġgrief":7753,"ç´":7754,"istered":7755,"AGGAC":7756,"ĠTem":7757,"itate":7758,"Ġmessage":7759,"Ġmarket":7760,"äºĮ":7761,"necessary":7762,"AGGAA":7763,"Ġmistake":7764,"Ġmud":7765,"Ġobserv":7766,"Ġbos":7767,"Ġedition":7768,"Ġparl":7769,"AACTC":7770,"Ġstead":7771,"ester":7772,"ĠWil":7773,"ĠHeaven":7774,"ĠNever":7775,"Ġgrate":7776,"Ġrequest":7777,"Ġobey":7778,"Ġcompanions":7779,"è³":7780,"oleon":7781,"Ġworn":7782,"Ġkuul":7783,"Ġfold":7784,"Ġcritic":7785,"Ġviews":7786,"det":7787,"Ġartist":7788,"coming":7789,"ĠmitÃ¤Ã¤n":7790,"bridge":7791,"Ġvisited":7792,"Ġperformed":7793,"Ġremaining":7794,"white":7795,"Ġstrict":7796,"Ġly":7797,"Ġdoctrine":7798,"Ġneeds":7799,"icated":7800,"Ġgrey":7801,"TGTTTC":7802,"ĠHor":7803,"Ġmagnific":7804,"offic":7805,"phe":7806,"TTTAAG":7807,"adel":7808,"ropri":7809,"Ġholder":7810,"zel":7811,"Ġbou":7812,"igo":7813,"ĠSec":7814,"Ġdoc":7815,"ATGAC":7816,"Ġhate":7817,"Ġeffects":7818,"Ġvision":7819,"acion":7820,"Ġplaying":7821,"looked":7822,"Ġdogs":7823,"!_":7824,"Ġcattle":7825,"urely":7826,"Ġmonde":7827,"Ġfever":7828,"ĠJean":7829,"Ġtil":7830,"Ġsmaller":7831,"çŁ¥":7832,"å§":7833,"Ġcontained":7834,"both":7835,"question":7836,"sez":7837,"kuin":7838,"Ġchiefly":7839,"Ġdoesn":7840,"Ġpist":7841,"Ġere":7842,"TCCTCC":7843,"Ġescaped":7844,"Ġrendered":7845,"Ġarticles":7846,"ĠLatin":7847,"çĪ":7848,"ivo":7849,"Ġboats":7850,"lessly":7851,"love":7852,"loc":7853,"ĠrÃ©pond":7854,"Ġequipment":7855,"Ġwicked":7856,"Ġaltern":7857,"ĠOl":7858,"Ġroi":7859,"TTCTGC":7860,"ĠAct":7861,"Ġdisclaim":7862,"Ġtemple":7863,"Ġplenty":7864,"TTATAA":7865,"inv":7866,"Ġsot":7867,"TTTGTG":7868,"Ġdelicate":7869,"UD":7870,"éĥ":7871,"Ġavoid":7872,"ĠMur":7873,"Ġpaying":7874,"beaut":7875,"Ġarose":7876,"Ġpressed":7877,"Ġbringing":7878,"Ġdawn":7879,"ĠkÃ¶n":7880,"Ġconclusion":7881,"iens":7882,"Ġacts":7883,"ĠPark":7884,"dec":7885,"Ġautres":7886,"èĢħ":7887,"Ġmanifest":7888,"Ġham":7889,"ĠCorn":7890,"AGGCTGAGGC":7891,"Ġended":7892,"äºĭ":7893,"Ġvisible":7894,"Ġzou":7895,"Ġpardon":7896,"åĪ°":7897,"clam":7898,"ĠLin":7899,"Ġcommission":7900,"aÃ±":7901,"Ġá¼":7902,"itch":7903,"rane":7904,"ĠLy":7905,"Ġtowns":7906,"Ġgay":7907,"92":7908,"ĠFra":7909,"Ġconstantly":7910,"Ġmercy":7911,"aban":7912,"however":7913,"resse":7914,"duce":7915,"Ġconfess":7916,"ĠÎŃ":7917,"reason":7918,"Ġbranch":7919,"Ed":7920,"Ġdisplaying":7921,"Ġette":7922,"Ġsubs":7923,"END":7924,"Ġjob":7925,"å¦Ĥ":7926,"ĠDep":7927,"qual":7928,"Ġsmiling":7929,"Ġcondem":7930,"Ġteach":7931,"Ġviolent":7932,"Ġbrilliant":7933,"Ġscattered":7934,"ĠInformation":7935,"aly":7936,"Ġaspect":7937,"Ġproduction":7938,"Ġchamber":7939,"Ġnatives":7940,"fulness":7941,"unge":7942,"Ġschon":7943,"Ġshop":7944,"Ġruin":7945,"GATC":7946,"mid":7947,"adas":7948,"eps":7949,"Ġblank":7950,"Ġexpense":7951,"alem":7952,"Ġdespair":7953,"Ġresolved":7954,"asions":7955,"von":7956,"usi":7957,"immer":7958,"æĽ°":7959,"Ġcaut":7960,"Ġbaby":7961,"rael":7962,"å¤©":7963,"cha":7964,"ALL":7965,"Ġobsc":7966,"Ġsis":7967,"TAAAAG":7968,"ĠParliament":7969,"Ġtrois":7970,"issance":7971,"Ġroute":7972,"Ġexha":7973,"Ġox":7974,"ĠsinÃ¤":7975,"Ġprospect":7976,"ĠANY":7977,"çĦ¡":7978,"uren":7979,"Ġsprang":7980,"Ġloro":7981,"ked":7982,"HÃ¤n":7983,"tis":7984,"Ġprofit":7985,"Ġcousin":7986,"Ġ#":7987,"Ġdetails":7988,"Ġplans":7989,"Ġbecoming":7990,"Ġlux":7991,"Ġimpat":7992,"ods":7993,"Ġconscience":7994,"Ġrapp":7995,"general":7996,"Ġay":7997,"----\"":7998,"Ġalg":7999,"arde":8000,"Ġknees":8001,"zy":8002,"subject":8003,"ĠMartin":8004,"Ġprobable":8005,"Î¾":8006,"._)":8007,"Ġclouds":8008,"owder":8009,"zie":8010,"ĠCamp":8011,"ARRANT":8012,"ĠÂ¡":8013,"è«":8014,"Ġcapit":8015,"aver":8016,"having":8017,"Ġremind":8018,"ĠChinese":8019,"tout":8020,"intell":8021,"writ":8022,"icious":8023,"Ġprovisions":8024,"ĠRepublic":8025,"ĠDar":8026,"Ġnin":8027,"Ġbought":8028,"imen":8029,"ĠGreen":8030,"Ġhole":8031,"urches":8032,"Ġimprove":8033,"AGGGCC":8034,"udd":8035,"ĠBishop":8036,"Did":8037,"aden":8038,"TTTATC":8039,"Ġreward":8040,"Ġvier":8041,"Ġflag":8042,"ĠEin":8043,"AAATGC":8044,"entr":8045,"ĠFar":8046,"51":8047,"eyes":8048,"Ġroy":8049,"Ġkoko":8050,"oting":8051,"åº":8052,"ACTAG":8053,"respect":8054,"iest":8055,"Ġprend":8056,"Ġinvestig":8057,"ĠThose":8058,"ĠLeg":8059,"cause":8060,".--_":8061,"éĤ£":8062,"ĠvÃ¤l":8063,"Ġdil":8064,"Ġveget":8065,"ĠFer":8066,"achte":8067,"Ġhell":8068,"Ġreference":8069,"ĠSar":8070,"Ã©ri":8071,"ĠMid":8072,"avat":8073,"exper":8074,"Ġchoice":8075,"anza":8076,"rai":8077,"usual":8078,"Ġnewsp":8079,"Ġdann":8080,"ĠElizabeth":8081,"rage":8082,"forth":8083,"ĠÐ":8084,"lets":8085,"Cap":8086,"ĠRussia":8087,"charge":8088,"ĠArthur":8089,"Lord":8090,"wen":8091,"Ġaur":8092,"eral":8093,"isa":8094,"TGGGCC":8095,"TATATG":8096,"Ġseule":8097,"ÏĮÎ½":8098,"ä¸ī":8099,"Ġformat":8100,"Ġpurposes":8101,"Ġfile":8102,"pless":8103,"ĠLittle":8104,"ĠÏĦÎ·Î½":8105,"liest":8106,"vÃ¤t":8107,"Ġprint":8108,"eight":8109,"ĠChap":8110,"GAGC":8111,"ĠÂ¿":8112,"endre":8113,"stairs":8114,"ĠPope":8115,"Ġgas":8116,"ribute":8117,"enne":8118,"ĠEuropean":8119,"Ġstrike":8120,"ĠÃ©taient":8121,"irmed":8122,"INE":8123,"acer":8124,"tha":8125,"oj":8126,"ĠEarl":8127,"ĠAunt":8128,"oped":8129,"Ġdal":8130,"search":8131,"Ġattitude":8132,"TTATTC":8133,"Dr":8134,"Ġsoit":8135,"uine":8136,"Ġax":8137,"ĠEBOOK":8138,"Ġsigns":8139,"Ġgently":8140,"ein":8141,"AAACAC":8142,"AGATAA":8143,"ĠUncle":8144,"Ġfriendly":8145,"Ġtort":8146,"tense":8147,"disc":8148,"ĠCat":8149,"TGAGAA":8150,"TCAAAA":8151,"Ġindif":8152,"Ġhidden":8153,"AACAAC":8154,"Ġsovere":8155,"Ġsacrifice":8156,"Ġhotel":8157,"ĠSomet":8158,"Ġpoetry":8159,"Ġjeune":8160,"AATGAA":8161,"Ġrum":8162,"aman":8163,"Ġvil":8164,"nu":8165,"Ġassistance":8166,"bres":8167,"ĠRussian":8168,"ãĢĭ":8169,"occup":8170,"ordin":8171,"cluding":8172,"English":8173,"ãĢĬ":8174,"character":8175,"ĠBritain":8176,"Ġargument":8177,"Ġinquir":8178,"Ġtiet":8179,"ĠCouncil":8180,"Ġdance":8181,"comfort":8182,"regard":8183,"ĠAfrica":8184,"Ġstriking":8185,"ĠStill":8186,"Ġinstrument":8187,"wij":8188,"Ġpied":8189,"Ġfourth":8190,"Ġfo":8191,"GATG":8192,"Ġennen":8193,"',":8194,"Ġextended":8195,"Ġamaz":8196,"Ġmechan":8197,"OH":8198,"ORD":8199,"Ġimpress":8200,"dÃ¤":8201,"ĠMit":8202,"Ġbid":8203,"Ġaddressed":8204,"Ġcoup":8205,"AGGTGG":8206,"Ġonline":8207,"alan":8208,"Ġsooner":8209,"Ġparte":8210,"igs":8211,"!Â»":8212,"Ġyo":8213,"small":8214,"ĠAny":8215,"Jan":8216,"Ġvac":8217,"ĠStr":8218,"ollege":8219,"asser":8220,"Ġworden":8221,"ĠMus":8222,"Ġthrone":8223,"ATATGC":8224,"91":8225,"Ġwound":8226,"Ġraise":8227,"Ġshouted":8228,"Ġconsult":8229,"?âĢĻ":8230,"ttÃ¤Ã¤":8231,"fund":8232,"Ġindul":8233,"ĠCatholic":8234,"AGTGCC":8235,"Was":8236,"Ġsignific":8237,"Ġcollect":8238,"Ġcompelled":8239,"Ġcompre":8240,"Ġpien":8241,"Ġemer":8242,"iation":8243,"rous":8244,"ĠNational":8245,"Ġkey":8246,"rol":8247,"Ġposted":8248,"ATTTATT":8249,"Ã¤ni":8250,"particular":8251,"Ġkitchen":8252,"urance":8253,"stre":8254,"otted":8255,"Ġecc":8256,"Ġinfant":8257,"OC":8258,"Ġhommes":8259,"Ġstup":8260,"Ġdivers":8261,"Ġpraise":8262,"Ġseldom":8263,"Ġsection":8264,"ĠAss":8265,"Ġdisappeared":8266,"apers":8267,"Ġdenn":8268,"ills":8269,"Ġtight":8270,"ĠRose":8271,"orial":8272,"ĠLove":8273,"Ġgross":8274,"AAAGAC":8275,"Ġkon":8276,"ĠĠĠĠĠĠĠĠĠĠĠĠĠĠĠĠĠĠĠĠĠĠĠĠĠĠĠĠĠĠĠĠĠĠ":8277,"ĠTre":8278,"mouth":8279,"strong":8280,"henomen":8281,"Ġsouls":8282,"GTTC":8283,"ĠSea":8284,"Ġult":8285,"Ġtransport":8286,"Ġcalls":8287,"ikin":8288,"lia":8289,"Ġaffect":8290,"ATATCC":8291,"unde":8292,"è£":8293,"Ġthousands":8294,"porary":8295,"Â¡":8296,"isation":8297,"TGCTGC":8298,"Ġthinks":8299,"ĠHistory":8300,"Ġolla":8301,"lio":8302,"TCCAC":8303,"\"--":8304,"tra":8305,"ĠGovernor":8306,"åįģ":8307,"bably":8308,"AGTATT":8309,"Ġrecent":8310,"Our":8311,"onia":8312,";--":8313,"Ġbanks":8314,"Ġstuff":8315,"ĠBro":8316,"TTTTTAA":8317,"Ġhoriz":8318,"heard":8319,"ITED":8320,"Ġpoison":8321,"Ġdignity":8322,"èĩª":8323,"Ġhuom":8324,"hind":8325,"Ġanger":8326,"Ġeverywhere":8327,"lijk":8328,"Ġpouv":8329,"ĠJoe":8330,"IRE":8331,"Com":8332,"Ä«":8333,"Ġgreet":8334,"elo":8335,"uther":8336,"Ġalk":8337,"Ġgrant":8338,"Ġderived":8339,"Ġdiese":8340,"moment":8341,"Ġinse":8342,"ATGGCC":8343,"Ġkan":8344,"Ġsoll":8345,"heure":8346,"ĠGold":8347,"large":8348,"nut":8349,"Ġnarr":8350,"asses":8351,"abel":8352,"idents":8353,"AAGAAAA":8354,"ĠVirginia":8355,"full":8356,"Ġagent":8357,"unities":8358,"icted":8359,"Ġwal":8360,"ĠNat":8361,"Ġextremely":8362,"Ġinfer":8363,"Ġenorm":8364,"iser":8365,"ĠnÃ¤y":8366,"rift":8367,"arts":8368,"Ġ\"_":8369,"Ġbag":8370,"Ġexpedition":8371,"Ġcontains":8372,"Ġlinks":8373,"Ġdiscovery":8374,"orable":8375,"among":8376,"åĭ":8377,"ATCACC":8378,"Ġasleep":8379,"ĠDieu":8380,"Ġinner":8381,"Sc":8382,"ĠRes":8383,"hall":8384,"62":8385,"enschen":8386,"perhaps":8387,"amma":8388,"Ã¡z":8389,"Ġnouve":8390,"dans":8391,"idity":8392,"since":8393,"Ġremove":8394,"Ġrust":8395,"Ġsinging":8396,"ĠLo":8397,"Ġideal":8398,"oking":8399,"Ġrestrict":8400,"icken":8401,"Ġyl":8402,"Ġyesterday":8403,"ĠMess":8404,"Ġfi":8405,"ministration":8406,"fire":8407,"Ġprecious":8408,"ĠBoston":8409,"Ġfinger":8410,"Ġkam":8411,"plus":8412,"Ġrav":8413,"Ġmint":8414,"Ġcelui":8415,"Ġsuiv":8416,"Mon":8417,"matter":8418,"loved":8419,"fam":8420,"Ġfrequent":8421,"ĠÅĳ":8422,"TTGTTG":8423,"çĶŁ":8424,"ĠZeit":8425,"TGATTC":8426,"ĠJews":8427,"yes":8428,"ĠPR":8429,"zes":8430,"erves":8431,"Ġpup":8432,"princi":8433,"é¦":8434,"best":8435,"compl":8436,"Ġcommanded":8437,"appear":8438,"IB":8439,"ĠSto":8440,"ĠServ":8441,"tow":8442,"main":8443,"uce":8444,"ä¿":8445,"?...":8446,"Ġawful":8447,"Ġbat":8448,"regular":8449,"Ġrecognized":8450,"Ġcontempt":8451,"Ġframe":8452,"ĠScotland":8453,"Ġpainted":8454,"Ġbrothers":8455,"ATTGCC":8456,"Ġfatal":8457,"AGAGGC":8458,"Ġintelligence":8459,"ĠFebruary":8460,"Ġthroat":8461,"IVE":8462,"rah":8463,"ĠVII":8464,"Que":8465,"Ġmoder":8466,"TGCAC":8467,"iÃ³":8468,"ĠEX":8469,"inge":8470,"Ġnobody":8471,"ĠWeb":8472,"Ġattended":8473,"Ġporte":8474,"ÏīÏĤ":8475,"ismo":8476,"Ġtran":8477,"Ġazt":8478,"oder":8479,"ungs":8480,"Ġarmed":8481,"ailing":8482,"mosphere":8483,"Ġschools":8484,"Ġreckon":8485,"Ġfoolish":8486,"IF":8487,"apped":8488,"ĠBefore":8489,"Ġdepos":8490,"Ã¤nÃ¤":8491,"GTAA":8492,"Ġlover":8493,"Ġages":8494,"illery":8495,"ĠBible":8496,"CCCAGC":8497,"Ġdeveloped":8498,"Ġvoices":8499,"Ġuniversal":8500,"ÃŃan":8501,"Ġnegro":8502,"Ġnorthern":8503,"ĠDoctor":8504,"Ġlicense":8505,"Ġmedic":8506,"Ġrisk":8507,"ACTCCAGCC":8508,"ĠHol":8509,"urer":8510,"ĠSpirit":8511,"AATTAA":8512,"OUR":8513,"ĠtÃªte":8514,"does":8515,"Ġmajority":8516,"Ġstret":8517,"Ġhabits":8518,"Mutta":8519,"Ġeditions":8520,"Ġhabe":8521,"(_":8522,"sto":8523,"given":8524,"Ġcontempl":8525,"Ġexcess":8526,"Ġpicked":8527,"Ġmiel":8528,"ĠHoll":8529,"Ġalles":8530,"Ġeverybody":8531,"Ġnella":8532,"ĠVict":8533,"arrison":8534,"Ġsufficiently":8535,"Ġfled":8536,"ĠAus":8537,"oph":8538,"Ġgesch":8539,"Ġcig":8540,"hte":8541,"Ġinch":8542,"acqu":8543,"Ġmol":8544,"Ġmode":8545,"anks":8546,"jes":8547,"Ġcha":8548,"Ġprosper":8549,"ierre":8550,"yet":8551,"Are":8552,"Ġfamilies":8553,"Ġinnocent":8554,"ouch":8555,"Ġdish":8556,"Ġreality":8557,"ĠSur":8558,"ATGTC":8559,"Ġstepped":8560,"Ġentr":8561,"inqu":8562,"amin":8563,"ĠkÃ¤s":8564,"Ġsoci":8565,"leur":8566,"Ã©rit":8567,"Ġdefinite":8568,"Ġemotion":8569,"proper":8570,"æĬ":8571,"Ġami":8572,"ĠGre":8573,"Ġgift":8574,"Ġreaching":8575,"agree":8576,"Ġstaff":8577,"early":8578,"ulk":8579,"cre":8580,"Ġawait":8581,"Ġlou":8582,"human":8583,"ĠsÃ©":8584,"Ġfriendship":8585,"Ġconvey":8586,"Ġasking":8587,"Ġyounger":8588,"Ġunderstanding":8589,"Ġsavage":8590,"Ġdestruction":8591,"enen":8592,"VI":8593,"ĠDuring":8594,"icle":8595,"ĠAre":8596,"Ġweary":8597,"dev":8598,"Ġrushed":8599,"æĭ":8600,"Ġchest":8601,"Ġhorn":8602,"ifying":8603,"ĠThough":8604,"Ġwaste":8605,"Oct":8606,"Ġmonarch":8607,"trad":8608,"Ã©ny":8609,"ĠAp":8610,"Ġdevant":8611,"ç«":8612,"Every":8613,"AAAGAG":8614,"ĠColl":8615,"Mad":8616,"AGTAT":8617,"istent":8618,"Ġlearning":8619,"each":8620,"Ġceux":8621,"Ġliterary":8622,"Ġproperly":8623,"atto":8624,"ĠHel":8625,"Es":8626,"yne":8627,"Ġbree":8628,"vu":8629,"ming":8630,"Ġflying":8631,"TGCTC":8632,"ĠGal":8633,"Ġseg":8634,"Ġregiment":8635,"Ġmeal":8636,"osse":8637,"Ġleader":8638,"Ġihre":8639,"ĠÄ":8640,"Ġwishes":8641,"Ġease":8642,"æĻĤ":8643,"Ġconfusion":8644,"ienne":8645,"ihen":8646,"ĠMann":8647,"Ġcharacters":8648,"Ġzwe":8649,"lette":8650,"ĠOx":8651,"Ġsounds":8652,"mil":8653,"irect":8654,"arten":8655,"Ġterre":8656,"ography":8657,"Ġsending":8658,"Ġ80":8659,"Ġganz":8660,"Ġwheel":8661,"AAGTC":8662,"Ġkings":8663,"æ²":8664,"Ġstatus":8665,"Ã¼ber":8666,"uut":8667,"Ġexpenses":8668,"ĠDas":8669,"Ġthrust":8670,"Ġabsor":8671,"Ġclub":8672,"withstanding":8673,"text":8674,"Ġhelped":8675,"Ġpaused":8676,"stru":8677,"ĠhyvÃ¤":8678,"Mais":8679,"ĠLE":8680,"Ġcsak":8681,"verted":8682,"Ġreduced":8683,"isions":8684,"alta":8685,"keen":8686,"Ġjealous":8687,"ĠRog":8688,"astaan":8689,"Ġapproached":8690,"ĠThou":8691,"Ġcenturies":8692,"Ġdomestic":8693,"Ġsembl":8694,"ĠPen":8695,"rad":8696,"ĠChief":8697,"Ġard":8698,"Ġpressure":8699,"Ġislands":8700,"ĠVIII":8701,"Ġintense":8702,"ĠSol":8703,"ACCTCC":8704,"Ġah":8705,"ĠHy":8706,"Ġsixty":8707,"Ġra":8708,"AGAGGG":8709,"ĠAG":8710,"sue":8711,"vals":8712,"rient":8713,"tion":8714,"Su":8715,"Ġperpet":8716,"ĠEnt":8717,"sign":8718,"Ġpermanent":8719,"TAAATT":8720,"lleen":8721,"ĠnÃ¤h":8722,"aiset":8723,"AGACAC":8724,"super":8725,"Ġlegisl":8726,"KE":8727,"Ġformerly":8728,"ault":8729,"Ġbetr":8730,"Ġwurde":8731,"Ang":8732,"Ġeh":8733,"ATATGG":8734,"vision":8735,"Ġapply":8736,"AGAACC":8737,"Ġschol":8738,"ws":8739,"61":8740,"Ġtribes":8741,"RAN":8742,"left":8743,"Ġspend":8744,"jÃł":8745,"Ġmistress":8746,"children":8747,"oups":8748,"kee":8749,"TTGCAGTG":8750,"Ġvap":8751,"Ġgy":8752,"icles":8753,"Ġrecoll":8754,"Ġsagte":8755,"ĠmuÃŁ":8756,"unter":8757,"lled":8758,"TTGGGG":8759,"Phil":8760,"Ġphot":8761,"Ġya":8762,"Ġocean":8763,"Ġsubsequ":8764,"agger":8765,"Ġfame":8766,"piration":8767,"Ġwaves":8768,"ĠOther":8769,"Ġapplicable":8770,"ĠeikÃ¤":8771,"RA":8772,"AAATGG":8773,"Man":8774,"issait":8775,"avy":8776,"Ã¨me":8777,"Ġinquired":8778,"aucoup":8779,"usive":8780,"OV":8781,"ifts":8782,"ATGTG":8783,"orden":8784,"Ġreflect":8785,"GTCC":8786,"Ġpreserved":8787,"Note":8788,"vidence":8789,"Ġnodded":8790,"Ġavailable":8791,"Ġmour":8792,"making":8793,"ipped":8794,"ĠKun":8795,"Ġdescend":8796,"Ġselbst":8797,"Ġreturning":8798,"pas":8799,"Ġsetting":8800,"Ġessential":8801,"Ġnest":8802,"Ġkoht":8803,"ĠDa":8804,"seemed":8805,"TGAAGC":8806,"hers":8807,"Ġacid":8808,"åı¯":8809,"rice":8810,"Ġ32":8811,"grand":8812,"Ġhundreds":8813,"hist":8814,"å°ı":8815,"Ġlift":8816,"Ġstrongly":8817,"ĠLike":8818,"ulgar":8819,"tains":8820,"wers":8821,"Ġbuildings":8822,"uksen":8823,"Ã©sz":8824,"Ġminua":8825,"Ġcentral":8826,"AAGGCC":8827,"Ġincident":8828,"Ġinfinite":8829,"ĠSecret":8830,"Ġoperation":8831,"iot":8832,"Ġreceiving":8833,"itar":8834,"Ġseiner":8835,"Ġdieser":8836,"Ġgovernor":8837,"Ġtuli":8838,"soever":8839,"Ġrat":8840,"States":8841,"homme":8842,"á¿":8843,"iene":8844,"elig":8845,"enza":8846,"rive":8847,"Ġverb":8848,"ÎµÏĦ":8849,"complete":8850,"ĠChina":8851,"cas":8852,"Ġdefence":8853,"Ġwriters":8854,"CAC":8855,"exc":8856,"ĠSl":8857,"ĠHa":8858,"better":8859,"ĠUnder":8860,"AAGAAC":8861,"ĠMonsieur":8862,"ĠAmong":8863,"Ġcounty":8864,"Ġpushed":8865,"Ġstamp":8866,"Ġ70":8867,"Ġsettle":8868,"ieurs":8869,"Ġcommercial":8870,"ĠFin":8871,"guard":8872,"Ġdelivered":8873,"itty":8874,"Ġfid":8875,"Ġwing":8876,"ospel":8877,"ettiin":8878,"ĠsÃ¤":8879,"year":8880,"ÏģÎ¹":8881,"Ġinstantly":8882,"Ġmethods":8883,"iah":8884,"ĠBon":8885,"ĠÎ³":8886,"Ġfees":8887,"igg":8888,"vano":8889,"Ġfounded":8890,"Ġtomb":8891,"Ġvague":8892,"AGATTC":8893,"TTGGGC":8894,"Ġguilty":8895,"Ã©ra":8896,"Thus":8897,"Ġreferred":8898,"mont":8899,"Ġsucc":8900,"Ġbrig":8901,"Ġglorious":8902,"orter":8903,"abled":8904,"Ġsilk":8905,"Ġgrie":8906,"oks":8907,"ĠDutch":8908,"Ġdich":8909,"Ġged":8910,"Ġswept":8911,"ichen":8912,"Ġappeal":8913,"utive":8914,"ATTTAG":8915,"lers":8916,"ĠtÃ¤mÃ¤":8917,"âĢ¦":8918,"Ġpipe":8919,"Ġtradition":8920,"Ġmeasures":8921,"Ġinclined":8922,"Ġmovements":8923,";\"":8924,"oser":8925,"Ġstor":8926,"Ġaccur":8927,"Ġweb":8928,"Ġcelebrated":8929,"Ġgrav":8930,"Ġobserve":8931,"days":8932,"TGAAAC":8933,"Ġclever":8934,"Ġsubstance":8935,"Ġrib":8936,"Ġvit":8937,"Ġtai":8938,"rez":8939,"ACCACC":8940,"conc":8941,"?)":8942,"Ġdess":8943,"ĠHave":8944,"urther":8945,"_--":8946,"oping":8947,"Ver":8948,"Ġtrace":8949,"Ġoccasionally":8950,"Ġcer":8951,"Ġcasa":8952,"olis":8953,"Never":8954,"Ġuno":8955,"Ġthanks":8956,"Ġmixed":8957,"ĠÃ©p":8958,"Ġmonsieur":8959,"Ġprefer":8960,"ei":8961,"Ġmuut":8962,"ĠhÃ¤net":8963,"inut":8964,"ĠRu":8965,"Ġnoted":8966,"!Â«":8967,"ĠGra":8968,"kem":8969,"Ġbones":8970,"ATGATG":8971,"Ġella":8972,"ulations":8973,"break":8974,"cz":8975,"Der":8976,"Ġlikewise":8977,"chte":8978,"etti":8979,"Ġutterly":8980,"istence":8981,"AATATG":8982,"Ġscientific":8983,"Ġsigh":8984,"Ġkanssa":8985,"rip":8986,"whole":8987,".),":8988,"Ġwhence":8989,"Ġrot":8990,"ĠTy":8991,"wel":8992,"èĳĹ":8993,"ĠEach":8994,"Ġaccustomed":8995,"via":8996,"ATCG":8997,"aired":8998,"Ġcoffee":8999,"aro":9000,"Ġinterrupted":9001,"Ġsignal":9002,"Ġqualities":9003,"ĠMother":9004,"TTAGCC":9005,"ĠTra":9006,"Ġabroad":9007,"Perhaps":9008,"oiselle":9009,"ACH":9010,"Ġsym":9011,"ĠpÃ¥":9012,"iera":9013,"Ġdifficulties":9014,"Å¥":9015,"ĠRus":9016,"Ġdefective":9017,"shire":9018,"Ã¶tt":9019,"ĠPortug":9020,"Ġhay":9021,"AAAGTG":9022,"dat":9023,"Ġinsp":9024,"AGGAGC":9025,"ĠBesides":9026,"umption":9027,"Ġingen":9028,"Ġadmiration":9029,"DE":9030,"ĠBY":9031,"Ġphilosophy":9032,"CTC":9033,"ATCCCC":9034,"isti":9035,"åĬ":9036,"aning":9037,"Ġonder":9038,"grace":9039,"obser":9040,"Ġaffected":9041,"oft":9042,"rin":9043,"Ġsteel":9044,"Ġfurnished":9045,"AGAT":9046,"Ġrang":9047,"Ġkindness":9048,"Ġtud":9049,"ĠIsrael":9050,"brought":9051,"Ġwen":9052,"bler":9053,"number":9054,"acked":9055,"Ġbatter":9056,"Ġjours":9057,"Ġhttp":9058,"ĠDay":9059,"Ġwestern":9060,"allen":9061,"ummer":9062,"Ġmadame":9063,"iasm":9064,"Ġderiv":9065,"ATATATAT":9066,"bow":9067,"Ġreadily":9068,"ĠIndeed":9069,"Ġanxiety":9070,"kon":9071,"Ġpin":9072,"log":9073,"Ġprinces":9074,"ĠPre":9075,"Ġrude":9076,"Ġgenerations":9077,"ATTCCC":9078,"top":9079,"ĠNapoleon":9080,"Ġmounted":9081,"enough":9082,"AAAAAC":9083,"sels":9084,"Ġaccomplished":9085,"Ġnie":9086,"represent":9087,"Ġissue":9088,"ĠhÃ¤nelle":9089,"esi":9090,"Ġnim":9091,"ä½ķ":9092,"Ġsoftly":9093,"Ġcrimin":9094,"plom":9095,"Ġanybody":9096,"ĠTrans":9097,"eman":9098,"onsa":9099,"Ġacquaintance":9100,"ahan":9101,"Ġpuh":9102,"Ġarea":9103,"Ġbenefit":9104,"Ġrender":9105,"Ġbin":9106,"Ġannounced":9107,"girl":9108,"chn":9109,"allis":9110,"until":9111,"Ġhyvin":9112,"Ġenjoyed":9113,"Ġcountenance":9114,"Ġclergy":9115,"Ġsecured":9116,"è²":9117,"Ġdepuis":9118,"Ġtaht":9119,"yard":9120,"æĶ":9121,"Ġreports":9122,"Ġprincip":9123,"Ġandere":9124,"Ã¼hr":9125,"åħ¬":9126,"Ġleaf":9127,"ĠAust":9128,"ĠAbout":9129,"Ġcareer":9130,"Ġridic":9131,"Ġhollow":9132,"closed":9133,"Ġanch":9134,"Ġhorror":9135,"Ġconstruct":9136,"keep":9137,"ATCTTC":9138,"avano":9139,"Ġalike":9140,"èĻ":9141,"ĠAL":9142,"ĠÏĢÏģ":9143,"Ġassumed":9144,"Ġaina":9145,"AGGAAC":9146,"ĠFair":9147,"udent":9148,"ĠMaria":9149,"nem":9150,"Ġversch":9151,"prim":9152,"aisi":9153,"å°ĩ":9154,"state":9155,"ÏĢÎ¿":9156,"ya":9157,"AAATTG":9158,"Ġintim":9159,"Ġgets":9160,"ouver":9161,"osition":9162,"Ġyks":9163,"ICE":9164,"Fig":9165,"Ġstiff":9166,"acco":9167,"ĠChristmas":9168,"elly":9169,"high":9170,"oure":9171,"itled":9172,"Ġprovince":9173,"Ġfulf":9174,"TTAAAC":9175,"ĠCarol":9176,"Ġknife":9177,"sta":9178,"Ġimage":9179,"Ġquarters":9180,"Ġvom":9181,"Ġlone":9182,"TGGAAG":9183,"GTTG":9184,"ĠBab":9185,"imony":9186,"Ġsehr":9187,"ppe":9188,"AGE":9189,"Ġstairs":9190,"igkeit":9191,"diffic":9192,"ĠÎ·":9193,"Ġopposition":9194,"ĠSus":9195,"Ġlest":9196,"coln":9197,"round":9198,"Ġkom":9199,"ĠSa":9200,"Ġfeather":9201,"Ġpunishment":9202,"ĠJane":9203,"00000000":9204,"ĠBoy":9205,"Ġdimin":9206,"Ġtrail":9207,"Ġindustry":9208,"iro":9209,"Ġhousehold":9210,"Ġintent":9211,"olation":9212,"Ġmystery":9213,"Ġlights":9214,"Ġsais":9215,"ACTTTT":9216,"Ġsymb":9217,"Ġwooden":9218,"Ġdeparture":9219,"Ġul":9220,"ĠMost":9221,"Ġtin":9222,"Ġsobre":9223,"æĦ":9224,"business":9225,"effect":9226,"pop":9227,"Ġelements":9228,"Ġobtaining":9229,"REE":9230,"Ġshade":9231,"essaan":9232,"close":9233,"hter":9234,"build":9235,"ÏĥÎ¹":9236,"Ġreceipt":9237,"Ġmai":9238,"Ġcounter":9239,"Ġsab":9240,"unted":9241,"Ġouter":9242,"Ġsouthern":9243,"Ġdreadful":9244,"ĠheidÃ¤n":9245,"ĠSqu":9246,"ç¥":9247,"ĠFa":9248,"Ġcelle":9249,"ATCTCC":9250,"table":9251,"Ġinterpret":9252,"Ã©rt":9253,"amber":9254,"Ġpetit":9255,"Ġrage":9256,"Ġjew":9257,"åĸ":9258,"ulture":9259,"annel":9260,"AATCTC":9261,"Ġbelonged":9262,"Ġreasonable":9263,"lan":9264,"quarters":9265,"Ġsees":9266,"TCCCAAAGTGC":9267,"æĸ¼":9268,"Ġnervous":9269,"avoir":9270,"Ġaunt":9271,"ĠAR":9272,"Ġhumble":9273,"ijd":9274,"Ġexperiment":9275,"Ġsei":9276,"Ġinterior":9277,"Ġpayments":9278,"Ġwhenever":9279,"Ġbehold":9280,"ĠBoth":9281,"ĠmÃ©g":9282,"Ġimmer":9283,"TCTTCC":9284,"Ġverse":9285,"forms":9286,"Ġcommunity":9287,"Ġrefuse":9288,"ATGTAA":9289,"ĠEll":9290,"Ġalors":9291,"Ġcompet":9292,"Ġaverage":9293,"TTAGAA":9294,"home":9295,"amos":9296,"ĠAlexander":9297,"Ġpois":9298,"Ġmanners":9299,"Ġavant":9300,"Ġvos":9301,"ÏħÏĦ":9302,"Ġdesir":9303,"ĠDom":9304,"AAAGGG":9305,"allel":9306,"ĠMAR":9307,"rett":9308,"Ġissued":9309,"Ġowing":9310,"TTTAAC":9311,"AAAGCC":9312,"ĠdÃ©c":9313,"Ġmanaged":9314,"Ġwarri":9315,"Ġassez":9316,"ĠpÃ¨re":9317,"ulating":9318,"engers":9319,"Ġfired":9320,"Very":9321,"imag":9322,"Ġdelay":9323,"Ġkot":9324,"èĪĩ":9325,"ribes":9326,"omed":9327,"Im":9328,"Ġfrightened":9329,"Look":9330,"Ġved":9331,"ĠInc":9332,"Ġcharming":9333,"apes":9334,"Ġeternal":9335,"boat":9336,"imens":9337,"Ġstructure":9338,"unto":9339,"Ġrenew":9340,"ĠAber":9341,"Ġscheme":9342,"ĠTw":9343,"inkin":9344,"Ġcoal":9345,"usions":9346,"ships":9347,"Ġvert":9348,"Ġaccordance":9349,"sing":9350,"Ġpoem":9351,"ĠSchool":9352,"Ġcheeks":9353,"Ġviel":9354,"hundred":9355,"fait":9356,"mel":9357,"Ġfierce":9358,"Ġborne":9359,"Ġdiscussion":9360,"Ġgrim":9361,"ĠUniversity":9362,"Ġnecessarily":9363,"Ġkol":9364,"Ġcompared":9365,"Ġbark":9366,"Ã¤Ã¤llÃ¤":9367,"Ġkm":9368,"Ġbreaking":9369,"Ġdram":9370,"Ġencoun":9371,"Ġrespond":9372,"Ġmood":9373,"ATGGGG":9374,"iÃ©":9375,"Ġseparated":9376,"Ġmillions":9377,"Ġvote":9378,"Ġquesto":9379,"Ġlors":9380,"ÃŁe":9381,"Ġwondered":9382,"ittÃ¤":9383,"leton":9384,"Ġdepend":9385,"worthy":9386,"Ġalc":9387,"Ġexposed":9388,"Ġparagraphs":9389,"è¦ģ":9390,"Ġleaders":9391,"Ġdeliber":9392,"Ġtodo":9393,"Ġunion":9394,"Ġignorant":9395,"Ġremarks":9396,"ĠSta":9397,"GTAG":9398,"Ġretired":9399,"Ġtribe":9400,"Ġabsurd":9401,"Ġsolution":9402,"ÏģÎ±":9403,"ĠBern":9404,"Ġmiserable":9405,"AAGGGC":9406,"Ġexcuse":9407,"Ġak":9408,"Ġrelated":9409,"ees":9410,"Ġblessed":9411,"ï¼ģ":9412,"turned":9413,"Ġphenomen":9414,"Ġ33":9415,"Ġrolled":9416,"Ġdreams":9417,"çŃ":9418,"inth":9419,"mem":9420,"Ġtravers":9421,"Ġdefend":9422,"Ġseed":9423,"oubted":9424,"usalem":9425,"AGGTGC":9426,"Ġacquainted":9427,"AAATCC":9428,"avo":9429,"morning":9430,"Ġmild":9431,"_]":9432,"Ã¡nd":9433,"Ġobed":9434,"Ġcomfortable":9435,"Ġperd":9436,"Ġthread":9437,"anything":9438,"allow":9439,"PH":9440,"sus":9441,"iseen":9442,"oux":9443,"Ġobservation":9444,"Ġconvinced":9445,"relig":9446,"Ġlaughter":9447,"ĠjÃ¤l":9448,"Ġbelonging":9449,"ĠConf":9450,"uus":9451,"burn":9452,"Ġelder":9453,"ĠsÃ¥":9454,"nis":9455,"................":9456,"letter":9457,"Ġprotest":9458,"aja":9459,"Ġbord":9460,"Ġcouncil":9461,"Åį":9462,"sac":9463,"second":9464,"incre":9465,"gged":9466,"oz":9467,"unes":9468,"WH":9469,"Ġrevolution":9470,"Ġinform":9471,"Ġheeft":9472,"ĠMinÃ¤":9473,"TTAT":9474,"kki":9475,"different":9476,"ican":9477,"Ġnagy":9478,"Ġslept":9479,"Ġsup":9480,"Ġdegrees":9481,"ÏĦÎ·":9482,"Ġdol":9483,"passed":9484,"div":9485,"Ġwelche":9486,"provid":9487,"ĠNon":9488,"Ġacted":9489,"OND":9490,"chester":9491,"Ġsomewhere":9492,"Ġopinions":9493,"tte":9494,"avour":9495,"ĠÎµÎ¯":9496,"Ġaivan":9497,"ĠÎ¸":9498,"AGGCATG":9499,"Ġmatch":9500,"Ġtaas":9501,"Ġcuriosity":9502,"Ġfeared":9503,"inently":9504,"Ġmand":9505,"Ġexecution":9506,"received":9507,"school":9508,"Ġglanced":9509,"aze":9510,"TTTTTTG":9511,"):":9512,"Ġtrip":9513,"\".":9514,"cit":9515,"Ġmart":9516,"ĠRos":9517,"MAN":9518,"Ġtables":9519,"ijo":9520,"Have":9521,"Ġheure":9522,"TGGAC":9523,"OSE":9524,"Ġalleg":9525,"creat":9526,"ACCAGCC":9527,"Ġnombre":9528,"ĠGar":9529,"Ġcreation":9530,"Ġurged":9531,"Ġprofound":9532,"ront":9533,"AGCTGC":9534,"Ġoath":9535,"Ġprecise":9536,"Ġdrift":9537,"RS":9538,"ersch":9539,"Ġarise":9540,"Ġhi":9541,"Ġlately":9542,"Ġbride":9543,"Ġtelegr":9544,"Ġdoubtless":9545,"Ġatmosphere":9546,"ĠAu":9547,"ĠSat":9548,"èĥ":9549,"ĠMax":9550,"Ã©ch":9551,"Ġcreatures":9552,"Ġaller":9553,"Ġpause":9554,"Ġeagerly":9555,"onial":9556,"Ġpreserve":9557,"Ġsla":9558,"conn":9559,"kko":9560,"Ġtel":9561,"Ġshining":9562,"Pres":9563,"Î¶":9564,"burgh":9565,"AACTCC":9566,"TAGCTGGG":9567,"Ġcease":9568,"Ġsteep":9569,"ĠFore":9570,"_),":9571,"Ġarchitect":9572,"iast":9573,"Ġgaze":9574,"ioned":9575,"ILITY":9576,"iÃ¤":9577,"orum":9578,"Ġruns":9579,"Ġsusp":9580,"Ġdistinction":9581,"Ġconsists":9582,"Ġpriests":9583,"Ġmankind":9584,"Ġutmost":9585,"TACAC":9586,"Ġrope":9587,"çİĭ":9588,"LES":9589,"PR":9590,"Ã§on":9591,"ressing":9592,"Ã©tÃ©":9593,"prof":9594,"æ±":9595,"aisia":9596,"orus":9597,"Ġsacrific":9598,"Ġviolence":9599,"Ġsank":9600,"SON":9601,"ĠhÃ¶":9602,"kseen":9603,"èĭ":9604,"vest":9605,"unless":9606,"Arch":9607,"gem":9608,"ĠCollege":9609,"ĠNothing":9610,"Ġej":9611,"Ġmein":9612,"Ant":9613,"ATTT":9614,"ĠAgain":9615,"ĠAnne":9616,"aping":9617,"ĠRem":9618,"Ġcui":9619,"roit":9620,"TCTCCC":9621,"ATGAAG":9622,"ĠÏĦÎ·ÏĤ":9623,"Ġio":9624,"Ġthence":9625,"ÎŃÎ½":9626,"occasion":9627,"Ġunfortunate":9628,"Ġattempted":9629,"Ġterritory":9630,"arrass":9631,"Ġdepends":9632,"quite":9633,"ocratic":9634,"AAGGGG":9635,"Ġmysterious":9636,"Ġeleg":9637,"TTCTTG":9638,"Ġtrack":9639,"aughters":9640,"##":9641,"Ġminist":9642,"eries":9643,"Ġstandard":9644,"Ġghost":9645,"mu":9646,"THER":9647,"Ġkuiten":9648,"Ġauthorities":9649,"anned":9650,"iese":9651,"æīĢ":9652,"Ġtuo":9653,"Ġwire":9654,"Ġvest":9655,"å°±":9656,"ĠMet":9657,"Ġdisplayed":9658,"Ġuseless":9659,"AAATATT":9660,"ĠMargaret":9661,"IGHT":9662,"ĠseÃ±":9663,"ussa":9664,"Ġlimitation":9665,"bird":9666,"TAAAAATAC":9667,"phen":9668,"pan":9669,"loqu":9670,"heel":9671,"Ġsust":9672,"ĠAz":9673,"appeared":9674,"ATCATC":9675,"Ġmarks":9676,"vill":9677,"Ġlaiss":9678,"Ġmies":9679,"Ġfalls":9680,"AGTTTG":9681,"Ġavaient":9682,"Ġtunn":9683,"Ġcents":9684,"ullut":9685,"Ġrival":9686,"Ġfrank":9687,"ĠPost":9688,"Ġarrangement":9689,"Ġindependent":9690,"Ġbeast":9691,"Ġestim":9692,"Ġdecision":9693,"temps":9694,"opin":9695,"Ġshelter":9696,"Def":9697,"rd":9698,"OG":9699,"ĠÃ¢":9700,"Car":9701,"Ġscr":9702,"Ġelectric":9703,"Ġapt":9704,"town":9705,"TAGAGAC":9706,"Ġmijn":9707,"Ãµ":9708,"å¥½":9709,"Ġburned":9710,"Ġdelighted":9711,"black":9712,"ORK":9713,"Ġoccasions":9714,"AATGGC":9715,"ĠAnother":9716,"Ġpover":9717,"ĠCle":9718,"-----+":9719,"ĠHart":9720,"akt":9721,"uda":9722,"Ġ64":9723,"ĠDi":9724,"geant":9725,"ources":9726,"Ġcontra":9727,"Ġquando":9728,"Ġcampaign":9729,"alys":9730,"ippi":9731,"Ġunited":9732,"Ġbarbar":9733,"ĠBell":9734,"Ġville":9735,"culation":9736,"Ġbask":9737,"AGCTAC":9738,"Ġerror":9739,"TGAGCC":9740,"fortune":9741,"Ġcollected":9742,"å¹´":9743,"kÃ¤Ã¤":9744,"atched":9745,"Ġenormous":9746,"TGCCCC":9747,"Ġtemp":9748,"ĠArmy":9749,"venue":9750,"rate":9751,"Ġgan":9752,"Ġfinds":9753,"Ġhebben":9754,"ĠThree":9755,"Ġestate":9756,"race":9757,"ĠLuc":9758,"adj":9759,"Ġcompleted":9760,"cipit":9761,"hands":9762,"Ġconsciousness":9763,"Ġez":9764,"AATTTG":9765,"amour":9766,"rouw":9767,"ĠEp":9768,"Ġtanto":9769,"Ġfille":9770,"Ġcomr":9771,"TON":9772,"ĠBet":9773,"Ġguests":9774,"Ġflame":9775,"miral":9776,"Ġcollege":9777,"Ġconstruction":9778,"Ġcorpor":9779,"Ġplainly":9780,"itors":9781,"Ġuser":9782,"Ġfatig":9783,"taking":9784,"Ġtois":9785,"Ġlibert":9786,"Ġactivity":9787,"Ġgez":9788,"Ġscale":9789,"Î¹Îº":9790,"Ġapproaching":9791,"Ġturns":9792,"Ġdispos":9793,"Ġlic":9794,"Ġattacked":9795,"ĠLook":9796,"ĠCa":9797,"vy":9798,"Ã©ral":9799,"Ġenf":9800,"Ġrush":9801,"cribed":9802,"Ġplat":9803,"Ġodd":9804,"arin":9805,"done":9806,"England":9807,"dam":9808,"weg":9809,"Ġbegins":9810,"nature":9811,"produ":9812,"Ġdaz":9813,"Ġcorrupt":9814,"Ġhanded":9815,"sere":9816,"Ġresc":9817,"whose":9818,"eous":9819,"aments":9820,"antages":9821,"uma":9822,"houses":9823,"ancholy":9824,"estab":9825,"PE":9826,"ayer":9827,"rical":9828,"Ġlan":9829,"Si":9830,"Ġfailure":9831,"omo":9832,"Ġconcluded":9833,"Ġdiscour":9834,"ATTTGG":9835,"Ġgegen":9836,"Ġgens":9837,"Ġproviding":9838,"Em":9839,"aisin":9840,"Ġpenetr":9841,"Ġfert":9842,"AGCTCC":9843,"issen":9844,"ju":9845,"Ġeleven":9846,"AGAGCC":9847,"!âĢĻ":9848,"anna":9849,"useum":9850,"ĠWorld":9851,"Ġornament":9852,"Ġlargely":9853,"à°¿":9854,"Ġreplacement":9855,"Ġwave":9856,"Ġ34":9857,"TCACCC":9858,"past":9859,"uld":9860,"twenty":9861,"GAGGC":9862,"Ġtroubles":9863,"shine":9864,"ĠHo":9865,"gle":9866,"ĠcÃ´t":9867,"ĠJum":9868,"Ġunhappy":9869,"ĠdÃ©jÃł":9870,"Ġcharacteristic":9871,"Ġtark":9872,"Ġging":9873,"Ġaveva":9874,"ĠAthen":9875,"TGTTTG":9876,"Ġchurches":9877,"ĠWater":9878,"AATTCC":9879,"Ġpractically":9880,"iento":9881,"Ã¨ne":9882,"TTATTG":9883,"ĠWalter":9884,"esso":9885,"Ma":9886,"weet":9887,"Ġbeaucoup":9888,"ĠFour":9889,"AGCAAG":9890,"Ġacknowled":9891,"rection":9892,"Ġshru":9893,"FF":9894,"Ġsale":9895,"Ste":9896,"Ġexamination":9897,"Ġsovereign":9898,"ĠÏĦÎ±":9899,"OHN":9900,"nell":9901,"AGGCTGGAGTGC":9902,"Ġdisposition":9903,"Ġeene":9904,"Ġram":9905,"rowned":9906,"Ġmig":9907,"Ġstretched":9908,"AAAGGC":9909,"Ġyard":9910,"Ġunconscious":9911,"therefore":9912,"LY":9913,"Ġpropriet":9914,"Ġajat":9915,"åķ":9916,"Â».":9917,"Ġdeed":9918,"Ġdeliver":9919,"=:":9920,"Ġcommerce":9921,"sty":9922,"Ġfirmly":9923,"TCGG":9924,"sych":9925,"Jul":9926,"Ġactions":9927,"AATAAC":9928,"oule":9929,"bene":9930,"ĠCanada":9931,"ĠSin":9932,"ATAAGC":9933,"acific":9934,"TTGAC":9935,"Ġpermit":9936,"ĠMah":9937,"ĠRock":9938,"Ġweakness":9939,"Ġming":9940,"arg":9941,"Ġdisplay":9942,"oden":9943,"Ġlighted":9944,"aum":9945,"pert":9946,"Ġmetal":9947,"Ġcotton":9948,"iez":9949,"account":9950,"ATGTTC":9951,"hot":9952,"Ġsuspicion":9953,"ĠIND":9954,"Ġinvited":9955,"ĠCOM":9956,"AATATC":9957,"told":9958,"former":9959,"å¿ĥ":9960,"etic":9961,"Ġstared":9962,"Ġsilm":9963,"Ġporque":9964,"èĢģ":9965,"Ġreputation":9966,"Ġcommenced":9967,"ĠAugen":9968,"lÃł":9969,"Ġoperations":9970,"Fl":9971,"ĠHam":9972,"Ġspare":9973,"rup":9974,"Ġscorn":9975,"ifies":9976,"origin":9977,"Ġbi":9978,"akk":9979,"Ġgazed":9980,"poon":9981,"annut":9982,"taining":9983,"Ġconflict":9984,"ĠAdd":9985,"Ġcomplying":9986,"fty":9987,"Ġdemonstr":9988,"Ġtranqu":9989,"ĠNeg":9990,"izes":9991,"Ġirrit":9992,"åĵ":9993,".\"[":9994,"King":9995,"Ġappropri":9996,"Ġrecently":9997,"anche":9998,"ĠdÃ©f":9999,"Ġriding":10000,"igent":10001,"unque":10002,"Ġtie":10003,"Ġthunder":10004,"mag":10005,"Ġloyal":10006,"Ġinsult":10007,"Ġmurmured":10008,"orno":10009,"Ġuttered":10010,"Åĵur":10011,"igence":10012,"Ġempire":10013,"ĠCas":10014,"ball":10015,"Ġpendant":10016,"ĠEi":10017,"wait":10018,"Ġacquired":10019,"fld":10020,"ĠLIM":10021,"Ġzw":10022,"ributions":10023,"Ġloving":10024,"oma":10025,"Ġmagnificent":10026,"omach":10027,"ĠÃ¤Ã¤n":10028,"Ġabb":10029,"Ġshr":10030,"Ġgroups":10031,"Ġcharged":10032,"Ġhunting":10033,"ĠTor":10034,"ĠGi":10035,"Ġburden":10036,"TTTTTC":10037,"Ġâ":10038,"Ġforehead":10039,"render":10040,"Ġdisposed":10041,"Ġindicate":10042,"iency":10043,"Ġspeaks":10044,"Ġtah":10045,"Ġsupported":10046,"TGCTTC":10047,"unction":10048,"iverse":10049,"oda":10050,"Ġcrowded":10051,"Ġkissed":10052,"aration":10053,"Ġcritical":10054,"cking":10055,"UB":10056,"inde":10057,"changed":10058,"ammen":10059,"ĠGreg":10060,"Ġhurry":10061,"Ġexists":10062,"Ġchamp":10063,"Ġsaint":10064,"AGGGGG":10065,"akespe":10066,"Dec":10067,"pleasant":10068,"Ġderivative":10069,"ÏĦÎµ":10070,"Ġpant":10071,"akaan":10072,"Ġauc":10073,"Ġtower":10074,"Ġgeb":10075,"åıª":10076,"ĠmÃ¡r":10077,"åģ":10078,"Ġuncertain":10079,"Ġmeer":10080,"190":10081,"olate":10082,"Ġroads":10083,"ĠGall":10084,"Ġuma":10085,"Ġmerc":10086,"Ġignorance":10087,"%,":10088,"TGCTG":10089,"gone":10090,"gentle":10091,"Ġettei":10092,"Ġteaching":10093,"otti":10094,"AACG":10095,"Ġvall":10096,"onio":10097,"à±į":10098,"Ġcliff":10099,"opo":10100,"block":10101,"class":10102,":âĢĶ":10103,"Ġreject":10104,"Ġancest":10105,"Ġwhisper":10106,"Ġchain":10107,"author":10108,"IAN":10109,"AACATGG":10110,"Ġflew":10111,"Ġhumanity":10112,"Ġhitherto":10113,"Ġclaims":10114,"Ġreb":10115,"ĠNO":10116,"French":10117,"istle":10118,"Ġsilloin":10119,"Ġdonner":10120,"Ġwretched":10121,"Ġscenes":10122,"Ġelsewhere":10123,"ĠPrincess":10124,"å¾Į":10125,"iforn":10126,"alling":10127,"ichte":10128,"abri":10129,"TAAGCC":10130,"ĠON":10131,"ĠKent":10132,"ĠÏĨ":10133,"ĠprÃ¨s":10134,"terior":10135,"Ġquella":10136,"Ġblame":10137,"Ġwarning":10138,"ĠSpani":10139,"rather":10140,"pere":10141,"Xpage":10142,"Ġbelle":10143,"Ġhadn":10144,"Ġlanded":10145,"Ġdelightful":10146,"Ġ/":10147,"Ġexamined":10148,"Ġdeze":10149,"Ġ00000000":10150,"AGCTG":10151,"inf":10152,"Vol":10153,"ATCATG":10154,"itan":10155,"Ġmarched":10156,"Ġhanging":10157,"AGGATG":10158,"Ġpatience":10159,"orence":10160,"ĠFreder":10161,"ĠJacob":10162,"Ġinstances":10163,"Ġaudience":10164,"Tis":10165,"Ġdared":10166,"Ġspark":10167,"ĠeivÃ¤t":10168,"umer":10169,"Ġgenerous":10170,"Ã¶k":10171,"hearted":10172,"written":10173,"Ġdove":10174,"ç½":10175,"Ġentitled":10176,"Ġforbid":10177,"Ġhers":10178,"yty":10179,"Ġminulle":10180,"heim":10181,"ACCG":10182,"Ġao":10183,"Ġ37":10184,"ĠTim":10185,"neet":10186,"ËĨ":10187,"ĠDis":10188,"Ġmille":10189,"Ġcosts":10190,"icians":10191,"jos":10192,"GGGCC":10193,"Ġsteady":10194,"ukk":10195,"Ġpero":10196,"ĠAustr":10197,"sar":10198,"ĠSand":10199,"AGGTG":10200,"Ġtoler":10201,"Ġcavalry":10202,"Ġlistening":10203,"ĠWestern":10204,"Ġpasses":10205,"inkuin":10206,"arms":10207,"TGCG":10208,"Ġgal":10209,"Ġsore":10210,".-":10211,"issippi":10212,"Pe":10213,"ami":10214,"AU":10215,"illing":10216,"Ġextrem":10217,"Ġarrive":10218,"Ġconfirmed":10219,"Ġvih":10220,"ATCTTG":10221,"Ġkoh":10222,"ĠOnce":10223,"nous":10224,"Ġpresident":10225,"anwhile":10226,"Ġtide":10227,"Ġseul":10228,"Ġangel":10229,"Ġprohib":10230,"Ġreferences":10231,"Ġcaptured":10232,"tro":10233,"Ġbosom":10234,"reading":10235,"Ġtodos":10236,"acted":10237,"æİ":10238,"odes":10239,"Ġsar":10240,"enem":10241,"Ġcomparison":10242,"Ġlust":10243,"TTCTAA":10244,"whom":10245,"Ġpuzz":10246,"ucky":10247,"?Â«":10248,"London":10249,"pher":10250,"xture":10251,"Ġott":10252,"Ġrailway":10253,"ributing":10254,"ĠOb":10255,"akespeare":10256,"Ġjur":10257,"Ġsiihen":10258,"IP":10259,"artment":10260,"TGGCCC":10261,"Ã©ment":10262,"quisite":10263,"oksi":10264,"alties":10265,"ĠLincoln":10266,"ATAGTG":10267,"Ġdepth":10268,",Â«":10269,"Ġascertain":10270,"iques":10271,"Ġtreasure":10272,"ä¼":10273,"whether":10274,"Ġfan":10275,"ĠChristians":10276,"ĠHelen":10277,"AAAAAAAAAAAA":10278,"æ¬":10279,"alm":10280,"satis":10281,"Ġdetail":10282,"fem":10283,"cence":10284,"walk":10285,"Ġwrites":10286,"ĠLIMITED":10287,"ATCTG":10288,"Ġdebt":10289,"Ġrelative":10290,"åĨ":10291,"Ġpremier":10292,"Ġvastaan":10293,"å»":10294,"Ġtraining":10295,"Ġcraft":10296,"ĠÎµÎ¹ÏĤ":10297,"Ġdetermine":10298,"Ġjota":10299,"TTTACC":10300,"Ġelles":10301,"Ġtiny":10302,"Ġbrow":10303,"Ġkl":10304,"Ġsupplied":10305,"Ġorg":10306,"Ġrealized":10307,"Ġconfined":10308,"Har":10309,"ĠUse":10310,"ĠGermans":10311,"thousand":10312,"ĠHence":10313,"Ġ38":10314,"ĠsiinÃ¤":10315,"Ġcheek":10316,"death":10317,"Ġtrembling":10318,"Ġapplication":10319,"ĠHaw":10320,"anny":10321,"Ġflung":10322,"ĠMarie":10323,"ifications":10324,"Ġtreaty":10325,"itudes":10326,"Ġstim":10327,"venir":10328,"Ġappar":10329,"voy":10330,"atti":10331,"ĠLieutenant":10332,"Ġgeen":10333,"ĠmyÃ¶s":10334,"Ġanticip":10335,"tle":10336,"Ġ150":10337,"Ġforming":10338,"Ġcommence":10339,"Ġpris":10340,"quelle":10341,"Two":10342,"Ġlum":10343,"Ġinterview":10344,"Ġpremi":10345,"onut":10346,"orde":10347,"possible":10348,"ĠThy":10349,"GCG":10350,"mill":10351,"lyn":10352,"IND":10353,"nty":10354,"ĠMexico":10355,"Ġlonely":10356,"Ġnearest":10357,"ĠUN":10358,"ĠWITH":10359,"rawn":10360,"Another":10361,"Ġpace":10362,"Ġbasis":10363,"Ġconfirm":10364,"Ġflood":10365,"ĠLee":10366,"stri":10367,"Ġesta":10368,"Ġwidow":10369,"Ġhorrible":10370,"Ġgrounds":10371,"hedral":10372,"olas":10373,"ĠCastle":10374,"aht":10375,"sufficient":10376,"Ġbears":10377,"Ġdisg":10378,"ĠBu":10379,"Ġmaintained":10380,"spirit":10381,"ATE":10382,"ĠSince":10383,"Ġdirections":10384,"Ã¤tte":10385,"ĠDist":10386,"TTCTAG":10387,"insa":10388,"avais":10389,"udence":10390,"aviour":10391,"Ġcompass":10392,"oja":10393,"words":10394,"cd":10395,"Ġaino":10396,"Ġpreviously":10397,"Ġlem":10398,"tree":10399,"ĠtÃ¤yty":10400,"sold":10401,"bran":10402,"American":10403,"Ġcharges":10404,"zig":10405,"Ġdiscipl":10406,"Ġslipped":10407,"AAGATG":10408,"aturday":10409,"Ġseur":10410,"greg":10411,"Ġnoon":10412,"TTGTC":10413,"ATTTAT":10414,"Ã¤ll":10415,"Ġgrasp":10416,"Ġcapacity":10417,"Ã¡ra":10418,"Ġtrick":10419,"erte":10420,"Ġflow":10421,"Ġshed":10422,"otions":10423,"Ġwohl":10424,"Ġpaik":10425,"Ġhind":10426,"Ġsuggestion":10427,"ĠIX":10428,"Ġjetzt":10429,"Ġopposed":10430,"arted":10431,"Ã¢te":10432,"soon":10433,"Ich":10434,"Ġrecovered":10435,"inations":10436,"Ġry":10437,"ĠKu":10438,"ÏĦÎ±":10439,"ĠEmpire":10440,"Feb":10441,"avia":10442,"Ġmob":10443,"inkaan":10444,"Ġmainten":10445,"çī":10446,"à±ģ":10447,"AATTAC":10448,"Ġlimit":10449,"Ġcum":10450,"ĠHal":10451,"pol":10452,"è¡Į":10453,"ĠJones":10454,"Ġsummon":10455,"ĠMS":10456,"Ġneighbor":10457,"ĠPri":10458,"ĠÎ´Î¹":10459,"Ġcommunication":10460,"Ġsorts":10461,"Ġons":10462,"harm":10463,"RY":10464,"Ġerrors":10465,"Ġcomplex":10466,"Ġseinen":10467,"ä¾¿":10468,"rebbe":10469,"Ġstout":10470,"inding":10471,"ä»Ĭ":10472,"Ġdrag":10473,"ĠCommission":10474,"Ġdict":10475,"Ġannoy":10476,"Ġfeast":10477,"anguage":10478,"Ġaccounts":10479,"Ġunusual":10480,"Ġexisted":10481,"mediately":10482,"ACTCTG":10483,"fred":10484,"rir":10485,"Ġstudied":10486,"why":10487,"Comm":10488,"Ġconvention":10489,"Ġcutting":10490,"Ġenthusiasm":10491,"including":10492,"Ġmak":10493,"Ġbishop":10494,"Ġrau":10495,"ATAAGG":10496,"ittaa":10497,"ISH":10498,"ĠProtest":10499,"Ġprejud":10500,"Ġalas":10501,"sted":10502,"pra":10503,"Ġbrings":10504,"Ġscream":10505,"ĠĠĠĠĠĠĠĠĠĠĠĠĠĠĠĠĠĠĠĠĠĠĠĠĠĠĠĠĠĠĠĠĠĠĠ":10506,"thus":10507,"AACCCC":10508,"Ġstronger":10509,"idly":10510,"dark":10511,"Ġkap":10512,"eenth":10513,"ruit":10514,"rust":10515,"Ġcin":10516,"Ġresistance":10517,"Ġwinds":10518,"Ġpoured":10519,"hysi":10520,"Ġhospital":10521,"Fran":10522,"Ġmisery":10523,"ĠPass":10524,"Ġfoundation":10525,"Ġdoth":10526,"Ġdece":10527,"ATTAAAA":10528,"Du":10529,"ĠVor":10530,"AGTTCC":10531,"Ġdonate":10532,"irer":10533,"criptions":10534,"ENCE":10535,"kn":10536,"Ġrit":10537,"è¬":10538,"ĠTro":10539,"influ":10540,"Ġcontrast":10541,"Ġmaison":10542,"Ġtroubled":10543,"Ġgates":10544,"abin":10545,"hl":10546,"ĠSouthern":10547,"Ġunexpected":10548,"ependant":10549,"Ġcosa":10550,"access":10551,"Â½":10552,"AGCTGG":10553,"grat":10554,"isy":10555,"ATTATG":10556,"ĠhabÃŃa":10557,"Ġneat":10558,"Ġrifle":10559,"æģ":10560,"conven":10561,"ĠIll":10562,"opes":10563,"ĠCro":10564,"Ġpes":10565,"Ġrim":10566,"object":10567,"bal":10568,"Ġsera":10569,"çĦ¶":10570,"Ġ42":10571,"mere":10572,"Ġvoit":10573,"Ġrivers":10574,"piece":10575,"acts":10576,"During":10577,"ĠTurk":10578,"ancial":10579,"gro":10580,"Ġbowed":10581,"Hen":10582,"ĠBas":10583,"Such":10584,"Ġdecor":10585,"Ġvale":10586,"lik":10587,"ç§":10588,"antin":10589,"Ġorganized":10590,"AACTTC":10591,"ĠrÃ©p":10592,"Ġjag":10593,"Ġportrait":10594,"AST":10595,"æ¨":10596,"Ġinsisted":10597,"ĠYoung":10598,"ĠGil":10599,"ĠHet":10600,"ĠIslands":10601,"mos":10602,"Ġpul":10603,"ATTTTTC":10604,"abl":10605,"erg":10606,"Ġpuol":10607,"oubtedly":10608,"ashing":10609,"itus":10610,"Ġpatron":10611,"ĠSun":10612,"achment":10613,"Ġconj":10614,"Defn":10615,"Ġconception":10616,"fell":10617,"Ġdesperate":10618,"endous":10619,"Ġpainful":10620,"ingham":10621,"Ġability":10622,"Ġpoco":10623,"Ã¶m":10624,"Ġbeloved":10625,"ORE":10626,"ĠCur":10627,"Ġadj":10628,"Â¿":10629,"ATAGAG":10630,"Ġrailroad":10631,"river":10632,"Ġgeneration":10633,"thren":10634,"ĠJohnson":10635,"Ġmerry":10636,"tri":10637,"TTAACC":10638,"Ġsleeping":10639,"Ġhastily":10640,"Ġabandoned":10641,"TCTTGC":10642,"Ġ160":10643,"Ġwerd":10644,"Ġlent":10645,"AGGCCC":10646,"often":10647,"ĠArm":10648,"Ġbeings":10649,"Ġnevertheless":10650,"Ġeer":10651,"fois":10652,"Ġpaljon":10653,"AGATGC":10654,"onte":10655,"sea":10656,"ĠDun":10657,"Ã¶rt":10658,"agues":10659,"employ":10660,"except":10661,"Brit":10662,"Ġmieux":10663,"Ġslavery":10664,"Ġash":10665,"Ġnurse":10666,"Ġeines":10667,"Ce":10668,"åīį":10669,"Ġhistorical":10670,"orting":10671,"Ġentering":10672,"Ġcreating":10673,"perfect":10674,"cannot":10675,"Ġsupre":10676,"ĠIllustr":10677,"Ġprotected":10678,"ĠÎ»":10679,"Ġensu":10680,"ĠSecond":10681,"å£":10682,"Ġresidence":10683,"TCCTTC":10684,"Ġaccompany":10685,"Ġrefuge":10686,"ĠMme":10687,"enter":10688,"ACCGC":10689,"plicity":10690,"AAGTAA":10691,"kel":10692,"Ġeating":10693,"xed":10694,"sol":10695,"ĠMos":10696,"Ġholds":10697,"sole":10698,"ACAGAA":10699,"Ġhungry":10700,"Ġinferior":10701,"Ġadventure":10702,"arian":10703,"Ġoc":10704,"Ġresolution":10705,"Ġmari":10706,"Ġproduct":10707,"Ġinev":10708,"Ġsaa":10709,"Ġcalculated":10710,"ATACCC":10711,"Ð²":10712,"Gu":10713,"pton":10714,"Ġcul":10715,"Ġtypes":10716,"Ġ39":10717,"AACATG":10718,"AAACCC":10719,"Ġblock":10720,"Ġseriously":10721,"Ġfolks":10722,"Ġpursued":10723,"Ã¨te":10724,"ĠFil":10725,"Ġimpatient":10726,"Ġacting":10727,"achten":10728,"Ġsupreme":10729,"Ġug":10730,"Ġsenses":10731,"cu":10732,"Ġseis":10733,"othe":10734,"Ġagric":10735,"Ġsono":10736,"ĠHist":10737,"feet":10738,"Ġshoes":10739,"comb":10740,"çľĭ":10741,"Ġsumm":10742,"Ġrepr":10743,"Ġcries":10744,"rene":10745,"Ġeastern":10746,"ollis":10747,"Ġrestored":10748,"åħ©":10749,"Ġ75":10750,"Ġpresents":10751,"angel":10752,"AATGTG":10753,"Ġmaterials":10754,"Ã©v":10755,"Ġhaste":10756,"Ġelected":10757,"Ġrevel":10758,"amento":10759,"TTAAGC":10760,"Ġdeny":10761,"Ġdissol":10762,"Ġmik":10763,"Ġhol":10764,"ĠlÃ¡":10765,"chter":10766,"nden":10767,"Ġprofess":10768,"Ġohne":10769,"Ġincreasing":10770,"Ġperceived":10771,"flo":10772,"bi":10773,"Ġlink":10774,"Ġminor":10775,"third":10776,"Ġelection":10777,"ĠEle":10778,"TATTTATT":10779,"ĠAccording":10780,"Ġpir":10781,"æ¯":10782,"ĠÂ§":10783,"othy":10784,"Ġante":10785,"Ġmistaken":10786,"ector":10787,"istics":10788,"ĠOxford":10789,"Ġtard":10790,"Ġperforming":10791,"gesch":10792,"Ġselected":10793,"encia":10794,"ĠHard":10795,"ĠmÃ¨re":10796,"ĠXXX":10797,"Ġici":10798,"lden":10799,"Ġhelpless":10800,"adelph":10801,"Ġours":10802,"Ġdancing":10803,"AGTGGG":10804,"rels":10805,"Ġconviction":10806,"Î±Î»":10807,"è·":10808,"Ġvoix":10809,"Ġtempo":10810,"AGCTTC":10811,"Ġconvenient":10812,"ACCTTG":10813,"Ġobvious":10814,"Ġstraw":10815,"Ġmasses":10816,"Ġreaders":10817,"ĠAtt":10818,"union":10819,"elia":10820,"stitute":10821,"Ġvastasi":10822,"Ġdriving":10823,"ÏĦÎ¿":10824,"Ġloves":10825,"Ġwhatsoever":10826,"herself":10827,"Ġdisturb":10828,"Ġling":10829,"Ġelev":10830,"rum":10831,"Ġroot":10832,"ĠAnna":10833,"çµ":10834,"Ġcolumn":10835,"ĠÏĦÎ¿Î½":10836,"lay":10837,"ULL":10838,"Ġfolk":10839,"ROM":10840,"Before":10841,"Ġaccordingly":10842,"CL":10843,"amer":10844,"ĠCross":10845,"national":10846,"Ġinher":10847,"Ġshortly":10848,"Ġrarely":10849,"Ġprayers":10850,"igneur":10851,"ĠIS":10852,"Ġtear":10853,"ATCTGC":10854,"TGGTGG":10855,"Ġmidnight":10856,"ĠSometimes":10857,"saw":10858,"etermin":10859,"URE":10860,"opport":10861,"Ġreturns":10862,"Ġparish":10863,"ĠTherefore":10864,"receive":10865,"ĠSecretary":10866,"Ġquale":10867,"ĠDeath":10868,"Ġerected":10869,"ĠÃ©r":10870,"Ġverl":10871,"Ġforever":10872,"TGTATG":10873,"Î¬Î½":10874,"spect":10875,"Ġfarmer":10876,"Ġparce":10877,"Ġtendency":10878,"kommen":10879,"Ġsincere":10880,"Ġpatter":10881,"ĠAuf":10882,"Ġheavily":10883,"Ġeld":10884,"otic":10885,"Ġdre":10886,"ĠColumb":10887,"ĠmÃ¶":10888,"Ġnotion":10889,"Ġsafely":10890,"Ġinval":10891,"Ġwww":10892,"Ġ48":10893,"Ġbottle":10894,"Ġcounsel":10895,"Ġexperienced":10896,"Ġ(?":10897,"TCCCCC":10898,"AGGTTC":10899,"Ġstayed":10900,"orte":10901,"Ġindustri":10902,",)":10903,"Ġquoi":10904,"Ġrested":10905,"Te":10906,"oil":10907,"Ġcomposition":10908,"Ġexempt":10909,"kein":10910,"Ġsomehow":10911,"grow":10912,"Ġpreceding":10913,"AGTGTG":10914,"uty":10915,"Ġcri":10916,"Ġcommonly":10917,"Ġcopying":10918,"Ġinspect":10919,"idos":10920,"é»":10921,"Ġstrain":10922,"atherine":10923,"Ġearliest":10924,"alph":10925,"æ³":10926,"?Â»":10927,"Min":10928,"cut":10929,"visible":10930,"Ġsettlement":10931,"ĠAtl":10932,"lad":10933,"money":10934,"Ġpetite":10935,"uthors":10936,"believe":10937,"Ġagreeable":10938,"VII":10939,"Ġmortal":10940,"AATAAG":10941,"zet":10942,"ÏİÎ½":10943,"ĠGesch":10944,"Ġcommander":10945,"either":10946,"Ġpapa":10947,"hamed":10948,"Ġlag":10949,"rag":10950,"trou":10951,"fashion":10952,"aned":10953,"Ġflu":10954,"bens":10955,"ilde":10956,"Ġshield":10957,"Ġig":10958,"Ġmoy":10959,"ĠHaving":10960,"Ġdeparted":10961,"Ġfinest":10962,"individual":10963,"Ġchim":10964,"Ġloin":10965,"Ġpowder":10966,"Ġeloqu":10967,"asso":10968,"Ġbere":10969,"hol":10970,"ĠWould":10971,"Ġdisse":10972,"Ġsisters":10973,"Ġqueer":10974,"Ġfant":10975,"grim":10976,"åł":10977,"Ġtunt":10978,"sometimes":10979,"Ġegli":10980,"ĠSax":10981,"Ġgallant":10982,"few":10983,"ĠMas":10984,"ATAGAC":10985,"TACTAA":10986,"kat":10987,"Ġindicated":10988,"ĠSTART":10989,"kea":10990,"pÃ¤Ã¤":10991,"Ġeux":10992,"hur":10993,"Ġward":10994,"Ġaltar":10995,"Ġshadows":10996,"ĠOut":10997,"ihin":10998,"Ġsituated":10999,"ponse":11000,"ties":11001,"Ġrou":11002,"Ġspecific":11003,"forward":11004,"TGAAGG":11005,"ĠÎ±ÏĢ":11006,"gave":11007,"TCATTC":11008,"Ġnights":11009,"ĠUpon":11010,"Ġgrain":11011,"cat":11012,"GCCCC":11013,"Ġmagistr":11014,"Ġmap":11015,"tur":11016,"Ġdien":11017,"wall":11018,"ĠCape":11019,"Ġbelongs":11020,"Ġexpend":11021,"Ġdevotion":11022,"ATGTTG":11023,"want":11024,"PT":11025,"elli":11026,"Ġexert":11027,"Ġfeed":11028,"Ġecho":11029,"das":11030,"Ġdescended":11031,"TGAACC":11032,"nten":11033,"åĽŀ":11034,"chess":11035,"horse":11036,"cation":11037,"Ġtart":11038,"city":11039,"keeper":11040,"autres":11041,"Äĵ":11042,"Ġordin":11043,"ACCCCC":11044,"vait":11045,"attom":11046,"ç¦":11047,"hire":11048,"Ġabrupt":11049,"Ġ44":11050,"Ġrue":11051,"aupt":11052,"Ġfed":11053,"during":11054,"Nothing":11055,"amo":11056,"Ġbegged":11057,"Ġcens":11058,"cross":11059,"Ġexternal":11060,"Ġmeas":11061,"inson":11062,"rot":11063,"Ġantiqu":11064,"bishop":11065,"ATGTGC":11066,"AACAAAA":11067,"front":11068,"oka":11069,"Ã¡j":11070,"Ġarts":11071,"thy":11072,"illeurs":11073,"Ġhomes":11074,"Ġashamed":11075,"Ġvoll":11076,"Ġzal":11077,"Ġwives":11078,"ensed":11079,"sche":11080,"Ġvillages":11081,"Ġregards":11082,"ichten":11083,"ĠCard":11084,"AGTATG":11085,"ĠBerlin":11086,"Ġgenuine":11087,"especially":11088,"Ġanci":11089,"ĠHolland":11090,"onden":11091,"Ġsuccession":11092,"TAGAC":11093,"court":11094,"Ġindividuals":11095,"justice":11096,"Ġcircumstance":11097,"ĠWhich":11098,"Ġbath":11099,"covered":11100,"uivat":11101,"Ã±a":11102,"Ġmuttered":11103,"Des":11104,"issent":11105,"Ġpauv":11106,"Ġcontents":11107,"ĠMinister":11108,"urred":11109,"Ġsuitable":11110,"ĠPublic":11111,"Yet":11112,"Ġresist":11113,"AGGAAAA":11114,"ĠPan":11115,"ĠPeople":11116,"Ġapost":11117,"çĽ¸":11118,"bacco":11119,"eded":11120,"hast":11121,"Ġexceedingly":11122,"ĠenÃ¤Ã¤":11123,"\"_":11124,"ĠBelg":11125,"Ġsuspect":11126,"zÃ©":11127,"Ġpian":11128,"ĠWH":11129,"ĠJah":11130,"ĠSection":11131,"Ġcert":11132,"Ġvaikka":11133,"Ã³s":11134,"Ro":11135,"Captain":11136,"Ġtemperature":11137,"lÃ©":11138,"till":11139,"several":11140,"Ġconducted":11141,"TGTTCC":11142,"Ġsah":11143,"anded":11144,"Ġdiscont":11145,"vÃ¤Ã¤":11146,"icago":11147,"RIB":11148,"ĠChristianity":11149,"Ġhil":11150,"Ġcommittee":11151,"PER":11152,"Ġinstructions":11153,"women":11154,"ĠBaron":11155,"TCTGTG":11156,".).":11157,"EMENT":11158,"TACAAAA":11159,"vering":11160,"ahl":11161,"Ġsensible":11162,"éĸĢ":11163,"Ġ43":11164,"ĠOs":11165,"ĠMississippi":11166,"Ġmuy":11167,"éģİ":11168,"ĠMir":11169,"angle":11170,"Ġetwas":11171,"Ġrevealed":11172,"Ġquoted":11173,"stein":11174,"Ġafterward":11175,"Ġseas":11176,"Ġthreatened":11177,"quoi":11178,"TTCTTTT":11179,"cker":11180,"Ġcave":11181,"oster":11182,"ĠEND":11183,"Ġcottage":11184,"ĠAT":11185,"fif":11186,"Ġconsequently":11187,"ĠFIG":11188,"important":11189,"gew":11190,"ï¼Ľ":11191,"Ġcoach":11192,"ĠÃ©n":11193,"Ġstudent":11194,"ĠHugh":11195,"ilson":11196,"ĠLeon":11197,"Ġmarble":11198,"ertainly":11199,"Ġserait":11200,"along":11201,"Ġrug":11202,"Ġvolumes":11203,"Ġmely":11204,"TATAAAA":11205,"Ġherra":11206,"arsi":11207,"ĠBour":11208,"broken":11209,"grad":11210,"phone":11211,"Ġmerchant":11212,"Ġcopper":11213,"ĠBre":11214,"Ġborrow":11215,"rick":11216,"Ġpeine":11217,"apr":11218,"iaan":11219,"azine":11220,"Ġfils":11221,"ĠRomans":11222,"box":11223,"ĠLA":11224,"Ġvagy":11225,"Ġmerit":11226,"ĠIh":11227,"ĠCrown":11228,"pled":11229,"ĠTHAT":11230,"Ġbrid":11231,"ĠAch":11232,"Ġbonne":11233,"Ġabsent":11234,"ilen":11235,"glich":11236,"Ð°":11237,"Ġmasters":11238,"Ġdescribe":11239,"Ġduc":11240,"Ġinfl":11241,"Ġestablishment":11242,"Ġsolicit":11243,"ĠSk":11244,"Ġtestimony":11245,"uscript":11246,"Ġfitted":11247,"AACCTCC":11248,"TCTATT":11249,"direct":11250,"phil":11251,"Ġ65":11252,"adelphia":11253,"stud":11254,"irent":11255,"nent":11256,"Ġseeking":11257,"trees":11258,"Ġbadly":11259,"nie":11260,"Ġcrying":11261,"Ġregistered":11262,"Ġcad":11263,"asked":11264,"Ġforgive":11265,"ifornia":11266,"Ġconna":11267,"Ġmelancholy":11268,"scar":11269,"uve":11270,"Ġpersec":11271,"è¨Ģ":11272,"Ġfavourite":11273,"TTTAGC":11274,"understand":11275,"Ġchem":11276,"blood":11277,"Ġsomebody":11278,"Ġsoir":11279,"ĠFrau":11280,"ĠMem":11281,"Ġkuinka":11282,"ATCTAA":11283,"Ġdaughters":11284,"Ġslightest":11285,"Ġ41":11286,"Ġwalks":11287,"Ġsins":11288,"TCAGAA":11289,"Ġbron":11290,"TTGTAA":11291,"lique":11292,"AGATAC":11293,"ĠSav":11294,"mais":11295,"ocracy":11296,"within":11297,"Ġartific":11298,"Ġnichts":11299,"rod":11300,"PL":11301,"ateur":11302,"ĠSH":11303,"Ġoriginally":11304,"Ġsigned":11305,"âķ":11306,"Ġprimitive":11307,"ursed":11308,"undo":11309,"TAGAAG":11310,"above":11311,"Ġfeu":11312,"tor":11313,"éļ":11314,"Ġorganization":11315,"Ġdia":11316,"AACAAG":11317,"Ġfederal":11318,"Ġfruits":11319,"OY":11320,"Ġhoof":11321,"Ġregarding":11322,"Ġpod":11323,"Ġthrill":11324,"ĠGrace":11325,"TGGAGG":11326,"Ġanche":11327,"Ġceremony":11328,"à°¾":11329,"Ġrecords":11330,"Ġtutti":11331,"Ġexisting":11332,"aws":11333,"moi":11334,"Ġbapt":11335,"headed":11336,"fre":11337,"Ġviz":11338,"oton":11339,"Ġversion":11340,"Ġaloud":11341,"Ġjug":11342,"considerable":11343,"Ġaug":11344,"Ġ46":11345,"already":11346,"Ġsailed":11347,"Ġsne":11348,"Ġbond":11349,"inery":11350,"ĠsiellÃ¤":11351,"Ġassembled":11352,"TCTTTG":11353,"Ġsharply":11354,"ĠkyllÃ¤":11355,"ĠAsia":11356,"ĠNous":11357,"Ġpoi":11358,"ĠPur":11359,"aston":11360,"Ġinclude":11361,"Ġfears":11362,"ATH":11363,"Ġchoses":11364,"Ġmagic":11365,"pun":11366,"TACG":11367,"equ":11368,"Ġsenza":11369,"Ġeditor":11370,"é£":11371,"Ġcav":11372,"Ġtones":11373,"orie":11374,"rons":11375,"ĠXIV":11376,"Ġregions":11377,"Nov":11378,"CTCC":11379,"BERT":11380,"Ġimmort":11381,"Europe":11382,"Ġnuit":11383,"Ġimpulse":11384,"emen":11385,"Even":11386,"stro":11387,"TCAGCCTCCC":11388,"lord":11389,"Ġlargest":11390,"fellow":11391,"ç¬":11392,"aller":11393,"ĠelÅĳ":11394,"ĠtÃ¤mÃ¤n":11395,"Ġvictim":11396,"ĠMill":11397,"Ġshared":11398,"AK":11399,"num":11400,"iga":11401,"Ġpurple":11402,"Ġcenter":11403,"uuden":11404,"Ġlun":11405,"Ġslender":11406,"geb":11407,"ç¾":11408,"Ġgij":11409,"ifully":11410,"rors":11411,"oten":11412,"VIII":11413,"Ã¤ssÃ¤":11414,"Ġsongs":11415,"Ġrein":11416,"ĠHan":11417,"uutta":11418,"Ġlend":11419,"Ġec":11420,"ciation":11421,"Ġwra":11422,"Ġheures":11423,"Ġshake":11424,"ĠSub":11425,"ĠWind":11426,"Ġtoss":11427,"Ġdelic":11428,"ĠBRE":11429,"Christian":11430,"ardo":11431,"Ġvari":11432,">[":11433,"Ġvarm":11434,"anning":11435,"ĠExcept":11436,"Ġfasc":11437,"è¶":11438,"anden":11439,"earth":11440,"ï¼ŁãĢį":11441,"Ġintelligent":11442,"Ġvivid":11443,"Ġplais":11444,"Ġsounded":11445,"beautiful":11446,"Ġleads":11447,"ĠystÃ¤":11448,"Ã¤nne":11449,"Art":11450,"Ġwondering":11451,"Ġoffers":11452,"ervation":11453,"Ġgratitude":11454,"itself":11455,"ATAACC":11456,"Ġstem":11457,"Ġsmell":11458,"ATCATT":11459,"ĠNic":11460,"everything":11461,"bas":11462,"Ġkell":11463,"lling":11464,"ĠJerusalem":11465,"Ġprime":11466,"Ġextensive":11467,"ĠcosÃ¬":11468,"Ġmerch":11469,"kerchief":11470,"ieg":11471,"AGGTAA":11472,"ĠGeorg":11473,"ĠSic":11474,"Ġimagined":11475,"ication":11476,"Ġambition":11477,"Ġnob":11478,"ournal":11479,"ĠPa":11480,"AGTTAA":11481,"hour":11482,"Ġswamp":11483,"Ġruins":11484,"×Ļ":11485,"ĠConstitution":11486,"Ġpassages":11487,"Ġpossibility":11488,"Ġnut":11489,"emb":11490,"Ġexchange":11491,"Ġmedicine":11492,"Ġnaked":11493,"Ġmate":11494,"Ġperil":11495,"ATCGC":11496,"Ġdetect":11497,"Ġate":11498,"ottom":11499,"giving":11500,"ĠlÃ¶":11501,"lesiast":11502,"Ġdamage":11503,"geon":11504,"Ġ55":11505,"Ġprevented":11506,"Ġclay":11507,"Ġconcealed":11508,"Ġpla":11509,"ciÃ³n":11510,"dell":11511,"TTTTTTTTTTTT":11512,"TTGAAC":11513,"IAL":11514,"ights":11515,"ĠTell":11516,"ĠSel":11517,"itÃ©s":11518,"ternational":11519,"ĠHay":11520,"Ġranks":11521,"Ġnap":11522,"toi":11523,"Ġleaned":11524,"Ġlion":11525,"knew":11526,"mor":11527,"wife":11528,"å½":11529,"umns":11530,"issant":11531,"sembl":11532,"Ġrecover":11533,"Ġconcept":11534,"Ġbeaten":11535,"Ġplays":11536,"illo":11537,"hension":11538,"Ġconvert":11539,"pse":11540,"meet":11541,"Ġtren":11542,"felt":11543,"uded":11544,"indeed":11545,"å¤ª":11546,"hill":11547,"Ġcontrad":11548,"ĠService":11549,"Ġgang":11550,"talk":11551,"aters":11552,"Ġdru":11553,"ORY":11554,"Ã±o":11555,"Ġsempre":11556,"esch":11557,"Ġmains":11558,"ighted":11559,"ĠFlorence":11560,"Ġcrack":11561,"Ġhym":11562,"gun":11563,"èµ·":11564,"ĠwÃ¼r":11565,"Ġparallel":11566,"ylon":11567,"Ġquelle":11568,"Ġpursuit":11569,"Ã§ais":11570,"mur":11571,"ulta":11572,"ĠOli":11573,"geance":11574,"Ġsanct":11575,"è»":11576,"åĮ":11577,"Ġstomach":11578,"short":11579,"tek":11580,"ĠÃ¤r":11581,"inta":11582,"uden":11583,"Ġga":11584,"Ġ47":11585,"Ġplac":11586,"TATTGC":11587,"Ġventure":11588,"Ġcombined":11589,"atu":11590,"ĠPour":11591,"Ġusk":11592,"Ġartillery":11593,"Ġpound":11594,"Ġdeclare":11595,"maid":11596,"ultan":11597,"Ġthrowing":11598,"ĠTen":11599,"TCCTGC":11600,"Ġtutto":11601,"ackson":11602,"Ġdrunk":11603,"Ġleis":11604,"Ġsheet":11605,"Cor":11606,"nation":11607,"ĠGent":11608,"tery":11609,"beit":11610,"iov":11611,"Ġoft":11612,"Most":11613,"Ġdistinctly":11614,"Ġsteadily":11615,"Ġleather":11616,"Ġrestrictions":11617,"fte":11618,"gate":11619,"lest":11620,"wich":11621,"ulus":11622,"Ġretire":11623,"Ġidle":11624,"Ġexhausted":11625,"Ġenabled":11626,"ibli":11627,"pin":11628,"liness":11629,"ilta":11630,"Ġfires":11631,"Ġbalance":11632,"Ġguest":11633,"Ġdistress":11634,"according":11635,"Ġspell":11636,"AGGCGG":11637,"Ġster":11638,"ĠTemple":11639,"Ġperfection":11640,"green":11641,"aga":11642,"================":11643,"Ġadmirable":11644,"ÅŃ":11645,"ACCTGC":11646,"Î¼Î±":11647,"èĩ³":11648,"hui":11649,"Ġrequires":11650,"camp":11651,"whel":11652,"Ġcontinually":11653,"myself":11654,"TCAAGC":11655,"Ġdeserted":11656,"ensions":11657,"Ġcombat":11658,"Ġbone":11659,"Ġkur":11660,"Ġpoverty":11661,"Ġspecified":11662,"TGGTGC":11663,"ennes":11664,"Ġreprodu":11665,"Ġgloom":11666,"Ġsaddle":11667,"Ġquart":11668,"TGGAAC":11669,"Ġcy":11670,"Ġinvolved":11671,"Ġbeard":11672,"following":11673,"Î½Î±":11674,"pict":11675,"Ġvary":11676,"illon":11677,"ether":11678,"Ġeighteen":11679,"sters":11680,"Ġstatements":11681,"allowed":11682,"Ġlofty":11683,"fel":11684,"heur":11685,"Ġlimbs":11686,"ACTTTC":11687,"Ġsunshine":11688,"leness":11689,"aneous":11690,"Ġmusical":11691,"Ġfinancial":11692,"Ġlett":11693,"èº":11694,"Ġautumn":11695,"ATAGGC":11696,"ieties":11697,"ĠEarth":11698,"ĠcÃ´tÃ©":11699,"ÃŁt":11700,"Ġassure":11701,"Ġcheerful":11702,"Ġadministration":11703,"itious":11704,"Ġthir":11705,"Ġdrinking":11706,"Ġlesson":11707,"ĠLP":11708,"åĤ":11709,"TGTGGG":11710,"ĠJuan":11711,"Ġseventy":11712,"Ġlament":11713,"Ġsupplies":11714,"Ġdecide":11715,"RIC":11716,"Ġembarrass":11717,"Ġsentiments":11718,"iko":11719,"ffic":11720,"Ġscul":11721,"ĠScript":11722,"Ġowns":11723,"Ġrepublic":11724,"Ġkal":11725,"Ġmostly":11726,"Ġnobles":11727,"Ġculture":11728,"ĠWARRANT":11729,"Ġtick":11730,"ulo":11731,"Ġcivilization":11732,"Ġcolony":11733,"sie":11734,"ĠzurÃ¼ck":11735,"nel":11736,"ĠAlso":11737,"Ġsic":11738,"Ġfinish":11739,"Ġtoe":11740,"ĠÏĩ":11741,"ĠThrough":11742,"nier":11743,"ARY":11744,"uj":11745,"Ġemperor":11746,"Ġtraged":11747,"pite":11748,"kte":11749,"Ġraces":11750,"uster":11751,"ichel":11752,"nicht":11753,"bear":11754,"treat":11755,"alian":11756,"ĠHeb":11757,"agle":11758,"MER":11759,"Ġresting":11760,"tering":11761,"zed":11762,"AGGTTG":11763,"Ġkyl":11764,"viously":11765,"Ġkuitenkin":11766,"ĠHenri":11767,"Ġ49":11768,"sou":11769,"ĠEN":11770,"Ġoccupation":11771,"Ġow":11772,"steps":11773,"lessness":11774,"ĠVi":11775,"agre":11776,"Ġpains":11777,"Ġcrossing":11778,"Ġphotograph":11779,"TGAGAG":11780,"Ġimposed":11781,"idable":11782,"âĢĲ":11783,"phas":11784,"ĠgÃ©nÃ©ral":11785,"éłŃ":11786,"Ġdoute":11787,"Ã¶h":11788,"ĠCy":11789,"isme":11790,"Ã¤d":11791,"decl":11792,"Ġgifts":11793,"Ġhoney":11794,"Ġremote":11795,"ĠÃ©g":11796,"AGCATG":11797,"William":11798,"getting":11799,"bbing":11800,"Ġcheap":11801,"Ġdeeper":11802,"ĠAdam":11803,"Ġthereby":11804,"Ġunlike":11805,"esto":11806,"poor":11807,"è¿":11808,"Ġwrath":11809,"Ġrud":11810,"lett":11811,"ACAGAG":11812,"Ġpig":11813,"ATTAAC":11814,"TTCATG":11815,"TTTAGG":11816,"Ġmaiden":11817,"ĠCop":11818,"Ġrepeat":11819,"ĠRod":11820,"Ġprophe":11821,"Ġneighbourhood":11822,"Ġpark":11823,"erness":11824,"TTCG":11825,"press":11826,"circumst":11827,"ĠGreeks":11828,"anni":11829,"AGACCC":11830,"Ġtalent":11831,"Ġcared":11832,"urious":11833,"Ġbeach":11834,"Ġpositive":11835,"ĠAndrew":11836,"Ġthine":11837,"Ġdin":11838,"Ġcontinent":11839,"Ġlimits":11840,"aka":11841,"begin":11842,"Ġattent":11843,"100":11844,"Ġpud":11845,"Ġdismiss":11846,"eu":11847,"Ġpsych":11848,"onym":11849,"ĠperchÃ¨":11850,"ĠĠĠĠĠĠĠĠĠĠĠĠĠĠĠĠĠĠĠĠĠĠĠĠĠĠĠĠĠĠĠĠĠĠĠĠĠ":11851,"ĠHÃ¤":11852,"iert":11853,"ĠAlice":11854,"friends":11855,"Ġresumed":11856,"AGES":11857,"Ġbuff":11858,"AGTCAC":11859,"Ġprovinces":11860,"Ġshone":11861,"Ġenable":11862,"Ġsegu":11863,"Ġauthors":11864,"Ġobjection":11865,"ĠPenn":11866,"Ġroots":11867,"Ġcheval":11868,"otal":11869,"Ġdice":11870,",_":11871,"Rep":11872,"onge":11873,"Ġfab":11874,"everal":11875,"bye":11876,"?)</":11877,"akseen":11878,"UC":11879,"eau":11880,"Ġtegen":11881,"ĠAmericans":11882,"true":11883,"Ġsci":11884,"government":11885,"Ġpolitics":11886,"ĠÎ²":11887,"Ġmater":11888,"Ġconceal":11889,"trademark":11890,"ignor":11891,"Ġost":11892,"Ġraising":11893,"Ġconcentr":11894,"Ġstudents":11895,"Ġpouvait":11896,"onnte":11897,"ylvan":11898,"Ġhopeless":11899,"ĠeÃ»t":11900,"auch":11901,"Ġmaxim":11902,"parent":11903,"ĠTake":11904,"Ġassume":11905,"ĠâĢĿ":11906,"Ġnuo":11907,"Ġpear":11908,"Ġsuoi":11909,"attention":11910,"armed":11911,"Take":11912,"Ġlightly":11913,"Ġsouff":11914,"ĠIls":11915,"Ġexamples":11916,"TTCATC":11917,"ĠPAR":11918,"obl":11919,"Ġfeature":11920,"Ġplung":11921,"âĤ":11922,"Ġkar":11923,"Ġprize":11924,"brother":11925,"htt":11926,"agt":11927,"ĠTest":11928,"Ġintroduction":11929,"rund":11930,"Ġ170":11931,"irts":11932,"exam":11933,"Ġviime":11934,"Ġanni":11935,"ACTGTG":11936,"Ġinquiry":11937,"Ġdata":11938,"Ġpine":11939,"Ġstring":11940,"Ġlawyer":11941,"Ġreform":11942,"Ġfurniture":11943,"Ġ52":11944,"Ġdeeds":11945,"Ġstrangers":11946,"ĠtÃ¶":11947,"Ġcovering":11948,"ĠLew":11949,"ĠMond":11950,"Sie":11951,"Ġconse":11952,"Ġ}":11953,"Ġsubl":11954,"Bar":11955,">(?)</":11956,"Ã¡ban":11957,"Ġvas":11958,"å®ĺ":11959,"Ġstarting":11960,"TCTAT":11961,"Ġcure":11962,"Ġphilosoph":11963,"Elle":11964,"ĠAlthough":11965,"Sep":11966,"ĠIng":11967,"ĠRevolution":11968,"TAGAAC":11969,"Ã¨ce":11970,"Ġentity":11971,"><":11972,"ĠTown":11973,"Ġjuuri":11974,"Ġwaist":11975,"Ġhut":11976,"å·²":11977,"ĠRuth":11978,"draw":11979,"igation":11980,"Ġlanding":11981,"Ġmedical":11982,"ĠPap":11983,"Ġclerk":11984,"ĠRoger":11985,"à°¨":11986,"Ġvice":11987,"ckets":11988,"Ġmail":11989,"Ġinterfe":11990,".]</":11991,"Ġouv":11992,"osure":11993,"fles":11994,"Ġnormal":11995,"ĠSamuel":11996,"Ġslain":11997,"Ġseats":11998,"ĠEv":11999,"Ġslip":12000,"Ġcryst":12001,"Ġrelieved":12002,"imento":12003,"ften":12004,"Ġquesta":12005,"eta":12006,"ĠVers":12007,"ĠMission":12008,"Ġymp":12009,"Ġsuspected":12010,"Ġsighed":12011,"Ġbade":12012,"ĠPL":12013,"Ġmodo":12014,"mut":12015,"Ġfathers":12016,"Ġresponsible":12017,"CTGC":12018,"Ġbesch":12019,"ĠTime":12020,"Ġ56":12021,"Ġmoreover":12022,"ĠBeg":12023,"ammed":12024,"sembly":12025,"Ġdenied":12026,"AGCAAC":12027,"Ġwanting":12028,"Ġrice":12029,"Ġcleared":12030,"isiÃ¤":12031,"ATTAAG":12032,"concern":12033,"inden":12034,"Ġras":12035,"Ġrays":12036,"Ġeut":12037,"Ġattain":12038,"ĠJOHN":12039,"Ġpartie":12040,"Ġgrateful":12041,"ĠGreece":12042,"Ġovercome":12043,"Ġrhy":12044,"ordon":12045,"Ġformation":12046,"AGCTAA":12047,"Ġperformance":12048,"ĠBart":12049,"Ġpassions":12050,"Ġelabor":12051,"doubt":12052,"TATGCC":12053,"ATIONS":12054,"kas":12055,"comes":12056,"ĠvÃ©rit":12057,"ĠASC":12058,"Ġcolours":12059,"Ġobservations":12060,"ĠAbb":12061,"Ġflash":12062,"Ġpresque":12063,"AGGA":12064,"Ġtaxes":12065,"Bec":12066,"Ġmotor":12067,"ensity":12068,"quered":12069,"Ġhalt":12070,"attering":12071,"ĠVous":12072,"Ġbreeze":12073,"times":12074,"onsense":12075,"umbled":12076,"Ġmultitude":12077,"ients":12078,"play":12079,"TTATAC":12080,"Ġfrancs":12081,"eln":12082,"polit":12083,"Ġwash":12084,"Ġdesk":12085,"Ġeg":12086,"Ġdag":12087,"Ġcapture":12088,"ĠBilly":12089,"Ġemployment":12090,"Ġjoint":12091,"ĠCO":12092,"ĠWel":12093,"Ġcontest":12094,"coat":12095,"ilo":12096,"Ġnou":12097,"ĠGott":12098,"cott":12099,"âķĲ":12100,"Ġihrer":12101,"ÃĦ":12102,"Ġboil":12103,"Ġtulee":12104,"orse":12105,"Ġsecurity":12106,"ĠPage":12107,"Ġtales":12108,"Ġrag":12109,"tant":12110,"Ġastonished":12111,"Ġcant":12112,"dated":12113,"rified":12114,"Ġdisturbed":12115,"Ġrecorded":12116,"run":12117,"AATTGC":12118,"ĠÃĨ":12119,"UE":12120,"Ġseinem":12121,"Ġjournal":12122,"Ġfearful":12123,"ĠĠĠĠĠĠĠĠĠĠĠĠĠĠĠĠĠĠĠĠĠĠĠĠĠĠĠĠĠĠĠĠĠĠĠĠ":12124,"iveness":12125,"Ġrout":12126,"Ġcolonel":12127,"ĠPacific":12128,"Ġdav":12129,"Ġfug":12130,"Ġarmies":12131,"Ġfiles":12132,"Ġcustoms":12133,"Ġastonishment":12134,"uming":12135,"Ġdiplom":12136,"ĠÎ¬":12137,"ilia":12138,"ĠNi":12139,"ravag":12140,"iseksi":12141,"ĠXII":12142,"lines":12143,"Ġprovision":12144,"ĠBru":12145,"æĺİ":12146,"Ġdemands":12147,"ppen":12148,"ĠWall":12149,"kka":12150,"Ġsuur":12151,"ĠBal":12152,"Ġcourts":12153,"AATCAC":12154,"ĠGrant":12155,"Ġpersonne":12156,"Ġgardens":12157,"Ġchapel":12158,"ĠJudge":12159,"TTGAAG":12160,"compan":12161,"Ġaffl":12162,"Ġhappens":12163,"Ġtouching":12164,"Ġpub":12165,"unden":12166,"INT":12167,"ĠJapanese":12168,"emoiselle":12169,"ĠCounty":12170,"Ġstartled":12171,"Ġrecall":12172,"ĠShakespeare":12173,"sun":12174,"ĠâĢľ_":12175,"ĠTex":12176,"Ġconsisted":12177,"Ġeaten":12178,"Ã¤stÃ¤":12179,"Ġcra":12180,"bere":12181,"halten":12182,"atz":12183,"chers":12184,"aix":12185,"Ġdepartment":12186,"icing":12187,"Ġvine":12188,"ĠAdmiral":12189,"Ġconsid":12190,"Ġburnt":12191,"willing":12192,"Ġconfident":12193,"Ġzeal":12194,"Ġprendre":12195,"Ġclock":12196,"Ġquatre":12197,"Ġgau":12198,"Ġfemmes":12199,"TGATAA":12200,"Ġkaj":12201,"TCCG":12202,"spring":12203,"Ġtobacco":12204,"oard":12205,"etto":12206,"igu":12207,"ĠOver":12208,"Ġsolo":12209,"alysis":12210,"orer":12211,"ĠpremiÃ¨re":12212,"rily":12213,"ÃŃs":12214,"Ġ120":12215,"×ķ":12216,"perial":12217,"autta":12218,"ĠBa":12219,"esprit":12220,"ÏĥÎµ":12221,"amental":12222,"Ġfastened":12223,"AATGCC":12224,"INC":12225,"Ġattempts":12226,"ĠÎ¼Îµ":12227,"ĠPu":12228,"Ġpromoting":12229,"Ġmodest":12230,"Ã©cri":12231,"Ġcandid":12232,"aprÃ¨s":12233,"Ġintervals":12234,"Ġneglect":12235,"Ġniinkuin":12236,"communic":12237,"Ġfury":12238,"ATGAAC":12239,"Ġ(?),":12240,"ĠmÃ¼":12241,"Ġgrows":12242,"ĠSenate":12243,"ĠSpaniards":12244,"Ġthereof":12245,"Ġpalm":12246,"Ġsculpt":12247,"Ġconsequences":12248,"ĠChild":12249,"æ®":12250,"Ġirregular":12251,"Ġwoll":12252,"amilton":12253,"Ġsiis":12254,"Sec":12255,"icke":12256,"Ġ51":12257,"Ġemployees":12258,"Ġappearing":12259,"bare":12260,"Ġkerran":12261,"Ġhesitated":12262,"ĠDire":12263,"Ġdefeat":12264,"Ġhed":12265,"ĠSaturday":12266,"Ġtamb":12267,"Ġclaimed":12268,"ATGCCC":12269,"although":12270,"loss":12271,"inence":12272,"Ġplot":12273,"enti":12274,"Ġprominent":12275,"kle":12276,"avec":12277,"angled":12278,"ĠXI":12279,"ĠDAM":12280,"ACE":12281,"TTAAGG":12282,"cos":12283,"500":12284,"PWH":12285,"lui":12286,"hig":12287,"TGGGATTACAGGC":12288,"Ġdragged":12289,"near":12290,"Ġbeasts":12291,"Ġwedding":12292,"usammen":12293,"Ġheavens":12294,"ĠTurn":12295,"Ġmodel":12296,"ĠBrig":12297,"Ġdalla":12298,"AGTAAG":12299,"\";":12300,"Ġhorizon":12301,"tal":12302,"olph":12303,"Ġprogr":12304,"Ġformal":12305,"ĠASCII":12306,"Ġvoid":12307,"Ġbeds":12308,"ÃŃn":12309,"Ġconvent":12310,"ANN":12311,"Ġfri":12312,"Ġreste":12313,"riÃ¨re":12314,"ĠsekÃ¤":12315,"ĠBurg":12316,"achel":12317,"ĠCentral":12318,"aders":12319,"Ġdix":12320,"Ġexamine":12321,"Ġadorn":12322,"Ġmead":12323,"eron":12324,"Ġstair":12325,"Ġ53":12326,"seven":12327,"!)":12328,"ATTTTAA":12329,"Ġbras":12330,"TTCTGG":12331,"Ġgoodness":12332,"inch":12333,"outs":12334,"Ġnewspaper":12335,"Ġinduced":12336,"Ġexquisite":12337,"Ġsensation":12338,"Ġstudies":12339,"æ·":12340,"Ġhandle":12341,"Ġbud":12342,"ĠStephen":12343,"ĠRay":12344,"LAND":12345,"Ġmotive":12346,"Ġpink":12347,"Ġcolored":12348,"Ġwherever":12349,"Ã¤s":12350,"Ġ54":12351,"ĠCommittee":12352,"AAATAT":12353,"AAATAG":12354,"pleasure":12355,"lady":12356,"Ġincludes":12357,"ĠÏĦÏīÎ½":12358,"dal":12359,"Ġresearch":12360,"Ġimprison":12361,"Ġsob":12362,"Again":12363,"Ġwashed":12364,"Ġselect":12365,"nant":12366,"Ġvid":12367,"Ġrealize":12368,"----------":12369,"Ġbald":12370,"ishops":12371,"å¤«":12372,"ensation":12373,"itse":12374,"Ġpurchase":12375,"åĽĽ":12376,"cus":12377,"Ġtrav":12378,"Ġvaried":12379,"akened":12380,"Ġbrut":12381,"ĠJeff":12382,"Tom":12383,"ieren":12384,"Ġrac":12385,"alone":12386,"Ġdeme":12387,"Ġpic":12388,"Because":12389,"Ġsuure":12390,"ĠMoh":12391,"Ġdocument":12392,"Ġtyp":12393,"alleys":12394,"Ġindem":12395,"TATATC":12396,"Ġminut":12397,"Ġsue":12398,"Ġoutward":12399,"Ġquarrel":12400,"Ġwhereas":12401,"ulties":12402,"Ġknee":12403,"Ġplates":12404,"itional":12405,"åĴ":12406,"ACCAGC":12407,"inda":12408,"ĠPot":12409,"TTTA":12410,"TTCAAC":12411,"Ġawake":12412,"Ġclothing":12413,"ĠrÃ©g":12414,"ĠMaur":12415,"ĠÃĦ":12416,"ighed":12417,"Please":12418,"Ġjumped":12419,"TCCTGACCTC":12420,"Ġintimate":12421,"AGTCTG":12422,"itta":12423,"ĠMoses":12424,"ĠMenschen":12425,"Ġprincess":12426,"spr":12427,"Ġduke":12428,"ĠĠĠĠĠĠĠĠĠĠĠĠĠĠĠĠĠĠĠĠĠĠĠĠĠĠĠĠĠĠĠĠĠĠĠĠĠĠĠ":12429,"Ġhaut":12430,"Ãºn":12431,"First":12432,"Tu":12433,"Ã¡b":12434,"Ġendure":12435,"Ġowed":12436,"fallen":12437,"Ġwrought":12438,"ivi":12439,"TTATCC":12440,"ATTATC":12441,"picuous":12442,"ĠSher":12443,"TGATGG":12444,"Ġtrag":12445,"WN":12446,"ĠsiÃ¨":12447,"ĠNiin":12448,"Ġchi":12449,"TACTAAAAATAC":12450,"Ġadvantages":12451,"chts":12452,"Ġminden":12453,"Ġindifferent":12454,"Non":12455,"Ġrolling":12456,"manner":12457,"Ġfen":12458,"Ġsixteen":12459,"Ġbarr":12460,"Ġseu":12461,"Ġdamages":12462,"TTTCTTTC":12463,"Ġdoit":12464,"ĠÎ±ÏħÏĦ":12465,"uese":12466,"Ġcoin":12467,"Ġboots":12468,"Ġhatred":12469,"Ġscarce":12470,"Ġweapons":12471,"ĠLuther":12472,"Ġfishing":12473,"Ġcondemned":12474,"din":12475,"Ġvisitor":12476,"Ġpainting":12477,"ĠyhtÃ¤":12478,"ierra":12479,"Ġpreparation":12480,"Ġscore":12481,"ondern":12482,"Ġinstitutions":12483,"Ġborder":12484,"ibilities":12485,"agu":12486,"NOT":12487,"Ġsway":12488,"urrection":12489,"ĠÎĳ":12490,"Ġwidest":12491,"akka":12492,"Ġtrunk":12493,"Ġsympt":12494,"VER":12495,"Ġshaking":12496,"Ġlis":12497,"chance":12498,"ĠSU":12499,"Ġguerre":12500,"Ġabstr":12501,"gon":12502,"Ġphysician":12503,"rooms":12504,"atoes":12505,"probably":12506,"licher":12507,"zione":12508,"];":12509,"consequ":12510,"Ġoffices":12511,"ĠDIST":12512,"rete":12513,"wand":12514,"ĠStan":12515,"ĠStra":12516,"forced":12517,"kau":12518,"Ġfanci":12519,"Ġmixture":12520,"TGCAGC":12521,"Ġcomparatively":12522,"freely":12523,"TCCAGC":12524,"ONT":12525,"voice":12526,"Ġconquer":12527,"terms":12528,"Ġroman":12529,"Ġcris":12530,"Ġdiscipline":12531,"ĠPruss":12532,"inus":12533,"legen":12534,"Ġvulgar":12535,"ĠLiber":12536,"next":12537,"quote":12538,"hj":12539,"chel":12540,"ilian":12541,"ĠNed":12542,"Ġpronounced":12543,"knowledge":12544,"Ġthirst":12545,"Ġbeau":12546,"ĠTod":12547,"Ġpointing":12548,"ATAAATAA":12549,"Ġplains":12550,"ouched":12551,"otto":12552,"iones":12553,"Â§":12554,"Ġconserv":12555,"Ġvoim":12556,"ographical":12557,"Ġsuite":12558,"Ġsport":12559,"AAAAAAG":12560,"pron":12561,"Ġindependence":12562,"ĠED":12563,"ainte":12564,"Ġmano":12565,"Ġrefus":12566,"ictions":12567,"alogue":12568,"Ġogni":12569,"phant":12570,"Ġreflection":12571,"æŃ£":12572,"bad":12573,"icia":12574,"Ġmanage":12575,"Ġcloser":12576,"ĠNA":12577,"Ġoak":12578,"rained":12579,"Ġparted":12580,"ĠHind":12581,"chten":12582,"ĠKl":12583,"jourd":12584,"Ġhated":12585,"Ġbrass":12586,"wonder":12587,"oved":12588,"athan":12589,"asper":12590,"Ġrebell":12591,"CG":12592,"Ġrespects":12593,"entre":12594,"zzo":12595,"ielt":12596,"å±±":12597,"AGTAAC":12598,"Ber":12599,"Ġcards":12600,"cca":12601,"vast":12602,"ajo":12603,"Ġkil":12604,"ieron":12605,"apping":12606,"Ġfortunate":12607,"ĠJoh":12608,"TAL":12609,"ittÃ¤Ã¤":12610,"ĠUr":12611,"OOD":12612,"Ġfurnish":12613,"aub":12614,"Ġpoems":12615,"Ġteh":12616,"ĠWIL":12617,"Ġdoubtful":12618,"Ġlieutenant":12619,"Ġspecimens":12620,"Ġmonument":12621,"inned":12622,"family":12623,"Ġgazing":12624,"ikki":12625,"ĠCalifornia":12626,"ĠNegro":12627,"osis":12628,"Ġgiant":12629,"rais":12630,"Ġmould":12631,"Ġinstruction":12632,"ENTS":12633,"hmen":12634,"Ġperceive":12635,"GGGGC":12636,"Ġihren":12637,"Ġcriminal":12638,"ĠChicago":12639,"Ġpoets":12640,"Ġsze":12641,"ĠDam":12642,"ĠIsa":12643,"Ġbloss":12644,"Ġtranslation":12645,"ĠVar":12646,"Ġvoinut":12647,"gold":12648,"tts":12649,"Ġwearing":12650,"Ġsurvey":12651,"Ġgam":12652,"Ġuniverse":12653,"Ã©taient":12654,"ĠdÃ©t":12655,"Ġsatisfactory":12656,"TGGCTC":12657,"Ġsober":12658,"Ġselfish":12659,"Ġoly":12660,"ĠArist":12661,"deep":12662,"åħĴ":12663,"iero":12664,"keeping":12665,"ĠPed":12666,"began":12667,"inburgh":12668,"meth":12669,"Ġmoist":12670,"Ġentend":12671,"itating":12672,"Und":12673,"Ġlaying":12674,"office":12675,"Ġfolly":12676,"ACK":12677,"Ġcream":12678,"ĠMars":12679,"Ġprofits":12680,"è¥":12681,"~,":12682,"ĠLam":12683,"Î¿ÏħÏĤ":12684,"ĠÎ®":12685,"deal":12686,"Ġyer":12687,"Ġfourteen":12688,"usually":12689,"ATGTGG":12690,"Ġhastened":12691,"orton":12692,"Ġoccurs":12693,"TATAAC":12694,"Ġ57":12695,"Trans":12696,"æŀ":12697,"Ġinstruments":12698,"Ġleaning":12699,"TAGGCC":12700,"è£¡":12701,"Ġquer":12702,"Ġroses":12703,"Ġannual":12704,"Ġsai":12705,"IRECT":12706,"ĠVill":12707,"ĠPhilipp":12708,"Ġdonne":12709,"quiet":12710,"hung":12711,"ATAGCC":12712,"avor":12713,"became":12714,"Ġkeeps":12715,"oric":12716,"atching":12717,"Ġstaring":12718,"Ġseulement":12719,"Ġfeels":12720,"Ġattracted":12721,"Ġtheatre":12722,"Ġswung":12723,"Ġstreams":12724,"Inde":12725,"Ġdrank":12726,"uated":12727,"olent":12728,"ĠwÃ¤":12729,"ĠniitÃ¤":12730,"Ġhint":12731,"Ġkoskaan":12732,"France":12733,"wit":12734,"Ġadvert":12735,"ĠfÃ¶":12736,"Ġpreferred":12737,"Ġhttps":12738,"RIBUT":12739,"VEN":12740,"Ġmeine":12741,"Ġvida":12742,"means":12743,"iben":12744,"Ġshaft":12745,"ggi":12746,"arono":12747,"temper":12748,"Ġ300":12749,"Das":12750,"Somet":12751,"uously":12752,"AGAAAAG":12753,"speak":12754,"ĠGran":12755,"Ġtip":12756,"Ġihnen":12757,"Ġvia":12758,"Ġpreparing":12759,"ĠLight":12760,"Ġclimate":12761,"contr":12762,"Ġenfin":12763,"ĠweiÃŁ":12764,"alion":12765,"continued":12766,"fish":12767,"ĠUS":12768,"jou":12769,"Ġdining":12770,"AATGGG":12771,"Ġnotwithstanding":12772,"Ġinjury":12773,"uting":12774,"ĠHead":12775,"Ġsteamer":12776,"ATAAAAC":12777,"Ġbasket":12778,"reath":12779,"neen":12780,"é¡":12781,"herent":12782,"abord":12783,"Ġallen":12784,"Ġknot":12785,"TTGTAG":12786,"achuse":12787,"ulent":12788,"Ġpah":12789,"Ġresources":12790,"daughter":12791,"TATCCC":12792,"Ġcuando":12793,"ĠrÃ©pondit":12794,"ĠPG":12795,"ĠBull":12796,"ĠFull":12797,"Ġsymbol":12798,"Ġblessing":12799,"Ġtimber":12800,"Ġshells":12801,"Ġugly":12802,"AGTTAC":12803,"Ġconsidering":12804,"Ġbrethren":12805,"uman":12806,"onna":12807,"istoire":12808,"Ġinspired":12809,"Ġsyd":12810,"Ġchin":12811,"TCCTGG":12812,"remain":12813,"AGATTG":12814,"ATCAAG":12815,"âķĲâķĲ":12816,"Ġtid":12817,"ĠPierre":12818,"About":12819,"Ġdried":12820,"å¤ļ":12821,"ACCTGG":12822,"TTCATT":12823,"Ġprima":12824,"Ġplatform":12825,"AAAAAAC":12826,"ĠBurn":12827,"uja":12828,"Ġenterprise":12829,"Ġdepths":12830,"Ġgathering":12831,"Apr":12832,"iamo":12833,"Ġlively":12834,"ENSE":12835,"Ġdesires":12836,"Old":12837,"termin":12838,"Ġfollowers":12839,"éº":12840,"ĠÃ¾":12841,"ĠtÃ¤Ã¤llÃ¤":12842,"ĠAustria":12843,"Ġ58":12844,"Ġreflected":12845,"Lady":12846,"ĠFel":12847,"Ġdwelling":12848,"AGTAGC":12849,"TACATG":12850,"uters":12851,"outside":12852,"Ġmou":12853,"ĠisÃ¤":12854,"spread":12855,"followed":12856,"AGTCCC":12857,"TGGCTCAC":12858,"ĠOhio":12859,"riages":12860,"ĠBank":12861,"Ġindirect":12862,"behind":12863,"Ġbonn":12864,"Ġprey":12865,"Ġgrands":12866,"Ġwagon":12867,"neighb":12868,"Ġattained":12869,"Ġlocked":12870,"faith":12871,"TCCATG":12872,"Ġhunt":12873,"Ġpile":12874,"Ġshalt":12875,"Ġcompanies":12876,"Ġcolumns":12877,"assador":12878,"ACACAC":12879,"Ġhaz":12880,"ĠInt":12881,"Ġvener":12882,"ulg":12883,"ãĥ":12884,"ĠEve":12885,"Ġray":12886,"Ġreadable":12887,"Ġfount":12888,"istribution":12889,"Ġkein":12890,"Thank":12891,"Ġrele":12892,"Ġeffective":12893,"ĠlÃ¤he":12894,"cession":12895,"Lu":12896,"ĠBed":12897,"laug":12898,"towards":12899,"feel":12900,"Ġharsh":12901,"AATCCC":12902,"TGAGGG":12903,"ĠNEW":12904,"Ġdisgrace":12905,"fied":12906,"become":12907,"Ġweapon":12908,"æµ":12909,"actions":12910,"Ġtoen":12911,"adise":12912,"Plain":12913,"ylvania":12914,"Ġsouvent":12915,"Ġnarrative":12916,"Ġkonnte":12917,"determin":12918,"andal":12919,"amor":12920,"TO":12921,"Ġwritings":12922,"itle":12923,".âĢĿ[":12924,"Ġincred":12925,"ĠMuseum":12926,"move":12927,"Ġwars":12928,"ĠDec":12929,"ĠAlbert":12930,"Ġtwe":12931,"achusetts":12932,"Ġintend":12933,"ults":12934,"Ġprodig":12935,"GTGAGCC":12936,"Ġprolong":12937,"esten":12938,"Ġcannon":12939,"TGTCTG":12940,"charged":12941,"develop":12942,"äºĶ":12943,"AAGAGC":12944,"ĠNorthern":12945,"appearance":12946,"Ġdaring":12947,"AGGTAG":12948,"fi":12949,"IO":12950,"fs":12951,"Ã¡lt":12952,"taire":12953,"Lou":12954,"geben":12955,"Ġvin":12956,"Ġoffering":12957,"Ġbarn":12958,"Ġparler":12959,"ĠWilson":12960,"AGAAAC":12961,"Ãµes":12962,"TAAAAAA":12963,"ACCAAC":12964,"ĠKat":12965,"ĠJackson":12966,"TTGTTTT":12967,"bound":12968,"ATCAAC":12969,"terre":12970,"truth":12971,"Ġvalt":12972,"Ġimages":12973,"Ġjest":12974,"Ġautom":12975,"Ġappet":12976,"scape":12977,"Ġchaque":12978,"Ġcoward":12979,"Ġvanished":12980,"mith":12981,"Ġsap":12982,"htÃ¤":12983,"lam":12984,"ĠmÃŃ":12985,"åĲĮ":12986,"ration":12987,"streng":12988,"Ġgig":12989,"Ġsmart":12990,"Ġdetermination":12991,"elta":12992,"TCTGGG":12993,"Ġdeer":12994,"Ġwax":12995,"ĠJewish":12996,"ĠOffice":12997,"around":12998,"Ġincap":12999,"borough":13000,"Ġwages":13001,"compar":13002,"Che":13003,"shaped":13004,"Ġsiege":13005,"Ġangels":13006,"Ã¼ll":13007,"recogn":13008,"Ġconfer":13009,"Ġwithdraw":13010,"aude":13011,"blockquote":13012,"acia":13013,"Ġapartment":13014,"Ġknocked":13015,"Ġgarrison":13016,"Ġexecuted":13017,"Est":13018,"ĠNach":13019,"ĠBuck":13020,"Ġbot":13021,"glass":13022,"Ġowe":13023,"Their":13024,"ipping":13025,"Ġretained":13026,"Ġlock":13027,"Ġpak":13028,"Ġcells":13029,"Ġcanoe":13030,"ĠWy":13031,"hty":13032,"ĠSid":13033,"ĠXIII":13034,"aines":13035,"TGGGCAAC":13036,"GATTC":13037,"Ġfeeble":13038,"Only":13039,"Ġarist":13040,"Ġassault":13041,"inguished":13042,"ĠWin":13043,"rise":13044,"Ġtien":13045,"ushes":13046,"ĠIM":13047,"Ġ59":13048,"Ġplusieurs":13049,"ĠSC":13050,"rated":13051,"Ġfifth":13052,"180":13053,"chair":13054,"Ġmilieu":13055,"welt":13056,"Ã¡ll":13057,"Ġolem":13058,"åķı":13059,"Ġswear":13060,"Ġcrept":13061,"utte":13062,"eyed":13063,"dog":13064,"Ġcoarse":13065,"Ġaccus":13066,"ĠlÃ©g":13067,"ĠÎļ":13068,"AGAAAAC":13069,"Ġdiameter":13070,"ĠNem":13071,"Ġdistinguish":13072,"plan":13073,"ĠAlexand":13074,"verb":13075,"Ġdefin":13076,"zar":13077,"hm":13078,"Acc":13079,"éĿ¢":13080,"indre":13081,"edge":13082,"quick":13083,"Cal":13084,"AAGCCC":13085,"Ġjossa":13086,"wild":13087,"ĠGregory":13088,"grÃ©":13089,"Ġkah":13090,"ĠMoreover":13091,"ĠIk":13092,"Âº":13093,"Ġnour":13094,"Ġresponsibility":13095,"TATGGC":13096,"aita":13097,"Ġmia":13098,"Ġkid":13099,"Ġkysyi":13100,"wering":13101,"ĠTal":13102,"Ġprocession":13103,"ĠTerms":13104,"Ġanchor":13105,"east":13106,"Ġweg":13107,"Ġconqu":13108,"Ġappl":13109,"Ġdirty":13110,"Ġlect":13111,"ĠFULL":13112,"ACCTAA":13113,"Ġundoubtedly":13114,"ĠGro":13115,"Ġprivilege":13116,"Kun":13117,"Ġbeheld":13118,"Paris":13119,"Ġexperiments":13120,"tail":13121,"Ġministers":13122,"Ġbeating":13123,"ĠField":13124,"Ġstatue":13125,"Ġpall":13126,"ÑĤ":13127,"Mil":13128,"kir":13129,"Ġpys":13130,"Ġmos":13131,"Ġdarling":13132,"iate":13133,"Ġangle":13134,"quate":13135,"Ġprecisely":13136,"GTAC":13137,"faction":13138,"Ġplanted":13139,"More":13140,"Ã©ge":13141,"resents":13142,"çķ¶":13143,"Ġfunction":13144,"Ġmul":13145,"Ġendeavour":13146,"ĠDAMAGES":13147,"erie":13148,"Ġtub":13149,"Ġruined":13150,"Ġgut":13151,"Ġstroke":13152,"tic":13153,"Ġelectronically":13154,"ÏģÎ¯":13155,"Ġbee":13156,"ieri":13157,"Ġliquid":13158,"OUND":13159,"Ġ63":13160,"Ġzelf":13161,"Ġraison":13162,"else":13163,"Ðµ":13164,"ACTTTGGGAGGCC":13165,"Ġharmony":13166,"corn":13167,"aneet":13168,"ĠKir":13169,"ollo":13170,"udes":13171,"ISC":13172,"ĠUm":13173,"George":13174,"Ġfoi":13175,"Ġeconomic":13176,"AATAGC":13177,"least":13178,"Ġtir":13179,"Ġadmire":13180,"carried":13181,"command":13182,"Ġaged":13183,"OUS":13184,"TTAGAG":13185,"stell":13186,"Ġroar":13187,"Ġrepent":13188,"Ġbout":13189,"Ġabol":13190,"Ġhook":13191,"AATACC":13192,"Ġinternal":13193,"+,":13194,"æĩ":13195,"church":13196,"collection":13197,"Ġveil":13198,"entire":13199,"Ġmissed":13200,"Ġnerves":13201,"ATAGGG":13202,"ACCTTC":13203,"ASS":13204,"Ġmodified":13205,"Ġinstitution":13206,"Ġfiring":13207,"Ġpip":13208,"ĠQui":13209,"AGTTGG":13210,"éĤĦ":13211,"Ġbrick":13212,"ĠNich":13213,"ribly":13214,"TTACAC":13215,"Ġeigen":13216,"ĠYe":13217,"ĠSem":13218,"Å¡":13219,"Tell":13220,"quÃ©":13221,"Ġarrested":13222,"dead":13223,"ĠkÃ¶nnen":13224,"Ġhostile":13225,"abil":13226,"ATGGGC":13227,"conce":13228,"LD":13229,"Ġpurs":13230,"Great":13231,"remark":13232,"Ġcolonies":13233,"icial":13234,"Ġearnestly":13235,"Ġgleich":13236,"ACTTCC":13237,"Ġsurrender":13238,"ibt":13239,"Ġload":13240,"convers":13241,"Ġreception":13242,"Ġyli":13243,"Ġimpressed":13244,"Ã¤hrend":13245,"Ġsorte":13246,"Ġparole":13247,"Ġdivisions":13248,"Ġgraceful":13249,"Ġsurrounding":13250,"stock":13251,"Ġtus":13252,"ilation":13253,"ĠFrederick":13254,"keÃ¤":13255,"Ġvak":13256,"later":13257,"Ġrises":13258,"Î¹Î±":13259,"apted":13260,"Ġwake":13261,"UND":13262,"Ġade":13263,"Ġpiano":13264,"erer":13265,"uation":13266,"ĠFle":13267,"Î·Î½":13268,"_.\"":13269,"Ġdamp":13270,"Ġeinmal":13271,"auer":13272,"Ġinser":13273,"Men":13274,"Ġnell":13275,"Ġglow":13276,"Ġcopied":13277,"Ġacres":13278,"Ġobedience":13279,"Ġolet":13280,"ĠPoor":13281,"ĠMod":13282,"Ġnamely":13283,"ĠEastern":13284,"ĠBetty":13285,"landers":13286,"ĠKind":13287,"Ġcriticism":13288,"ĠAls":13289,"ä½¿":13290,"sex":13291,"riers":13292,"TTCAAGC":13293,"ĠPhiladelphia":13294,"Ġproceedings":13295,"ĠRoyalty":13296,"educ":13297,"Ġsep":13298,"auks":13299,"kward":13300,"sein":13301,"Ġromance":13302,"priv":13303,"Ġkw":13304,"enta":13305,"Ġliberal":13306,"ajor":13307,"Ġswiftly":13308,"cken":13309,"AGGTGTG":13310,"Madame":13311,"fal":13312,"Ġkeine":13313,"ĠmikÃ¤":13314,"Ġsummit":13315,"Ġsubsequent":13316,"ç¸":13317,"ĠSpr":13318,"Ġtravelling":13319,"century":13320,"Ġlightning":13321,"RAP":13322,"ĠHij":13323,"rob":13324,"Ġvirtues":13325,"Ġvisitors":13326,"PRO":13327,"ĠThor":13328,"Ġvital":13329,"Ġsecretary":13330,"ĠMu":13331,"ĠSalt":13332,"anno":13333,"agreeable":13334,"gre":13335,"party":13336,"ĠAssoci":13337,"Ġdesigned":13338,"èĬ":13339,"unta":13340,"rines":13341,"street":13342,"akers":13343,"Ġperfor":13344,"plain":13345,"Ġarrangements":13346,"Ġdistricts":13347,"ĠSix":13348,"CAGC":13349,"ĠEnd":13350,"Ġmanuscript":13351,"Ġtrained":13352,"Ġderni":13353,"Ġshores":13354,"iolet":13355,"Ġconceived":13356,"Ġties":13357,"AGATCC":13358,"TCCTTG":13359,"ssen":13360,"Ġstirred":13361,"jat":13362,"civil":13363,"Ġsolitary":13364,"Ġgloomy":13365,"TCAAAC":13366,"Ġbir":13367,"Ġpeasant":13368,"Ġfavorite":13369,"èĲ":13370,"ĠFox":13371,"TCAGGG":13372,"unken":13373,"ĠkÃ¤Ã¤":13374,"Ġvengeance":13375,"TAATAC":13376,"Ġcual":13377,"aylor":13378,"Î¿Î»":13379,"Ġpolite":13380,"Ġ66":13381,"squ":13382,"Ġib":13383,"ĠLang":13384,"rt":13385,"oding":13386,"Ġadjust":13387,"Ġreview":13388,"Ġafforded":13389,"lung":13390,"iente":13391,"Ġdeadly":13392,"ĠLucy":13393,"places":13394,"ridge":13395,"ĠLow":13396,"Ġinvari":13397,"éĥ½":13398,"Ġconstructed":13399,"zony":13400,"fight":13401,"ĠDur":13402,"ĠjÃ¤r":13403,"Ġnerve":13404,"Ġfaisait":13405,"Ð¾":13406,"åħĪ":13407,"Ġrevenge":13408,"inning":13409,"ĠÎµÏĢ":13410,"Ġbrush":13411,"Ġpromptly":13412,"osity":13413,"fold":13414,"ingt":13415,"Ġjout":13416,"Ġenvoy":13417,"ardin":13418,"ĠRen":13419,"Ġhuone":13420,"ĠWARRANTY":13421,"ĠFrances":13422,"books":13423,"Ã©on":13424,"Ġeighty":13425,"Ġprosperity":13426,"TGAGTG":13427,"Ġtrap":13428,"tÃ©":13429,"Ġtoi":13430,"Ġconfused":13431,"imson":13432,"ĠSimon":13433,"ĠClub":13434,"èĥ½":13435,"Ġfeathers":13436,"æľĪ":13437,"san":13438,"Ġsever":13439,"Ã¨ve":13440,"Ġroug":13441,"service":13442,"Ġclimbed":13443,"icable":13444,"Ġ62":13445,"ÏĮÏĤ":13446,"ĠĠĠĠĠĠĠĠĠĠĠĠĠĠĠĠĠĠĠĠĠĠĠĠĠĠĠĠĠĠĠĠĠĠĠĠĠĠ":13447,"para":13448,"TCTCTCTC":13449,"Ġamusement":13450,"Ġjack":13451,"Ġsaanut":13452,"Ġaccused":13453,"TCCTGAG":13454,"Ġtres":13455,"Ġaccum":13456,"Ġken":13457,"plied":13458,"kkiÃ¤":13459,"TTCAGC":13460,"ĠDonations":13461,"ĠSupp":13462,"TGTTGG":13463,"vant":13464,"Ġdus":13465,"ï¼ļâĢľ":13466,"active":13467,"usc":13468,"æĸ¹":13469,"Ġrighteous":13470,"ACATGG":13471,"ĠcÅĵur":13472,"Ġgrandes":13473,"Mary":13474,"åľ°":13475,"Ġslee":13476,"ĠPict":13477,"GAAAA":13478,"ĠPoint":13479,"ĠDISTRIBUT":13480,"ĠDet":13481,"ureau":13482,"Ġupright":13483,"Ġfont":13484,"acre":13485,"ettes":13486,"Ġsink":13487,"ĠWales":13488,"GCGG":13489,"Ġzo":13490,"Ġkesk":13491,"AGTATC":13492,"Ġdaylight":13493,"raham":13494,"ÃĪ":13495,"ĠCarl":13496,"pson":13497,"OUN":13498,"Ġinvitation":13499,"ĠBREACH":13500,"Ġtyran":13501,"stat":13502,"Ġvois":13503,"schaft":13504,"Vous":13505,"permission":13506,"information":13507,"Ġredu":13508,"Ã©qu":13509,"ĠLIC":13510,"Ġbiz":13511,"uits":13512,"oto":13513,"à°Ĥ":13514,"GTTTT":13515,"feeling":13516,"Ġpadre":13517,"Ġmois":13518,"ĠepÃ¤":13519,"Ġdisgu":13520,"ĠÃ¡ll":13521,"Ġforests":13522,"wealth":13523,"berry":13524,"Ġcharity":13525,"Ġbul":13526,"TCACAC":13527,"ICH":13528,"omaan":13529,"Ġoverwhel":13530,"ouvern":13531,"ĠWithout":13532,"Ġfoe":13533,"Ġoven":13534,"ĠSocial":13535,"imming":13536,"Ġchiefs":13537,"istributing":13538,"Ġholes":13539,"omon":13540,"TTCTAC":13541,"èº«":13542,"Ġdisclaimer":13543,"Ġabundant":13544,"ISS":13545,"ouden":13546,"Ġlaps":13547,"ĠÎµÎº":13548,"Ġnaval":13549,"Ġcolon":13550,"Ġphenomena":13551,"Ġunl":13552,"Ġthither":13553,"placed":13554,"Ġoccasional":13555,"Ġcomprehend":13556,"ppers":13557,"Ġcub":13558,"Ġpeop":13559,"Ġore":13560,"Ãªtes":13561,"sis":13562,"ĠHome":13563,"Ġrecognize":13564,"Ġmachinery":13565,"Ġdyn":13566,"TGGAGC":13567,"requently":13568,"jer":13569,"Ġmio":13570,"bank":13571,"Ġnegot":13572,"TACCCC":13573,"Ġcitt":13574,"uttaa":13575,"ĠnÃ¨":13576,"cester":13577,"influence":13578,"Ġvez":13579,"Ġlosing":13580,"Ġuses":13581,"Ã©re":13582,"Ġadding":13583,"ĠArn":13584,"unal":13585,"Ġgrandfather":13586,"ĠÎ±Î½":13587,"ĠVery":13588,"Ġretain":13589,"TCAGAG":13590,"Ġporter":13591,"ĠProtestant":13592,"opf":13593,"Ġcraw":13594,"ĠRalph":13595,"uple":13596,"Ġfuneral":13597,"kal":13598,"Ġheir":13599,"'.":13600,"faced":13601,"ĠAlb":13602,"Ġmant":13603,"Ġamm":13604,"Ġmischief":13605,"ĠAtlantic":13606,"Ġvigorous":13607,"mad":13608,"Ġslope":13609,"Ġmuist":13610,"Chap":13611,"ARK":13612,"Ġwherein":13613,"âĢĶâĢĶâĢĶâĢĶ":13614,"ultural":13615,"bts":13616,"really":13617,"Ġrecommend":13618,"Ġ68":13619,"TGTATC":13620,"Ġkis":13621,"idade":13622,"Ġpreparations":13623,"Ġkleine":13624,"Ġmingled":13625,"Ã¤is":13626,"Ġtrouver":13627,"aparte":13628,"Ġmutual":13629,"ACCAAG":13630,"GATT":13631,"Having":13632,"ĠCL":13633,"cro":13634,"expression":13635,"Ġmajesty":13636,"Ġ61":13637,"ATCTAC":13638,"Ġ67":13639,"Ġpublication":13640,"Ġproposition":13641,"Ġengagement":13642,"Ġtempor":13643,"Ġmamma":13644,"Ã¤llÃ¤":13645,".'\"":13646,"Ġsunk":13647,"sor":13648,"Ġbehalf":13649,"AGTTGC":13650,"LEY":13651,"æĽ¸":13652,"Ġneglected":13653,"SH":13654,"Ġreserve":13655,"Ġplane":13656,"Ġhoe":13657,"ĠEh":13658,"ikÃ¶":13659,"Ġrespectable":13660,"âĢ°,":13661,"Î·ÏĤ":13662,"Ġtube":13663,"Ġgorge":13664,"ĠBeing":13665,"ĠAGREE":13666,"Ġvolunt":13667,"Ġcomrades":13668,"phew":13669,"Ġ72":13670,"Ġachieve":13671,"Ġba":13672,"Ġboiling":13673,"CTION":13674,".âĢľ":13675,"Ġsummoned":13676,"Ġbund":13677,"TTCTTTC":13678,"learn":13679,"Ġpurely":13680,"urate":13681,"Many":13682,"Ġproducts":13683,"imi":13684,"TGACAC":13685,"TCTGAA":13686,"won":13687,"è¾":13688,"Ġroyalties":13689,"Ġupward":13690,"Ġcombination":13691,"ç¨":13692,"ÎŃÏģ":13693,"emme":13694,"Ġscrap":13695,"minded":13696,"Ġportions":13697,"Ġcandle":13698,"Ġtehd":13699,"Ġsubstant":13700,"vain":13701,"TTACCC":13702,"Ġshrie":13703,"Ġliik":13704,"armes":13705,"Indeed":13706,"Ġproceeding":13707,"Ġindignation":13708,"ãģ®":13709,"ĠLICENSE":13710,"èģ½":13711,"Ġflames":13712,"imer":13713,"Ġcolors":13714,"Ġsources":13715,"arre":13716,"onto":13717,"TTCT":13718,"hope":13719,"olk":13720,"Ġholid":13721,"Ġstores":13722,"Ġmanufacture":13723,"odge":13724,"Ġscru":13725,"Ġsatisfy":13726,"è§":13727,"Ġagony":13728,"Ãªmes":13729,"Ġsailor":13730,"ĠtÃ¤ssÃ¤":13731,"Ġviewed":13732,"etter":13733,"Ġconsist":13734,"Ġincons":13735,"Ġfragments":13736,"racted":13737,"Ġneut":13738,"Ġsaints":13739,"ĠSchw":13740,"Ġprecipit":13741,"Ġstupid":13742,"Ġprofessor":13743,"Ġvend":13744,"lag":13745,"Ġlowest":13746,";âĢĿ":13747,"Ġwounds":13748,"Ġsets":13749,"Ġdisappointed":13750,"Ġhasta":13751,"fair":13752,"æĵ":13753,"Ġdegli":13754,"writing":13755,"Ġpersuaded":13756,"Ġabsol":13757,"Ġconsisting":13758,"ĠRoss":13759,"Ġflashed":13760,"Ġmaybe":13761,"throw":13762,"End":13763,"Father":13764,"Ġblaz":13765,"Ġassigned":13766,".\"--_":13767,"Ġentreat":13768,"ĠPop":13769,"AATCTG":13770,"ĠLeben":13771,"TTGAACCC":13772,"TTTCCCC":13773,"Ġheti":13774,"Ġfurent":13775,"Ġpayment":13776,"Ġalkoi":13777,"Ġfairy":13778,"TGCATG":13779,"Ġmatin":13780,"Ġrecognised":13781,"ĠTar":13782,"sylvania":13783,"TGCTGG":13784,"ĠHamilton":13785,"Ġpropose":13786,"folk":13787,"Ġromantic":13788,"ACCTCCC":13789,"Ġrisen":13790,"idas":13791,"Ġtraces":13792,"ĠÎºÎ±":13793,"ATCTGG":13794,"Ġtoch":13795,"Ġample":13796,"Ġheap":13797,"otel":13798,"Ġwheat":13799,"Ġmans":13800,"Ġrabb":13801,"eksi":13802,"angs":13803,"isms":13804,"Ġdiscussed":13805,"AAAAATG":13806,"Ġmarvell":13807,"sich":13808,"Ġgown":13809,"ĠAnth":13810,"ĠGray":13811,"Ġember":13812,"Ġdense":13813,"cad":13814,"Ġadvoc":13815,"Ġspecul":13816,"Ġextend":13817,"ACATTC":13818,"ĠSanta":13819,"Ġrod":13820,"leans":13821,"ongs":13822,"Ġusted":13823,"Ġdrops":13824,"prove":13825,"Ġvita":13826,"antine":13827,"ĠHÃ¤nen":13828,"secret":13829,"alty":13830,"Ġinfantry":13831,"OLD":13832,"eltÃ¤":13833,"list":13834,"ACTTTG":13835,"ieuse":13836,"TCAGGC":13837,"icking":13838,"kken":13839,"ACAGCC":13840,"ĠBall":13841,"Ġoun":13842,"orical":13843,"Literary":13844,"Ġresign":13845,"kept":13846,"PLE":13847,"ĠAfrican":13848,"ethe":13849,"ĠÃ©cl":13850,"ÄĿ":13851,"ĠWelt":13852,"Ġverses":13853,"Ġbaron":13854,"Ġgeh":13855,"iii":13856,"ieth":13857,"icism":13858,"Ġwidely":13859,"Ġnas":13860,"Ġsilently":13861,"TGTCAC":13862,"Ġ85":13863,"AVE":13864,"ports":13865,"________________":13866,"TCCTAA":13867,"mot":13868,"Ġformats":13869,"ĠJerry":13870,"meg":13871,"Ġavez":13872,"TATTGG":13873,"Bes":13874,"Ġgros":13875,"ĠVic":13876,"Ġzijne":13877,"æħ":13878,"Ġsoup":13879,"TTATGC":13880,"ĠFrancisco":13881,"forming":13882,"Ġwandering":13883,"Ġpasser":13884,"Ġsurround":13885,"ders":13886,"[=":13887,"ATTGGC":13888,"Ġhumour":13889,"Ġerst":13890,"âĢ²":13891,"says":13892,"Ġlecture":13893,"Ġsquad":13894,"Poor":13895,"edes":13896,"Ġlif":13897,"Ġnuest":13898,"ĠFriend":13899,"ĠOp":13900,"Ġstuck":13901,"Ġtremendous":13902,"Among":13903,"Spe":13904,"aciones":13905,"Ġlessons":13906,"ruck":13907,"Ġlav":13908,"Ġimproved":13909,"Ġcultivated":13910,"olta":13911,"ĠHung":13912,"onic":13913,"Ġinduce":13914,"lesiastical":13915,"ademy":13916,"Ġ69":13917,"ĠEgyptian":13918,"uksi":13919,"Ġstrengthen":13920,"ĠOt":13921,"ĠyhÃ¤":13922,"Ġjoke":13923,"åĲį":13924,"Ġlegend":13925,"Ġlaus":13926,"property":13927,"liv":13928,"Ġlaquelle":13929,"çŃī":13930,"Ġmaail":13931,"Ġeducated":13932,"Ġemphas":13933,"istes":13934,"itos":13935,"æĮ":13936,"Ġridge":13937,"Ġremainder":13938,"éĮ":13939,"ICK":13940,"Ġcunning":13941,"ĠDivine":13942,"Au":13943,"Ġbor":13944,"Ġhealthy":13945,"company":13946,"Ġpicturesque":13947,"fut":13948,"ĠSac":13949,"alis":13950,"Ġmix":13951,"Ġwarriors":13952,"mighty":13953,"ĠHans":13954,"Ġdressing":13955,"Ġ110":13956,"Ġsimplicity":13957,"Ġtons":13958,"itia":13959,"uity":13960,"Charles":13961,"lain":13962,"semble":13963,"ĠConfeder":13964,"gra":13965,"Ġblows":13966,"chap":13967,"Ġbushes":13968,"Ġconsiderably":13969,"inas":13970,"cile":13971,"Ġmoderate":13972,"Ġdisgust":13973,"Ġenjoyment":13974,"Ġ:":13975,"shot":13976,"Ġconfession":13977,"call":13978,"ĠFire":13979,"TATTTTTAG":13980,"ĠRelig":13981,"condition":13982,"providing":13983,"Ġdonn":13984,"Thou":13985,"Ġymm":13986,"ĠreÃ§":13987,"ĠHE":13988,"ACCATC":13989,"ĠHerz":13990,"Ġoogen":13991,"proceed":13992,"'_":13993,"Ġashore":13994,"incl":13995,"ACAAAC":13996,"ĠFlor":13997,"Ġforte":13998,"Ġdefeated":13999,"Ġmun":14000,"blick":14001,"need":14002,"onymous":14003,"Ġperple":14004,"TCAGGAG":14005,"pens":14006,"Ġdestined":14007,"Ġgesture":14008,"Ġanderen":14009,"Ġdramatic":14010,"Ġriches":14011,"Ġwil":14012,"ĠmeidÃ¤n":14013,"ĠStand":14014,"Ġkirjo":14015,"Jun":14016,"ĠThom":14017,"Professor":14018,"ĠMAN":14019,"TGTTAA":14020,"Ġnit":14021,"ATTTTTG":14022,"AACATC":14023,"ACTAT":14024,"magn":14025,"ĠHu":14026,"Ġmyth":14027,"Ġowners":14028,"Ġoccupy":14029,"TGATGC":14030,"usively":14031,"TE":14032,"Up":14033,"Ġcitizen":14034,"Ġcli":14035,"reve":14036,"Ġlocations":14037,"LIAB":14038,"LIAM":14039,"atri":14040,"ombard":14041,"sn":14042,"orship":14043,"Ġsilly":14044,"existence":14045,"jaa":14046,"anter":14047,"Ġkatso":14048,"Ġdescent":14049,"Mer":14050,"ĠHER":14051,"ulsion":14052,"fac":14053,"TGCTCC":14054,"Ġimprovement":14055,"comme":14056,"Ġsailors":14057,"æĬĬ":14058,"Ġcanal":14059,"ĠHas":14060,"isd":14061,"TCATTG":14062,"Ġov":14063,"Ġzwei":14064,"allo":14065,"Ġemail":14066,"Right":14067,"Ġdic":14068,"Ġadvers":14069,"ĠAssembly":14070,"Ġentra":14071,"Ġincome":14072,"umps":14073,"Ġdoorway":14074,"hos":14075,"ullen":14076,"Ġsubmit":14077,"Ġunity":14078,"Ġshooting":14079,"åīĩ":14080,"essen":14081,"Ġbust":14082,"Ġjudges":14083,"ĠClark":14084,"izz":14085,"Eh":14086,"Ġbast":14087,"danger":14088,"blo":14089,"Ġseeds":14090,"Ã¤in":14091,"ĠTri":14092,"ĠFROM":14093,"Ġwheels":14094,"immediately":14095,"Ġvieux":14096,"Ġpassengers":14097,"Ġassembly":14098,"introdu":14099,"Ġspectacle":14100,"Ã¼nd":14101,"Ġcloak":14102,"clot":14103,"asury":14104,"distance":14105,"Ġ130":14106,"Ġink":14107,"Ġfosse":14108,"Ġstrictly":14109,"Ġdorm":14110,"Ġinevitable":14111,"Ġkysy":14112,"Ġmiten":14113,"ĠUp":14114,"ĠprÃ©c":14115,"built":14116,"Ġtreacher":14117,"GCGC":14118,"rar":14119,"pain":14120,"mie":14121,"Ġ71":14122,"Sam":14123,"Ġfoss":14124,"Ġsondern":14125,"ĠEsp":14126,"Ġvive":14127,"Ġzeg":14128,"Ġchanging":14129,"sens":14130,"comfortable":14131,"Greek":14132,"Ġvrai":14133,"ĠCarolina":14134,"posted":14135,"Ġcounted":14136,"kar":14137,"èĭ¥":14138,"Ġteachers":14139,"Ġquod":14140,"Foundation":14141,"atten":14142,"bara":14143,"Ġ74":14144,"éĢ²":14145,"Ġmerk":14146,"Ġchambre":14147,"ommod":14148,"ATAAAAG":14149,"ivities":14150,"Ġbush":14151,"Ġpauvre":14152,"ĠÃ¥":14153,"Ġesto":14154,"Co":14155,"Ġadvised":14156,"Ġmotives":14157,"ĠKnight":14158,"Ġhev":14159,"Ġeffet":14160,"Ġquit":14161,"Ġhart":14162,"famil":14163,"entes":14164,"uvre":14165,"Ġgri":14166,"TAGAAAA":14167,"woord":14168,"amped":14169,"Ġ76":14170,"coun":14171,"Ġdiesem":14172,"å©":14173,"oming":14174,"ĠTa":14175,"TGTCCC":14176,"ATTTCTC":14177,"Ġpositions":14178,"iac":14179,"atum":14180,"German":14181,"ĠHebrew":14182,"Ġimplied":14183,"TCTGGC":14184,"ecutive":14185,"path":14186,"Ġhandkerchief":14187,"bien":14188,"Ġmainly":14189,"GAGAC":14190,"TAGTAA":14191,"usse":14192,"Ġdroit":14193,"å¥³":14194,"vÃ¤sti":14195,"Ġtemporary":14196,"Ġintercourse":14197,"Ġcalmly":14198,"ĠCÃ¦":14199,"Ã¨v":14200,"Ġshud":14201,"Ã¡nak":14202,"West":14203,"Ġirres":14204,"Ġwarned":14205,"Ġdesirable":14206,"Ġreplaced":14207,"ifs":14208,"Ġloaded":14209,"Ġeasier":14210,"ĠShall":14211,"Ġeffected":14212,"Ġbewild":14213,"Ġsuperst":14214,"Ġeb":14215,"éħ":14216,"åŁ":14217,"Ġappointment":14218,"entially":14219,"ĠmyÃ¶":14220,"é«":14221,"Ġillness":14222,"Ġfarewell":14223,"itations":14224,"version":14225,"Ġpitch":14226,"Ġtab":14227,"nex":14228,"Ġ73":14229,"ĠCf":14230,"ugar":14231,"boys":14232,"Ġsulph":14233,"Ġventured":14234,"desc":14235,"sam":14236,"ilda":14237,"Ġaccomplish":14238,"agner":14239,"ĠGoth":14240,"AACAGC":14241,"Ġjat":14242,"TGGGAGG":14243,"ikko":14244,"Any":14245,"Ġdonna":14246,"Ġkin":14247,"Ġ77":14248,"Ġvolna":14249,"Ġexagger":14250,"ĠDepartment":14251,"ials":14252,"App":14253,"inate":14254,"ĠMeth":14255,"eux":14256,"Ġleaped":14257,"LL":14258,"purpose":14259,"Ke":14260,"attempt":14261,"ÏĪ":14262,"Ġdangers":14263,"Ġdrama":14264,"ĠDans":14265,"bourg":14266,"Ġchildhood":14267,"portions":14268,"Ã¡ly":14269,"BY":14270,"ATAATAA":14271,"ĠXVI":14272,"Ġpeaceful":14273,"Ġciv":14274,"Ġlaat":14275,"odore":14276,"mediate":14277,"Ġmell":14278,"ceptible":14279,"vir":14280,"neg":14281,"ĠWild":14282,"Ġincor":14283,"hoz":14284,"Ã°n":14285,"Ġft":14286,"Ġquasi":14287,"ACAGGG":14288,"Ġtapaht":14289,"ouri":14290,"CATG":14291,"Ġeffic":14292,"Ġvisits":14293,"Ġconspir":14294,"Ġhir":14295,"ATCAGC":14296,"Ã¼hl":14297,"ATTA":14298,"Ġ78":14299,"Ġinvention":14300,"Ġgoed":14301,"ĠMonte":14302,"Ġreci":14303,"ĠkÃ¶z":14304,"AGGTAC":14305,"Ġacknowledged":14306,"ĠKen":14307,"prep":14308,"Ã¢teau":14309,"ĠPlace":14310,"unis":14311,"ACCTAC":14312,"TGGTAA":14313,"ppo":14314,"Ġremedy":14315,"Ġsalvation":14316,"TTAGGG":14317,"æľª":14318,"help":14319,"ĠÃ©v":14320,"Ġhunger":14321,"Ġjoh":14322,"Ã¤mÃ¤Ã¤n":14323,"Ã¤rt":14324,"Ġweer":14325,"Ġtragedy":14326,"ĠÎºÎ±ÏĦ":14327,"Ġdispute":14328,"å¨":14329,"ĠAS":14330,"ĠEnglishman":14331,"Ġvigor":14332,"oler":14333,"ĠVanilla":14334,"TCCAAG":14335,"ĠjÃ¤lkeen":14336,"Ġrings":14337,"ĠGR":14338,"umen":14339,"Ġdug":14340,"Ġtiem":14341,"Ġexhibited":14342,"Ġtact":14343,"Ġcomputers":14344,"Ġheels":14345,"pool":14346,"Ġtas":14347,"Ġaltri":14348,"chÃ©":14349,"Ġlip":14350,"Ġfence":14351,"Ġhumor":14352,"Ġgoin":14353,"wort":14354,"âĢĶâĢľ":14355,"Ġeducational":14356,"Ġclosing":14357,"æĸĩ":14358,"Ġreluct":14359,"effort":14360,"ĠDown":14361,"mounted":14362,"Ġpeas":14363,"åĪĨ":14364,"Ġestas":14365,"Ġputs":14366,"âĢĶ_":14367,"ĠpÃ©n":14368,"TGTAAG":14369,"Ġcomte":14370,"tym":14371,"Ġattractive":14372,"Ġrecht":14373,"Î¼ÎŃÎ½":14374,"Bel":14375,"Ġcourtes":14376,"ĠRO":14377,"Ġplacing":14378,"ĠPut":14379,"ACAGTG":14380,"Ġashes":14381,"Ġwont":14382,"evening":14383,"Ġoppon":14384,"cke":14385,"Ġrespecting":14386,"rÃ©s":14387,"ĠÃ§":14388,"Ġclimb":14389,"ĠStu":14390,"ĠmaÃ®tre":14391,"Ġabide":14392,"TCATCC":14393,"Ġcrest":14394,"Ġgracious":14395,"ĠCre":14396,"advantage":14397,"sians":14398,"TCTTGG":14399,"ATCT":14400,"propri":14401,"story":14402,"ERN":14403,"Ġfatto":14404,"Ġrenewed":14405,"Ġpik":14406,"Ġdisappointment":14407,"Paul":14408,"asty":14409,"Ġdiet":14410,"Ġunse":14411,"circumstances":14412,"ĠDirector":14413,"Ġextravag":14414,"shal":14415,"Ġtule":14416,"Ġmeille":14417,"ĠGew":14418,"ĠtyÃ¶":14419,"Page":14420,"afterwards":14421,"Ġdecre":14422,"ĠME":14423,"Ġpreacher":14424,"Ġchances":14425,"Ġavons":14426,"enz":14427,"bery":14428,"Ġcock":14429,"Ġamused":14430,"TTGCAGTGAGCC":14431,"ĠympÃ¤":14432,"sort":14433,"idÃ¤t":14434,"Ġspecimen":14435,"ĠNorman":14436,"ĠKings":14437,"pereur":14438,"Ġprose":14439,"Ġfisher":14440,"Ġunw":14441,"å¤ĸ":14442,"Ġseize":14443,"Ġtrump":14444,"Ġsque":14445,"TGTTGC":14446,"Ġinjured":14447,"ĠLis":14448,"tak":14449,"husband":14450,"enery":14451,"poonful":14452,"Ġwool":14453,"accept":14454,"ispens":14455,"ĠLat":14456,"Ġdisappear":14457,"Ġconnect":14458,"guer":14459,"Ġbez":14460,"ranean":14461,"uled":14462,"Ġheed":14463,"ĠBecause":14464,"Ġopera":14465,"Niin":14466,"Ġsadly":14467,"Ġcrimes":14468,"Ġsketch":14469,"ĠValley":14470,"Reg":14471,"aam":14472,"Ġarguments":14473,"Ġposter":14474,"kor":14475,"Ġoffence":14476,"Ġaccommod":14477,"ĠCes":14478,"é¦¬":14479,"Ġcroy":14480,"Ġmettre":14481,"Ġenlar":14482,"sense":14483,"AGGCTGGTCTC":14484,"Ġabsorbed":14485,"Ġcostume":14486,"Ġresent":14487,"building":14488,"Ġorgans":14489,"TGGATG":14490,"Ġespe":14491,"Ġconquest":14492,"ĠParty":14493,"Ġlettre":14494,"Ġtoil":14495,"Ġcoeur":14496,"Ġdischarge":14497,"separ":14498,"Ġheel":14499,"Ġbreathing":14500,"TATGGG":14501,"igration":14502,"lab":14503,"ĠDaniel":14504,"ija":14505,"Ġdoen":14506,"ĠJen":14507,"ĠHaus":14508,"Ġmines":14509,"laid":14510,"British":14511,"TTTTTTTTTTTTTTTT":14512,"Ġhiding":14513,"elijke":14514,"hemat":14515,"period":14516,"Ġmessenger":14517,"ĠjÃ³":14518,"Ġmeantime":14519,"chein":14520,"Ġ95":14521,"Ġvai":14522,"impse":14523,"ĠGordon":14524,"ATTTTCC":14525,"fine":14526,"Ġspear":14527,"AATAGG":14528,"ĠPy":14529,"ĠBarn":14530,"Ġdame":14531,"ĠnÃ¤ky":14532,"returned":14533,"Those":14534,"Ġsinun":14535,"blished":14536,"eller":14537,"Ġlasted":14538,"ATAAATG":14539,"ĠNight":14540,"ĠTurkish":14541,"Ġpuole":14542,"Ġmuscles":14543,"ansas":14544,"undert":14545,"Ġdiscern":14546,"Ã©tais":14547,"TTTTAAAA":14548,"Ġ79":14549,"Ġseal":14550,"Ġmerchants":14551,"Ġdent":14552,"Ġfox":14553,"Ġ140":14554,"Cont":14555,"çĶ¨":14556,"Ġinward":14557,"Ġtorment":14558,"AGGAGGC":14559,"ĠDoug":14560,"history":14561,"Ġfet":14562,"ĠJon":14563,"AAGTGC":14564,"Ġwenig":14565,"Ġowned":14566,"Ġbells":14567,"philosop":14568,"Ġtullut":14569,"Still":14570,"Ġ..":14571,"udge":14572,"unicip":14573,"Ġbour":14574,"Ġattacks":14575,"Ġstable":14576,"ACCA":14577,"Ġspots":14578,"Ġcommen":14579,"Ġwilderness":14580,"CTTC":14581,"ĠAuthor":14582,"Ġreminded":14583,"æ¸":14584,"Ġannounce":14585,"æķħ":14586,"Ġinflict":14587,"Ġpleasing":14588,")(":14589,"Ġaltered":14590,"ĠBrad":14591,"imus":14592,"Ġterra":14593,"ĠseÃ±or":14594,"umbling":14595,"Ġbitterly":14596,"Ġabruptly":14597,"cou":14598,"ficial":14599,"ĠVon":14600,"Ġentertained":14601,"alement":14602,"blin":14603,"oty":14604,"impossible":14605,"Ġmaximum":14606,"Ġliable":14607,"clamation":14608,"Ġraz":14609,"Jack":14610,"ĠquÃ©":14611,"Ġolevan":14612,"Ġdashed":14613,"Ġpuzzled":14614,"mentioned":14615,"Ġvag":14616,"Ġseconds":14617,"Ġverg":14618,"Ġedges":14619,"Ã¼nk":14620,"eme":14621,"Ġlange":14622,"ĠKn":14623,"ĠDivision":14624,"Ġsunset":14625,"Ġstole":14626,"Ġobeyed":14627,"owl":14628,"TTGTTC":14629,"-----+-----+":14630,"Ġagents":14631,"Ġnewspapers":14632,"Ġartificial":14633,"è¥¿":14634,"Ġ(\"":14635,"leave":14636,"ĠEdition":14637,"Ġ99":14638,"late":14639,"Ġresembl":14640,"ÃŃas":14641,"?_":14642,"Ġrepresents":14643,"idel":14644,"Ġpainter":14645,"ĠBig":14646,"umaan":14647,"ĠKar":14648,"Ġconfessed":14649,"Ġff":14650,"situ":14651,"ATCACTTG":14652,"ĠestÃ¡":14653,"Ġprosec":14654,"Ġfrontier":14655,"Ġstolen":14656,"Ġchairs":14657,"Ġchase":14658,"Ay":14659,"Ġvro":14660,"ORT":14661,"Ġrecognition":14662,"nung":14663,"AGAGAGAG":14664,"joining":14665,"ĠPad":14666,"ienna":14667,"Po":14668,"Ġpint":14669,"Ġengra":14670,"appre":14671,"åĿ":14672,"Ġcommanding":14673,"ĠBlo":14674,"Ġwi":14675,"kil":14676,"Ġbands":14677,"Ġlleg":14678,"åı«":14679,"oner":14680,"AGTAGG":14681,"Ġprophet":14682,"Ġaroused":14683,"Ġconsec":14684,"irie":14685,"Ġdeemed":14686,"xx":14687,"Ġpous":14688,"IBILITY":14689,"Ġjeg":14690,"Ġcurse":14691,"Ġgente":14692,"Ġillustrated":14693,"Ġrobe":14694,"Ġpupils":14695,"August":14696,"prend":14697,"Ġresponded":14698,"orr":14699,"Ġwarn":14700,"Ġ00":14701,"Ġassass":14702,"é¤":14703,"Ġphysi":14704,"Ġworry":14705,"Ġhare":14706,"Ġproblems":14707,"Ġcabinet":14708,"Ġfloating":14709,"Ġwhirl":14710,"Ġblew":14711,"ÃĨ":14712,"Ġrect":14713,"Ġalarmed":14714,"attu":14715,"ĠUne":14716,"ĠPil":14717,"aya":14718,"Ġextending":14719,"Ġgravely":14720,"Ġpurchased":14721,"Ġmaintaining":14722,"ME":14723,"Ġpolic":14724,"toit":14725,"Ġdiesen":14726,"Ġsurvive":14727,"hÃ¤nen":14728,"ahren":14729,"big":14730,"amount":14731,"Ġnewly":14732,"UST":14733,"Ġcrois":14734,"ombre":14735,"Ġguilt":14736,"TTATATT":14737,"TCAGTG":14738,"Ġ83":14739,"Lie":14740,"Ġbullet":14741,"Ġunjust":14742,"minster":14743,"ĠAustri":14744,"Ġstored":14745,"paper":14746,"Ġcyl":14747,"AAGA":14748,"udo":14749,"azioni":14750,"AAGTAG":14751,"TCCCAGCTAC":14752,"Ġcertainty":14753,"ĠEu":14754,"Ġrepresentative":14755,"Ġadmin":14756,"Ġpressing":14757,"Ġartistic":14758,"ĠAD":14759,"ento":14760,"ĠJustice":14761,"Ġbend":14762,"åħµ":14763,"Ġjourn":14764,"ĠBudd":14765,"TATA":14766,"ĠWol":14767,"Ġaurait":14768,"Henry":14769,"------+":14770,"Ġawkward":14771,"Ġaccepting":14772,"ĠJu":14773,"further":14774,"Ġsmoking":14775,"attend":14776,"haft":14777,"å·ŀ":14778,"Ġwordt":14779,"ĠCambridge":14780,"ltÃ¤":14781,"TCAAGG":14782,"ĠWork":14783,"Ġrendre":14784,"Ġtemples":14785,"Ġmurmur":14786,"Ġlinen":14787,"Î¸Î·":14788,"vict":14789,"izen":14790,"AAGTTC":14791,"ĠLast":14792,"Ġrepose":14793,"Ġmisfortune":14794,"ĠScotch":14795,"atro":14796,"Ġweil":14797,"mund":14798,"atore":14799,"ĠWhether":14800,"amia":14801,"Ġrecalled":14802,"aca":14803,"Ġprevailed":14804,"Ġ115":14805,"Ġdonde":14806,"ennen":14807,"Ġkuole":14808,"åħ¥":14809,"ĠSing":14810,"Ġtechn":14811,"obile":14812,"Ġassociation":14813,"ĠKate":14814,"Ġcomplet":14815,"Ġrepair":14816,"maan":14817,"Ġwrapped":14818,"Ġimperial":14819,"æ¥":14820,"insÃ¤":14821,"æīĭ":14822,"zek":14823,"Ġposit":14824,"ĠProvin":14825,"Ġexplos":14826,"AAAAAAAAAAAAAAAA":14827,"Rich":14828,"ottaa":14829,"admir":14830,"Ġmissing":14831,"ĠWORK":14832,"halt":14833,"Though":14834,"AACTAA":14835,"ĠUl":14836,"Ġvenir":14837,"Ġscholar":14838,"BE":14839,"ĠVenice":14840,"Ġchuck":14841,"oret":14842,"ĠCond":14843,"Ġsaving":14844,"Ġretour":14845,"Ġ81":14846,"evid":14847,"_!":14848,"Ġobscure":14849,"License":14850,"Ġdevait":14851,"atrice":14852,
[...]
